{
  "version": "1.0",
  "truncation": {
    "direction": "Right",
    "max_length": 512,
    "strategy": "LongestFirst",
    "stride": 0
  },
  "padding": {
    "strategy": "BatchLongest",
    "direction": "Right",
    "pad_to_multiple_of": null,
    "pad_id": 1,
    "pad_type_id": 0,
    "pad_token": "<pad>"
  },
  "added_tokens": [
    {
      "id": 0,
      "content": "<s>",
      "single_word": false,
      "lstrip": false,
      "rstrip": false,
      "normalized": true,
      "special": true
    },
    {
      "id": 1,
      "content": "<pad>",
      "single_word": false,
      "lstrip": false,
      "rstrip": false,
      "normalized": true,
      "special": true
    },
    {
      "id": 2,
      "content": "</s>",
      "single_word": false,
      "lstrip": false,
      "rstrip": false,
      "normalized": true,
      "special": true
    },
    {
      "id": 3,
      "content": "<unk>",
      "single_word": false,
      "lstrip": false,
      "rstrip": false,
      "normalized": true,
      "special": true
    },
    {
      "id": 4,
      "content": "<mask>",
      "single_word": false,
      "lstrip": true,
      "rstrip": false,
      "normalized": false,
      "special": true
    }
  ],
  "normalizer": null,
  "pre_tokenizer": {
    "type": "ByteLevel",
    "add_prefix_space": false,
    "trim_offsets": true,
    "use_regex": true
  },
  "post_processor": {
    "type": "RobertaProcessing",
    "sep": [
      "</s>",
      2
    ],
    "cls": [
      "<s>",
      0
    ],
    "trim_offsets": true,
    "add_prefix_space": false
  },
  "decoder": {
    "type": "ByteLevel",
    "add_prefix_space": true,
    "trim_offsets": true,
    "use_regex": true
  },
  "model": {
    "type": "BPE",
    "dropout": null,
    "unk_token": null,
    "continuing_subword_prefix": "",
    "end_of_word_suffix": "",
    "fuse_unk": false,
    "byte_fallback": false,
    "ignore_merges": false,
    "vocab": {
      "<s>": 0,
      "<pad>": 1,
      "</s>": 2,
      "<unk>": 3,
      "<mask>": 4,
      "!": 5,
      "\"": 6,
      "#": 7,
      "$": 8,
      "%": 9,
      "&": 10,
      "'": 11,
      "(": 12,
      ")": 13,
      "*": 14,
      "+": 15,
      ",": 16,
      "-": 17,
      ".": 18,
      "/": 19,
      "0": 20,
      "1": 21,
      "2": 22,
      "3": 23,
      "4": 24,
      "5": 25,
      "6": 26,
      "7": 27,
      "8": 28,
      "9": 29,
      ":": 30,
      ";": 31,
      "<": 32,
      "=": 33,
      ">": 34,
      "?": 35,
      "@": 36,
      "A": 37,
      "B": 38,
      "C": 39,
      "D": 40,
      "E": 41,
      "F": 42,
      "G": 43,
      "H": 44,
      "I": 45,
      "J": 46,
      "K": 47,
      "L": 48,
      "M": 49,
      "N": 50,
      "O": 51,
      "P": 52,
      "Q": 53,
      "R": 54,
      "S": 55,
      "T": 56,
      "U": 57,
      "V": 58,
      "W": 59,
      "X": 60,
      "Y": 61,
      "Z": 62,
      "[": 63,
      "\\": 64,
      "]": 65,
      "^": 66,
      "_": 67,
      "`": 68,
      "a": 69,
      "b": 70,
      "c": 71,
      "d": 72,
      "e": 73,
      "f": 74,
      "g": 75,
      "h": 76,
      "i": 77,
      "j": 78,
      "k": 79,
      "l": 80,
      "m": 81,
      "n": 82,
      "o": 83,
      "p": 84,
      "q": 85,
      "r": 86,
      "s": 87,
      "t": 88,
      "u": 89,
      "v": 90,
      "w": 91,
      "x": 92,
      "y": 93,
      "z": 94,
      "{": 95,
      "|": 96,
      "}": 97,
      "~": 98,
      "¡": 99,
      "¢": 100,
      "£": 101,
      "¤": 102,
      "¥": 103,
      "¦": 104,
      "§": 105,
      "¨": 106,
      "©": 107,
      "ª": 108,
      "«": 109,
      "¬": 110,
      "®": 111,
      "¯": 112,
      "°": 113,
      "±": 114,
      "²": 115,
      "³": 116,
      "´": 117,
      "µ": 118,
      "¶": 119,
      "·": 120,
      "¸": 121,
      "¹": 122,
      "º": 123,
      "»": 124,
      "¼": 125,
      "½": 126,
      "¾": 127,
      "¿": 128,
      "À": 129,
      "Á": 130,
      "Â": 131,
      "Ã": 132,
      "Ä": 133,
      "Å": 134,
      "Æ": 135,
      "Ç": 136,
      "È": 137,
      "É": 138,
      "Ê": 139,
      "Ë": 140,
      "Ì": 141,
      "Í": 142,
      "Î": 143,
      "Ï": 144,
      "Ð": 145,
      "Ñ": 146,
      "Ò": 147,
      "Ó": 148,
      "Ô": 149,
      "Õ": 150,
      "Ö": 151,
      "×": 152,
      "Ø": 153,
      "Ù": 154,
      "Ú": 155,
      "Û": 156,
      "Ü": 157,
      "Ý": 158,
      "Þ": 159,
      "ß": 160,
      "à": 161,
      "á": 162,
      "â": 163,
      "ã": 164,
      "ä": 165,
      "å": 166,
      "æ": 167,
      "ç": 168,
      "è": 169,
      "é": 170,
      "ê": 171,
      "ë": 172,
      "ì": 173,
      "í": 174,
      "î": 175,
      "ï": 176,
      "ð": 177,
      "ñ": 178,
      "ò": 179,
      "ó": 180,
      "ô": 181,
      "õ": 182,
      "ö": 183,
      "÷": 184,
      "ø": 185,
      "ù": 186,
      "ú": 187,
      "û": 188,
      "ü": 189,
      "ý": 190,
      "þ": 191,
      "ÿ": 192,
      "Ā": 193,
      "ā": 194,
      "Ă": 195,
      "ă": 196,
      "Ą": 197,
      "ą": 198,
      "Ć": 199,
      "ć": 200,
      "Ĉ": 201,
      "ĉ": 202,
      "Ċ": 203,
      "ċ": 204,
      "Č": 205,
      "č": 206,
      "Ď": 207,
      "ď": 208,
      "Đ": 209,
      "đ": 210,
      "Ē": 211,
      "ē": 212,
      "Ĕ": 213,
      "ĕ": 214,
      "Ė": 215,
      "ė": 216,
      "Ę": 217,
      "ę": 218,
      "Ě": 219,
      "ě": 220,
      "Ĝ": 221,
      "ĝ": 222,
      "Ğ": 223,
      "ğ": 224,
      "Ġ": 225,
      "ġ": 226,
      "Ģ": 227,
      "ģ": 228,
      "Ĥ": 229,
      "ĥ": 230,
      "Ħ": 231,
      "ħ": 232,
      "Ĩ": 233,
      "ĩ": 234,
      "Ī": 235,
      "ī": 236,
      "Ĭ": 237,
      "ĭ": 238,
      "Į": 239,
      "į": 240,
      "İ": 241,
      "ı": 242,
      "Ĳ": 243,
      "ĳ": 244,
      "Ĵ": 245,
      "ĵ": 246,
      "Ķ": 247,
      "ķ": 248,
      "ĸ": 249,
      "Ĺ": 250,
      "ĺ": 251,
      "Ļ": 252,
      "ļ": 253,
      "Ľ": 254,
      "ľ": 255,
      "Ŀ": 256,
      "ŀ": 257,
      "Ł": 258,
      "ł": 259,
      "Ń": 260,
      "à¶": 261,
      "à·": 262,
      "Ġà¶": 263,
      "à·Ĭ": 264,
      "à·Ĵ": 265,
      "à¶±": 266,
      "à·Ģ": 267,
      "à·ı": 268,
      "à¶º": 269,
      "à¶»": 270,
      "à¶Ń": 271,
      "à·Ķ": 272,
      "à¶¸": 273,
      "à¶ļ": 274,
      "à·ĥ": 275,
      "à·Ļ": 276,
      "à·ļ": 277,
      "à¶½": 278,
      "à·Ħ": 279,
      "à¶§": 280,
      "à¶¯": 281,
      "Ġà¶ļ": 282,
      "Ġà·Ģ": 283,
      "à·Ĳ": 284,
      "Ġà¶´": 285,
      "Ġà·ĥ": 286,
      "à·ĵ": 287,
      "Ġà¶¸": 288,
      "à¶ľ": 289,
      "Ġà¶ħ": 290,
      "âĢ": 291,
      "âĢį": 292,
      "à¶´": 293,
      "à·ĬâĢį": 294,
      "Ġà¶¯": 295,
      "à·ľ": 296,
      "Ġà¶±": 297,
      "Ġà¶Ń": 298,
      "Ġà·Ħ": 299,
      "à¶«": 300,
      "Ġà¶ľ": 301,
      "à¶¶": 302,
      "Ġà¶¶": 303,
      "à¶©": 304,
      "Ġà¶ĳ": 305,
      "à·ħ": 306,
      "Ġà¶½": 307,
      "à·ģ": 308,
      "à¶Ĥ": 309,
      "à¶°": 310,
      "à·Ŀ": 311,
      "à¶ºà¶ļ": 312,
      "Ġà¶º": 313,
      "Ġà¶ļà¶»": 314,
      "Ġà¶ĩ": 315,
      "Ġà¶»": 316,
      "à·Ĥ": 317,
      "Ġà¶ī": 318,
      "à¶¢": 319,
      "à·ĸ": 320,
      "à¶ºà¶±": 321,
      "Ġà¶ĳà¶ļ": 322,
      "à¶³": 323,
      "Ġà¶Ĩ": 324,
      "à¶±à·Ģ": 325,
      "Ġà¶¢": 326,
      "Ġà¶ĩà¶Ń": 327,
      "à¶±à¶º": 328,
      "à·Ģà¶±": 329,
      "à·Ģà¶Ń": 330,
      "Ġà·ĥà¶¸": 331,
      "Ġà¶Ķ": 332,
      "Ġà¶ĭ": 333,
      "à·Ģà¶»": 334,
      "à¶ºà¶§": 335,
      "à¶Ńà¶»": 336,
      "à¶ł": 337,
      "à¶¸à¶§": 338,
      "à·ĳ": 339,
      "Ġà¶ļà¶»à¶±": 340,
      "Ġà¶¶à·Ģ": 341,
      "Ġà¶ħà¶´": 342,
      "à¶®": 343,
      "Ġà¶Ĵ": 344,
      "à¶ļà¶»": 345,
      "à·Ģà·ĥ": 346,
      "à·Ģà¶ļ": 347,
      "à¶ħ": 348,
      "Ġà·ĥà·Ħ": 349,
      "à¶´à¶Ń": 350,
      "à·Ģà¶½": 351,
      "à¶ĳ": 352,
      "à¶ºà¶½": 353,
      "à¶»à¶¸": 354,
      "Ġà¶¸à·Ħ": 355,
      "Ġà¶ħà¶±": 356,
      "Ġà¶ļà·ħ": 357,
      "à¶·": 358,
      "à¶»à¶ļ": 359,
      "Ġà·Ģà¶±": 360,
      "à¶¸à¶ļ": 361,
      "à¶»à¶º": 362,
      "à¶Ĵ": 363,
      "à¶¸à¶±": 364,
      "à¶«à¶º": 365,
      "à¶¸à¶º": 366,
      "à¶±à¶¸": 367,
      "à·Ģà¶§": 368,
      "Ġà¶¶à¶½": 369,
      "Ġà·ģ": 370,
      "à·Ģà¶º": 371,
      "Ġà¶±à¶¸": 372,
      "à¶¸à¶Ń": 373,
      "Ġà¶ºà¶±": 374,
      "à·Ħà¶±": 375,
      "à¶½à¶º": 376,
      "Ġà·ĥà¶³": 377,
      "à¶±à¶Ń": 378,
      "à¶Ł": 379,
      "Ġà¶ħà¶Ńà¶»": 380,
      "Ġà¶ħà·Ģ": 381,
      "à¶»à¶Ń": 382,
      "Ġà¶ļà¶½": 383,
      "à¶ľà¶Ń": 384,
      "Ġà¶ħà¶¯": 385,
      "Ġà¶ħà¶Ń": 386,
      "Ġ1": 387,
      "âĢįà·ĬâĢį": 388,
      "Ġà¶ħà¶º": 389,
      "Ġà¶´à¶»": 390,
      "Ġà¶´à·ĥ": 391,
      "Ġà·Ģà¶ľ": 392,
      "Ġà¶īà¶±": 393,
      "Ġà¶½à¶¶": 394,
      "Ġà¶ľà¶±": 395,
      "à¶±à¶§": 396,
      "à·Ĵà¶Ĥ": 397,
      "Ġ2": 398,
      "à·Ħà·ĥ": 399,
      "Ġà¶§": 400,
      "Ġà¶ł": 401,
      "à¶ļà¶º": 402,
      "à¶Ķ": 403,
      "Ġà¶ħà¶¸": 404,
      "Ġà·Ģà¶½": 405,
      "à¶ļà¶§": 406,
      "Ġà¶ľà¶Ń": 407,
      "à¶»à¶¯": 408,
      "à¶¹": 409,
      "Ġà¶·": 410,
      "à·ģà¶º": 411,
      "à·ĺ": 412,
      "à¶ļà¶¸": 413,
      "à¶ľà¶±": 414,
      "à¶ºà¶¸": 415,
      "Ġà·ĥà¶³à·Ħ": 416,
      "à¶½à¶±": 417,
      "Ġà¶¸à·Ħà¶Ń": 418,
      "à¶»à·Ģ": 419,
      "Ġà¶¢à¶±": 420,
      "Ġà¶ļà¶§": 421,
      "à¶½à¶ļ": 422,
      "Ġà¶´à¶Ń": 423,
      "à¶§à¶Ń": 424,
      "à¶Ńà¶º": 425,
      "Ġà¶Ķà·Ħ": 426,
      "à¶ľà¶¸": 427,
      "Ġà¶ļà¶Ń": 428,
      "Ġà·Ħà¶»": 429,
      "à·Ħà¶½": 430,
      "Ġà¶¸à¶ľ": 431,
      "à¶Ńà¶±": 432,
      "Ġà¶ħà¶°": 433,
      "Ġà¶»à¶§": 434,
      "à¶¯à¶±": 435,
      "Ġà¶¸à¶Ń": 436,
      "Ġà¶ħà·Ģà·ĥ": 437,
      "à·Ģà¶»à¶º": 438,
      "Ġà¶¯à¶ļ": 439,
      "à¶¶à¶±": 440,
      "à¶±à¶ļ": 441,
      "Ġà¶ķ": 442,
      "Ġà¶Ńà¶»": 443,
      "à·ĥà¶»": 444,
      "Ġà¶¸à¶¸": 445,
      "Ġà¶īà¶Ń": 446,
      "Ġà¶ĳà·Ħ": 447,
      "Ġà¶¸à¶§": 448,
      "00": 449,
      "Ġà·Ħà¶¸": 450,
      "Ġà¶īà¶¯": 451,
      "à·ĥà¶±": 452,
      "à¶ľà¶º": 453,
      "Ġà¶ħà¶»": 454,
      "à¶¯à¶»": 455,
      "Ġà¶Ķà¶¶": 456,
      "à·Ĩ": 457,
      "Ġà¶ĳà¶º": 458,
      "à¶§à¶¸": 459,
      "Ġà·Ģà¶»": 460,
      "Ġà¶ĳà¶¸": 461,
      "à¶»à¶«": 462,
      "Ġà¶ĳà¶ļà¶ļ": 463,
      "Ġà¶ĭà¶´": 464,
      "à¶¶à¶³": 465,
      "à¶ī": 466,
      "à¶ºà¶º": 467,
      "à¶ħà¶´": 468,
      "à¶ľà¶½": 469,
      "Ġà¶¸à¶±": 470,
      "Ġà¶Ńà¶¸": 471,
      "à¶ºà¶Ń": 472,
      "Ġà·ĥà¶Ń": 473,
      "à·ĥà¶ļ": 474,
      "Ġà¶´à·ħ": 475,
      "à¶¸à¶«": 476,
      "Ġà¶Ńà¶¸à¶º": 477,
      "à¶ļà¶ļ": 478,
      "Ġà¶Ķà¶º": 479,
      "Ġà¶ĭà¶±": 480,
      "Ġà¶ļà¶§à¶º": 481,
      "à¶»à·ĥ": 482,
      "Ġà¶Ķà·Ģ": 483,
      "Ġà¶ķà¶±": 484,
      "à¶¯à¶º": 485,
      "Ġà¶ħà¶½": 486,
      "à¶¢à¶±": 487,
      "Ġà¶ħà¶©": 488,
      "à¶¢à¶º": 489,
      "à¶Ľ": 490,
      "à·Ĥà¶º": 491,
      "à·ĥà¶º": 492,
      "à¶»à¶§": 493,
      "à·Ľ": 494,
      "à¶©à¶ļ": 495,
      "Ġà¶¯à¶»": 496,
      "Ġà¶ĭà¶Ń": 497,
      "à¶ĳà·Ħ": 498,
      "Ġà¶½à¶ļ": 499,
      "à·Ĥà¶«": 500,
      "à·ŀ": 501,
      "Ġà¶Ĭ": 502,
      "à¶°à¶º": 503,
      "à·Ħà¶»": 504,
      "Ġà¶°": 505,
      "à¶±à·ĥ": 506,
      "Ġà¶´à¶¸à¶«": 507,
      "01": 508,
      "Ġà¶¶à·Ģà¶º": 509,
      "à¶Ńà¶¸": 510,
      "Ġà·Ģà¶©": 511,
      "à·ĥà¶½": 512,
      "à¶ĩ": 513,
      "Ġà¶©": 514,
      "à¶±à¶ºà¶ļ": 515,
      "Ġà¶´à·Ģà¶Ń": 516,
      "à¶¸à¶¸": 517,
      "à¶Ńà¶ļ": 518,
      "Ġà¶ĳà¶±": 519,
      "à¶¸à¶»": 520,
      "à·ĥà¶¸": 521,
      "Ġà¶½à¶¯": 522,
      "à¶ļà¶½": 523,
      "à¶»à¶±": 524,
      "Ġà¶Ĵà¶ļ": 525,
      "à¶ºà·Ģ": 526,
      "Ġà¶ĭà¶¯": 527,
      "à·ıà¶Ĥ": 528,
      "à¶§à¶±": 529,
      "Ġà¶¯à¶±": 530,
      "Ġà¶´à¶ļ": 531,
      "à¶¯à¶½": 532,
      "à·Ģà¶¯": 533,
      "à·Ģà¶¸": 534,
      "Ġ3": 535,
      "à·ģà¶´": 536,
      "Ġà¶Ńà¶Ń": 537,
      "à¶°à¶±": 538,
      "Ġà¶¢à¶±à¶Ń": 539,
      "à¶´à¶ļ": 540,
      "à·Ĵ.": 541,
      "Ġà¶ļà¶¸": 542,
      "à¶ºà¶ļà¶§": 543,
      "Ġà¶ļà¶»à¶¸": 544,
      "Ġà¶¶à·Ģà¶§": 545,
      "Ġà¶Ńà¶¸à¶±": 546,
      "Ġà¶ļà¶»à¶½": 547,
      "à¶´à·ĥ": 548,
      "à¶»à·Ħ": 549,
      "à¶´à¶±": 550,
      "Ġà¶ħà·ĥ": 551,
      "Ġà·ĥà¶¸à¶ľ": 552,
      "à¶»à·ģ": 553,
      "Ġà·ĥà¶³à·Ħà¶±": 554,
      "à¶¨": 555,
      "Ġà¶ħà·Ģà·ģ": 556,
      "Ġà·ĥà¶·": 557,
      "à¶´à¶º": 558,
      "à¶»à¶°": 559,
      "Ġà·Ģà·ĥà¶»": 560,
      "à¶§à¶»": 561,
      "Ġà·Ĩ": 562,
      "à¶ĭ": 563,
      "Ġà¶´à¶¯": 564,
      "à·ĥà¶Ń": 565,
      "Ġà¶Ĩà¶»": 566,
      "Ġà·ĥà¶¯": 567,
      "Ġà¶´à·Ģà·ĥ": 568,
      "à¶±à¶ºà¶§": 569,
      "à¶»à¶«à¶º": 570,
      "Ġà¶ľà¶¸à¶±": 571,
      "à¶ħà¶±": 572,
      "Ġà¶īà¶½": 573,
      "à·Ģà¶½à¶§": 574,
      "Ġà·ħ": 575,
      "Ġà¶´à·Ħ": 576,
      "à¶Ĩ": 577,
      "Ġà¶ĳà¶½": 578,
      "Ġà·Ģà¶½à¶§": 579,
      "Ġ201": 580,
      "à¶¯à·Ħà·ĥ": 581,
      "Ġà¶¶à·Ģà¶Ń": 582,
      "à¶ºà¶¯": 583,
      "à¶Ńà·Ģ": 584,
      "Ġà¶¶à¶½à¶±": 585,
      "Ġà¶ļà¶«": 586,
      "Ġà¶ħà¶¯à·Ħà·ĥ": 587,
      "à·ĵ.": 588,
      "Ġà¶Ĩà¶º": 589,
      "à·ĥà¶§": 590,
      "à¶ºà¶ľ": 591,
      "Ġà¶ļà¶»à¶±à·Ģ": 592,
      "Ġà·Ģà¶Ń": 593,
      "Ġà¶´à¶±": 594,
      "Ġà¶´à·Ģ": 595,
      "Ġà¶Ĩà¶«": 596,
      "Ġà¶Ńà·Ģà¶Ń": 597,
      "Ġà·Ģà¶§": 598,
      "Ġà¶¯à·Ģà·ĥ": 599,
      "à¶ĳà¶¸": 600,
      "à¶ºà·ĥ": 601,
      "à·ħà¶¹": 602,
      "Ġà¶ļà¶©": 603,
      "à¶¸à¶¯": 604,
      "Ġ5": 605,
      "Ġà·Ħà¶¯": 606,
      "à¶½à¶§": 607,
      "à¶»à¶ºà¶ļ": 608,
      "à¶½à¶°": 609,
      "Ġà¶Ĩà¶»à¶ļ": 610,
      "à¶½à¶ºà¶ļ": 611,
      "Ġà¶Ĩà¶ļ": 612,
      "à¶ļà¶»à¶±": 613,
      "Ġà¶ļà·Ģ": 614,
      "Ġà·Ģà·ģà¶º": 615,
      "à·Ĭ.": 616,
      "à¶¥": 617,
      "Ġà¶ħà·Ħ": 618,
      "à¶¶à¶»": 619,
      "Ġà¶±à·Ģ": 620,
      "Ġà¶Ĩà¶¯": 621,
      "Ġà¶Ńà¶»à¶¸": 622,
      "à·Ģà¶ºà¶ļ": 623,
      "à¶Ńà¶½": 624,
      "Ġ4": 625,
      "à¶´à¶ºà¶ļ": 626,
      "Ġà¶īà·ĥ": 627,
      "Ġà¶Ĵà·Ģ": 628,
      "à¶ºà¶±à·Ģ": 629,
      "Ġà¶ľà¶«": 630,
      "à¶±à¶±": 631,
      "à¶ļà¶»à¶«": 632,
      "à¶ĳà¶º": 633,
      "à¶»à¶´": 634,
      "à¶½à·ĥ": 635,
      "à¶ļà¶»à¶«à¶º": 636,
      "à¶§à¶´": 637,
      "à·Ĥà¶ļ": 638,
      "Ġà¶ĩà¶º": 639,
      "Ġà·ĥà¶¸à¶Ł": 640,
      "à¶Ķà¶º": 641,
      "à¶Ķà·Ħ": 642,
      "Ġà¶Ńà·Ģ": 643,
      "à¶ļà·Ģ": 644,
      "à¶¶à¶½": 645,
      "à¶Ĵà¶Ń": 646,
      "à¶¶à¶¯": 647,
      "à¶¡": 648,
      "à¶ºà·Ģà¶»": 649,
      "à¶½à·Ģ": 650,
      "Ġà¶ļà¶±": 651,
      "à¶Ĭ": 652,
      "à¶ļà¶Ń": 653,
      "à¶¸à¶½": 654,
      "Ġà¶»à¶¢à¶º": 655,
      "à¶½à¶±à¶º": 656,
      "à¶ļà¶¯": 657,
      "Ġà¶ħà¶·": 658,
      "à¶¬": 659,
      "Ġà¶ĳà¶ļà¶Ń": 660,
      "à¶¢à¶´à¶ļ": 661,
      "Ġà¶¡": 662,
      "à¶Ķà¶¶": 663,
      "Ġà¶Ĩà¶»à¶¸": 664,
      "à¶»à¶½": 665,
      "Ġà·ĥà¶±": 666,
      "à¶»à¶ºà¶§": 667,
      "à¶¸à¶ľ": 668,
      "Ġà¶ºà¶¸": 669,
      "Ġà¶»à¶¢": 670,
      "Ġà¶ħà¶ļ": 671,
      "Ġ0": 672,
      "Ġà¶īà·Ħ": 673,
      "à·Ĥà¶«à¶º": 674,
      "Ġà¶ºà¶§à¶Ń": 675,
      "à¶¶à¶³à·Ģ": 676,
      "à¶ľà¶½à¶º": 677,
      "Ġà¶Ĩà·Ģ": 678,
      "Ġ19": 679,
      "à¶īà¶Ń": 680,
      "à¶°à¶Ń": 681,
      "Ġà¶±à¶ľ": 682,
      "Ġà¶¸à¶½": 683,
      "Ġà¶ĳà¶ļà¶§": 684,
      "à¶§à¶½": 685,
      "à·Ĳà¶Ĥ": 686,
      "Ġà¶½à¶¶à¶±": 687,
      "Ġà¶ħà¶ľ": 688,
      "Ġà¶ĳà¶»": 689,
      "à¶ħà¶©": 690,
      "à·Ħà¶§": 691,
      "à¶´à¶¯": 692,
      "à¶¯à¶ļ": 693,
      "à¶¸à·ĥ": 694,
      "Ġà¶´à¶¸à¶«à¶ļ": 695,
      "Ġà¶ħà¶±à¶Ń": 696,
      "à¶łà¶±": 697,
      "à¶§à¶º": 698,
      "Ġà¶īà¶©": 699,
      "à¶°à¶±à¶º": 700,
      "à¶½à¶¸": 701,
      "Ġà¶ļà¶»à¶ľ": 702,
      "à¶ħà¶¯": 703,
      "à¶ļà¶ºà¶±": 704,
      "à¶ĳà¶ļ": 705,
      "Ġà¶ħà·Ģà·ĥà¶±": 706,
      "Ġà¶ĳà¶´": 707,
      "Ġ6": 708,
      "Ġà¶ľà¶¸": 709,
      "Ġà¶ĩà·ĥ": 710,
      "à¶ĳà·ĥ": 711,
      "à¶Ńà¶»à¶º": 712,
      "Ġà¶¸à¶°": 713,
      "Ġà¶ĩà·Ģ": 714,
      "à¶ľà¶ºà¶ļ": 715,
      "Ġà¶ĳà·Ģ": 716,
      "à¶Ŀ": 717,
      "à¶Ķà·Ģ": 718,
      "à¶ļà¶ł": 719,
      "à¶½à¶Ń": 720,
      "Ġà¶ļà¶»à¶º": 721,
      "Ġà¶īà·Ģà¶Ń": 722,
      "Ġà·Ģà·Ħà¶±": 723,
      "Ġà¶¶à·ĥ": 724,
      "à¶´à¶»": 725,
      "à¶§à·ĥ": 726,
      "à·Ķà¶Ĥ": 727,
      "à¶Ĵà¶ļ": 728,
      "Ġà¶¸à¶Ńà¶ļ": 729,
      "à¶«à¶ºà¶ļ": 730,
      "à·ģà¶±": 731,
      "Ġà¶¸à¶«": 732,
      "Ġà·Ħà¶³": 733,
      "à¶Ńà¶§": 734,
      "à·Ģà¶»à¶«à¶º": 735,
      "Ġà¶´à¶§à¶±": 736,
      "à¶¯à¶ľà¶Ń": 737,
      "à¶´à¶±à¶º": 738,
      "Ġà¶ħà¶´à¶§": 739,
      "à¶Ńà¶Ń": 740,
      "Ġà¶»à·ĥ": 741,
      "Ġà·ĥà¶¯à·Ħ": 742,
      "Ġà¶»à¶®": 743,
      "à¶ļà·ħ": 744,
      "à¶»à¶¢": 745,
      "à¶ļà¶±": 746,
      "à¶©à¶±": 747,
      "à·Ħà¶¸": 748,
      "Ġà¶´à¶½": 749,
      "Ġà¶Ńà¶»à¶ľ": 750,
      "Ġ7": 751,
      "à¶ºà·Ģà·ĥ": 752,
      "Ġà¶ĳà·ĥ": 753,
      "à¶»à¶§à¶Ń": 754,
      "à¶¯à¶±à¶º": 755,
      "Ġà¶ħà·Ģà¶°": 756,
      "Ġà¶Ĭà¶§": 757,
      "à·Ģà¶ļà¶§": 758,
      "à¶¢à¶±à¶º": 759,
      "Ġà¶ļà¶»à¶ľà¶±": 760,
      "à·Ģà¶ľ": 761,
      "Ġà·Ģà·ĥ": 762,
      "à·Ļà·Ĭ": 763,
      "Ġà¶ĩà¶¸à¶Ń": 764,
      "à¶¸à·Ħ": 765,
      "Ġà¶»à¶±": 766,
      "à¶±à¶¯": 767,
      "à¶³à·Ģ": 768,
      "Ġà¶Ĭà¶º": 769,
      "à¶łà¶»": 770,
      "Ġà¶ĭà·ĥ": 771,
      "à¶«à¶Ń": 772,
      "Ġà¶¸à¶»": 773,
      "à¶ºà·Ģà¶»à¶º": 774,
      "Ġà¶īà·Ħà·ħ": 775,
      "Ġà¶´à·Ħà·ĥ": 776,
      "Ġà¶¶à¶½à¶´": 777,
      "Ġà¶´à·ħà¶¸": 778,
      "Ġ8": 779,
      "à¶«à¶ļ": 780,
      "Ġà¶ľà¶½": 781,
      "Ġà¶¶à¶±": 782,
      "à¶ļà·ĥ": 783,
      "Ġà¶¸à·ĥ": 784,
      "Ġà·ĥà·Ħà¶·": 785,
      "à¶īà¶±": 786,
      "Ġà¶¶à·Ħ": 787,
      "Ġà¶īà¶³": 788,
      "Ġà¶ºà¶±à·Ģ": 789,
      "Ġà¶¶à¶¯": 790,
      "à¶½à¶ľ": 791,
      "Ġà¶Ķà¶¶à¶§": 792,
      "Ġà¶ľà¶«à¶±": 793,
      "à¶Ńà¶»à¶¸": 794,
      "à¶ĩà¶Ń": 795,
      "000": 796,
      "à·Ģà¶ºà¶§": 797,
      "à¶´à¶½": 798,
      "Ġà¶ħà¶»à¶¸": 799,
      "à·ģà¶ļ": 800,
      "Ġ10": 801,
      "Ġà¶ĭà¶©": 802,
      "Ġà¶¡à¶±": 803,
      "Ġà¶ĳà·ħ": 804,
      "Ġà¶»à¶§à·Ģà¶½": 805,
      "Ġà¶Ŀ": 806,
      "Ġà·ĥà¶§": 807,
      "à·Ģà¶»à¶«": 808,
      "Ġà·Ħà¶»à·Ħ": 809,
      "Ġà¶īà¶ļ": 810,
      "Ġà¶Ńà·Ħ": 811,
      "Ġà¶ĩà¶¸": 812,
      "à¶ºà¶ļà¶º": 813,
      "à¶ºà·Ģà¶±": 814,
      "à·Ħà¶Ń": 815,
      "Ġà¶ĳà¶ļà¶¸": 816,
      "Ġà¶»à¶Ń": 817,
      "à¶±à¶½": 818,
      "ĠâĢį": 819,
      "à¶¯à·Ģ": 820,
      "à¶Ńà¶±à¶º": 821,
      "Ġà¶Ĩà¶¯à¶»": 822,
      "à·ĥà¶§à·Ħà¶±": 823,
      "Ġà·ĥà¶»": 824,
      "Ġà¶ħà¶ºà¶§": 825,
      "Ġà¶ĭà¶¹": 826,
      "Ġà¶ĳà¶¯": 827,
      "à¶½à¶¯": 828,
      "à¶»à¶¸à¶º": 829,
      "Ġà¶¶à¶»": 830,
      "Ġà¶ļà¶»à¶´": 831,
      "Ġà¶Ĩà·ĥ": 832,
      "Ġà¶Ĩà¶ºà¶Ń": 833,
      "Ġà¶ħà¶¸à¶Ń": 834,
      "Ġà·Ģà¶±à·Ģ": 835,
      "à¶©à·ĥà¶§à·Ħà¶±": 836,
      "Ġà¶Ńà¶¶": 837,
      "à¶§à·Ħ": 838,
      "Ġà¶ĩà·Ħ": 839,
      "Ġà¶±à¶©": 840,
      "Ġà¶¶à¶½à¶º": 841,
      "Ġà¶īà¶ľ": 842,
      "Ġà¶ĩà¶¯": 843,
      "Ġà¶ĭà¶´à¶¯": 844,
      "Ġà·ģà¶ļ": 845,
      "Ġà¶Ķà¶ļ": 846,
      "Ġ9": 847,
      "Ġà·ĥà¶¸à·Ħà¶»": 848,
      "à¶ºà¶´": 849,
      "à¶±à¶ľ": 850,
      "à¶±à·Ģà¶¯": 851,
      "à¶±à¶»": 852,
      "Ġà¶Ńà¶±": 853,
      "à¶¸à·ħ": 854,
      "Ġà¶Ĩà·Ħ": 855,
      "Ġà¶ĳà¶Ń": 856,
      "à¶»à¶´à¶§": 857,
      "à·Ĥà¶±": 858,
      "Ġà·ĥà¶§à·Ħà¶±": 859,
      "à·Ħà¶º": 860,
      "à¶Ńà¶§à¶¸": 861,
      "Ġà¶ħà¶´à¶»": 862,
      "à¶Ńà¶ºà¶ļ": 863,
      "à·ħà¶ļ": 864,
      "à¶Ńà¶»à¶ļ": 865,
      "à¶ºà¶ºà¶±": 866,
      "à¶©à¶¸": 867,
      "Ġà¶ħà¶ºà¶Ń": 868,
      "Ġ20": 869,
      "Ġà¶ħà¶©à·Ģ": 870,
      "Ġà¶´à¶§": 871,
      "Ġà¶Ķà·ĥ": 872,
      "à¶¯à¶ºà¶ļ": 873,
      "à¶©à¶½à¶º": 874,
      "Ġà¶¯à¶¸": 875,
      "Ġà¶¶à·Ģà¶¯": 876,
      "à¶Ĭà¶§": 877,
      "à¶±à·Ģà¶½": 878,
      "à·ģà¶±à¶º": 879,
      "Ġà¶ºà¶§": 880,
      "à¶´à·Ģ": 881,
      "à·ģà¶ºà¶§": 882,
      "Ġà¶łà¶»": 883,
      "à¶»à¶ł": 884,
      "Ġà¶ĩà¶³": 885,
      "à¶»à¶«à¶ºà¶ļ": 886,
      "Ġà·ĥà¶½": 887,
      "Ġà¶ħà¶ľà¶¸": 888,
      "Ġà¶Ĩà¶ºà¶Ńà¶±": 889,
      "à¶ºà¶»": 890,
      "à¶§à¶ļ": 891,
      "Ġà·ħà¶¸à¶º": 892,
      "Ġà¶łà¶±": 893,
      "Ġà¶ļà¶®": 894,
      "à¶¸à·Ģ": 895,
      "à¶µ": 896,
      "Ġà¶Ĩà¶ľà¶¸": 897,
      "à¶ºà¶ļà¶Ń": 898,
      "Ġà¶½à·ĥ": 899,
      "à·ĥà¶³": 900,
      "Ġà·Ģà¶ľà¶ļ": 901,
      "Ġà¶ºà¶º": 902,
      "Ġà¶Ī": 903,
      "Ġà¶¢à¶±à¶´": 904,
      "Ġà¶Ĩà·ĥà¶±": 905,
      "201": 906,
      "Ġ15": 907,
      "Ġà¶Ĩà¶±": 908,
      "Ġà·Ħà¶¯à¶±": 909,
      "Ġà¶ĩà¶±": 910,
      "à¶°à·Ģ": 911,
      "à¶ļà¶ºà¶ļ": 912,
      "à¶ħà¶¸": 913,
      "à·ħà¶Ń": 914,
      "Ġà¶ĩà¶¸à¶»": 915,
      "à¶´à·Ħ": 916,
      "19": 917,
      "Ġà¶ĩà¶»": 918,
      "Ġà¶īà¶»": 919,
      "Ġà¶ļà¶´": 920,
      "Ġà¶¶à¶º": 921,
      "Ġà¶ºà·Ħ": 922,
      "à¶¸à¶§à¶Ń": 923,
      "à¶½à¶»": 924,
      "Ġà¶¸à¶Ł": 925,
      "Ġà¶¸à·Ģ": 926,
      "Ġà¶°à¶»": 927,
      "à¶ĩà¶º": 928,
      "à¶ķ": 929,
      "Ġà·ĥà¶¸à¶Ń": 930,
      "Ġà¶Ĩà¶ºà¶Ńà¶±à¶º": 931,
      "à·Ģà·Ģ": 932,
      "Ġà¶´à·Ģà·ĥà¶º": 933,
      "Ġ12": 934,
      "à·ģà¶ºà¶ļ": 935,
      "Ġà·Ĥ": 936,
      "Ġà¶Ĩà·ģ": 937,
      "à¶Ńà¶»à·Ģ": 938,
      "à·Ħà¶ļ": 939,
      "Ġ200": 940,
      "Ġà¶ĩà¶½": 941,
      "Ġà·ĥà·Ħà¶º": 942,
      "à·ħà¶³": 943,
      "à¶ľà¶»": 944,
      "Ġà¶¢à¶½": 945,
      "à¶ļà¶©": 946,
      "à¶ľà¶¸à¶º": 947,
      "à¶»à¶ľ": 948,
      "à¶«à¶±": 949,
      "Ġà¶īà¶§": 950,
      "Ġà¶ļà¶»à¶ľà¶Ń": 951,
      "Ġà¶±à·Ģà¶Ń": 952,
      "à¶½à¶´": 953,
      "à¶´à·ħ": 954,
      "à¶¸à¶ºà¶ļ": 955,
      "à¶°à¶ºà¶ļ": 956,
      "à¶Ńà¶ºà¶§": 957,
      "à¶»à¶®": 958,
      "à¶½à¶ºà¶§": 959,
      "à·Ģà¶ºà¶±": 960,
      "Ġà·ĥà¶½à¶ļ": 961,
      "Ġà¶´à·Ħà¶Ń": 962,
      "Ġà¶¢à¶ºà¶ľ": 963,
      "Ġà¶Ĩà¶ł": 964,
      "à¶»à¶¸à·ĥ": 965,
      "Ġà·ĥà¶ļà·ĥ": 966,
      "Ġà·ĥà¶§à¶±": 967,
      "à¶»à¶ºà¶±": 968,
      "à·ļ.": 969,
      "Ġà¶ĭà¶¯à·Ģ": 970,
      "à¶¯à¶¸": 971,
      "à¶·à¶º": 972,
      "Ġà·ħà¶Ł": 973,
      "Ġà¶ħà¶¸à¶Ńà¶ļ": 974,
      "Ġà¶´à¶«": 975,
      "Ġà·Ģà¶ºà·ĥ": 976,
      "à¶®à¶ļ": 977,
      "Ġà¶¯à·Ģà·ĥà¶ļ": 978,
      "Ġà·Ħà¶§": 979,
      "Ġà·ĥà¶¯à·Ħà¶±": 980,
      "Ġà·Ģà¶»à¶¯": 981,
      "à¶Ķà¶±": 982,
      "Ġà¶¶à¶©": 983,
      "à¶ļà¶ļà¶»": 984,
      "Ġà·Ģà·Ħ": 985,
      "à¶Ńà·Ģà¶Ń": 986,
      "Ġà·ĥà¶´": 987,
      "Ġà¶±à¶ľà¶»à¶º": 988,
      "à¶ºà¶ºà¶ļ": 989,
      "Ġ18": 990,
      "à¶ħà¶»": 991,
      "Ġà¶Ķà¶±": 992,
      "Ġà¶»à¶§à¶ļ": 993,
      "à¶©à¶º": 994,
      "Ġà¶ľà·ĥ": 995,
      "Ġà¶ºà·ħ": 996,
      "à¶±à·Ħ": 997,
      "Ġ30": 998,
      "à¶¸à¶ļà¶§": 999,
      "à¶¯à¶§": 1000,
      "à¶ºà·Ħ": 1001,
      "Ġà¶¶à¶«": 1002,
      "à¶ºà¶ºà¶§": 1003,
      "à·ĥà¶¸à·Ħà¶»": 1004,
      "Ġà¶´à·Ģà·ĥà¶±": 1005,
      "Ġà¶¸à¶¯": 1006,
      "Ġ11": 1007,
      "Ġà¶ľà·Ħ": 1008,
      "Ġà¶ħà·Ħà¶±": 1009,
      "à¶»à·Ģà¶»": 1010,
      "Ġà¶ħà¶»à¶±": 1011,
      "Ġà¶ĭà¶±à¶Ń": 1012,
      "à¶»à¶ļà¶§": 1013,
      "Ġà¶¸à·Ħà¶±": 1014,
      "à¶ħà¶Ń": 1015,
      "Ġà¶Ńà¶»à¶ľà¶º": 1016,
      "Ġà¶ĩà¶ľ": 1017,
      "Ġà¶¢à¶º": 1018,
      "Ġà¶ĳà¶±à·Ģ": 1019,
      "Ġà¶´à¶¯à¶±à¶¸": 1020,
      "Ġà¶ĭà·ĥà·ĥ": 1021,
      "à¶§à·Ģ": 1022,
      "à¶ºà·ħ": 1023,
      "Ġà¶ħà¶¸à¶Ńà¶»à·Ģ": 1024,
      "Ġà¶Į": 1025,
      "Ġà¶ľà¶»": 1026,
      "Ġà¶ħà¶»à¶ľ": 1027,
      "à¶±à·Ģà¶Ń": 1028,
      "à¶¢à¶ļ": 1029,
      "Ġà¶ĭà¶«": 1030,
      "Ġ25": 1031,
      "à·Ģà·Ħà¶±": 1032,
      "Ġà¶Ĩà¶°": 1033,
      "à¶łà¶±à¶º": 1034,
      "Ġà¶¯à·Ħ": 1035,
      "Ġà¶´à¶±à¶Ń": 1036,
      "à¶»à¶ľà¶Ń": 1037,
      "Ġ000": 1038,
      "à·ĴâĢįà·ĬâĢį": 1039,
      "Ġà¶Ńà·Ģà¶¸à¶Ń": 1040,
      "Ġà¶Ńà·Ģà¶¯": 1041,
      "Ġà¶»à¶ļ": 1042,
      "à¶¤": 1043,
      "à¶ĭà¶¹": 1044,
      "à¶ħà·Ģ": 1045,
      "Ġà¶Ńà¶»à¶Ł": 1046,
      "Ġà¶«": 1047,
      "à¶ľà¶½à¶ºà¶±": 1048,
      "Ġà¶¸à¶»à¶«": 1049,
      "à¶±à¶ºà¶±": 1050,
      "Ġà·ĥà¶º": 1051,
      "à¶©à¶½": 1052,
      "à·ħà¶¯": 1053,
      "Ġà¶ħà·Ģà¶¶": 1054,
      "à¶»à·ħ": 1055,
      "à¶ĳà·Ģ": 1056,
      "Ġà¶ļà·Ģà¶¯": 1057,
      "Ġà¶¶à¶§à·Ħ": 1058,
      "Ġà¶Ĩà¶¯à¶»à¶º": 1059,
      "Ġ13": 1060,
      "à¶ĳà¶Ńà¶ļ": 1061,
      "Ġà·Ģà¶łà¶±": 1062,
      "Ġà¶ľà·Ħà¶±": 1063,
      "Ġà·ħà¶¸": 1064,
      "à·ı.": 1065,
      "à¶®à¶±": 1066,
      "Ġà·ĥà¶¸à¶±": 1067,
      "Ġà·Ģà¶º": 1068,
      "Ġà¶´à·Ħà¶»": 1069,
      "à·ĥà¶ºà¶ļ": 1070,
      "à¶ĳà¶Ń": 1071,
      "à¶¶à·Ģ": 1072,
      "à¶³à¶¸": 1073,
      "à¶ĳà¶¯": 1074,
      "à¶ļà¶¸à¶ļ": 1075,
      "Ġà¶ļà¶³": 1076,
      "Ġà¶īà·Ģà¶»": 1077,
      "à¶ºà¶¯à¶¸": 1078,
      "Ġà¶»à¶§à¶§": 1079,
      "à¶ºà¶§à¶¸": 1080,
      "Ġà¶±à¶ľà¶»": 1081,
      "à¶»à¶ļà¶¸": 1082,
      "Ġà¶ħà¶¶": 1083,
      "Ġà¶´à·Ħà·ħ": 1084,
      "à·ħà¶Ł": 1085,
      "Ġà¶´à¶¸": 1086,
      "Ġà¶¯à¶Ń": 1087,
      "Ġà¶Ńà·Ħà¶±à¶¸": 1088,
      "Ġà·Ħà¶º": 1089,
      "à¶¯à¶ºà¶§": 1090,
      "Ġà·ĥà¶¸à¶º": 1091,
      "à¶§à·ĥà¶ļ": 1092,
      "Ġà¶¢à¶±à¶´à¶Ń": 1093,
      "Ġ100": 1094,
      "à¶³à¶º": 1095,
      "Ġà¶ĩà¶Ł": 1096,
      "à¶¢à·Ģ": 1097,
      "à·Ģà¶·": 1098,
      "Ġ16": 1099,
      "Ġà¶ħà·Ģà¶¯": 1100,
      "à¶ħà¶º": 1101,
      "Ġà¶»à¶«": 1102,
      "Ġà·Ħà¶Ńà¶»": 1103,
      "Ġà¶īà¶©à¶¸": 1104,
      "Ġà¶¢à¶½à¶º": 1105,
      "à¶ľà¶§à¶¸": 1106,
      "Ġ14": 1107,
      "à·Ļà·ı": 1108,
      "à¶Ńà¶»à¶ºà¶ļ": 1109,
      "à·Ĥà¶ºà¶ļ": 1110,
      "à¶ľà¶ºà¶§": 1111,
      "à¶§à·ħ": 1112,
      "à·ĥà¶¯": 1113,
      "Ġà¶ºà¶Ń": 1114,
      "Ġà¶Ńà·Ħà·Ģ": 1115,
      "à¶¯à¶»à¶º": 1116,
      "Ġà¶īà·Ħà¶½": 1117,
      "à·Ĥà¶ºà¶§": 1118,
      "Ġà¶ĳà¶ļà¶Ł": 1119,
      "à¶°à¶ļ": 1120,
      "à¶ºà¶¸à¶ļ": 1121,
      "à¶»à¶·": 1122,
      "Ġà·ģà¶»": 1123,
      "Ġà¶Ńà¶¯": 1124,
      "à¶Ńà¶¸à¶±": 1125,
      "Ġà¶ħà·ĥà¶½": 1126,
      "à·Ĥà¶«à¶ºà¶ļ": 1127,
      "à·Ģà¶±à·Ģ": 1128,
      "Ġà¶»à·Ħà·ĥ": 1129,
      "à¶»à¶´à¶§à¶º": 1130,
      "Ġà¶ĭà¶»": 1131,
      "à¶ŀ": 1132,
      "Ġà¶¶à¶»à¶´à¶Ń": 1133,
      "Ġà¶»à·Ģ": 1134,
      "Ġà¶´à¶»à¶¸": 1135,
      "à¶±à¶ļà¶§": 1136,
      "Ġà¶Ĩà¶´": 1137,
      "à¶±à·Ģà¶±": 1138,
      "à¶»à¶®à¶¸": 1139,
      "à·ĥà·Ģ": 1140,
      "Ġà·Ħà¶¬": 1141,
      "à¶§à¶¯": 1142,
      "Ġà¶«à¶º": 1143,
      "à·Ģà¶½à¶¯": 1144,
      "à¶©à¶´": 1145,
      "à·ĥà·Ħ": 1146,
      "Ġà¶¢à¶±à·Ģ": 1147,
      "Ġà¶¯à·Ħà·ĥ": 1148,
      "à¶ľà¶Ńà¶º": 1149,
      "Ġà¶´à·Ģà·ĥà¶±à·Ģ": 1150,
      "à¶±à¶ľà¶±": 1151,
      "Ġ17": 1152,
      "à¶®à¶º": 1153,
      "à¶Ńà¶ºà¶±": 1154,
      "Ġà¶ļà·ħà¶¸à¶±": 1155,
      "à¶Ĵà·Ģ": 1156,
      "Ġà¶ħà·Ģà¶¸": 1157,
      "Ġà¶ħà¶ºà¶ľ": 1158,
      "Ġà¶°à¶±": 1159,
      "Ġà¶ħà¶³": 1160,
      "Ġà¶ħà¶´à¶ľ": 1161,
      "Ġà¶ħà¶Ńà¶§": 1162,
      "Ġà¶ºà·Ħà¶´à¶Ń": 1163,
      "à·Ĥà¶Ń": 1164,
      "à¶»à·Ģà¶½": 1165,
      "Ġà¶ħà¶´à·Ħà·ĥ": 1166,
      "Ġà¶ĭà¶´à¶ļ": 1167,
      "à·Ģà·Ħ": 1168,
      "Ġà¶Ľ": 1169,
      "Ġà·Ģà¶¯": 1170,
      "à¶ĳà¶±": 1171,
      "Ġà¶±à¶»": 1172,
      "Ġà·ĥà·Ģ": 1173,
      "Ġà·ĥà·Ħà¶Ń": 1174,
      "à¶ļà¶»à¶«à¶ºà¶§": 1175,
      "à·Ħà¶¯": 1176,
      "Ġà¶ĭà¶´à¶±": 1177,
      "Ġ24": 1178,
      "à·Ĥà¶ļà¶º": 1179,
      "à¶»à¶¯à¶»": 1180,
      "à¶ħà¶½": 1181,
      "Ġà¶¸à·Ħà¶¢à¶±": 1182,
      "Ġà¶ļà·ĥ": 1183,
      "Ġà¶ĳà¶ºà¶§": 1184,
      "Ġà¶īà¶³à¶½": 1185,
      "à¶¯à¶½à¶ļ": 1186,
      "Ġà¶¢à¶ºà·ĥ": 1187,
      "à¶ºà¶½à¶º": 1188,
      "Ġà·ĥà¶¸à·ĥ": 1189,
      "à·ģà·Ģà¶½": 1190,
      "Ġ2018": 1191,
      "Ġà·Ħà¶Ń": 1192,
      "Ġà¶ĳà¶ļà¶º": 1193,
      "à¶»à¶¸à¶ºà¶ļ": 1194,
      "Ġà¶Ńà¶±à¶Ń": 1195,
      "Ġà¶¥": 1196,
      "Ġà¶īà·Ħà¶Ń": 1197,
      "Ġà¶īà¶½à¶ļ": 1198,
      "à¶ĭà¶Ń": 1199,
      "Ġ50": 1200,
      "à¶¶à·ĥ": 1201,
      "à¶»à·Ħà¶«à¶º": 1202,
      "à¶©à¶»": 1203,
      "à·Ļà¶Ĥ": 1204,
      "à¶¥à¶º": 1205,
      "Ġà¶Ķà¶¶à¶ľ": 1206,
      "à·Ħà¶±à¶º": 1207,
      "Ġà¶¯à¶©": 1208,
      "Ġà¶Ĵà¶Ń": 1209,
      "Ġà¶¯à¶¬": 1210,
      "à¶±à¶ľà¶Ń": 1211,
      "Ġà¶±à¶Ńà¶»": 1212,
      "Ġà¶ķà¶ļ": 1213,
      "Ġà¶ĭà·ħ": 1214,
      "à¶¢à¶±à¶Ń": 1215,
      "Ġà¶¸à¶Ńà¶ļà¶º": 1216,
      "à¶ºà·Ģà¶½": 1217,
      "à¶¶à¶¯à·Ģ": 1218,
      "Ġà¶ħà·Ħà¶½": 1219,
      "à¶ĭà¶¯": 1220,
      "Ġà¶Ńà¶½": 1221,
      "Ġà¶¶à·Ģà¶ļ": 1222,
      "à¶ºà¶ļà¶ºà¶±": 1223,
      "Ġà¶¯à·ĥ": 1224,
      "à¶ľà¶«à¶ļ": 1225,
      "à¶īà·ĥ": 1226,
      "à¶³à¶§": 1227,
      "Ġ2017": 1228,
      "Ġà¶ºà¶¸à¶ļ": 1229,
      "Ġà¶½à¶Ł": 1230,
      "Ġà¶ºà¶ļ": 1231,
      "Ġà¶ħà¶ľà¶º": 1232,
      "à¶¸à¶§à¶º": 1233,
      "Ġà¶ħà·ħ": 1234,
      "Ġà¶¸à¶Ńà¶º": 1235,
      "à·ĵâĢįà·ĬâĢį": 1236,
      "à¶ħà¶°": 1237,
      "à¶ľà¶§": 1238,
      "Ġà·Ħà·ĥ": 1239,
      "à¶ľà¶¸à¶±à¶º": 1240,
      "à¶±à¶´": 1241,
      "à¶ĭà¶±": 1242,
      "à¶¶à¶º": 1243,
      "à·Ģà¶Ńà¶Ń": 1244,
      "à¶ĳà¶½": 1245,
      "Ġà¶ĩà¶ºà¶§": 1246,
      "à·ľà¶Ĥ": 1247,
      "Ġà¶»à¶®à¶º": 1248,
      "à·Ģà¶±à¶º": 1249,
      "à¶ľà·ĥ": 1250,
      "Ġà¶´à·Ħà¶½": 1251,
      "à¶µà¶½": 1252,
      "Ġà¶ļà¶¸à¶ļ": 1253,
      "Ġà¶¯à¶»à¶±": 1254,
      "Ġà¶ľà¶«à¶±à¶ļ": 1255,
      "à·ģà¶ļà¶º": 1256,
      "Ġà¶ļà·ħà·Ħ": 1257,
      "à·Ģà¶¸à¶±": 1258,
      "Ġà¶¯à·Ħà¶¸": 1259,
      "à¶±à·ĥà¶ļ": 1260,
      "à¶¶à¶©": 1261,
      "Ġà¶¸à¶º": 1262,
      "Ġà¶¶à¶½à¶½": 1263,
      "20": 1264,
      "à·ĥà¶»à¶º": 1265,
      "à·ĥà·Ģà¶º": 1266,
      "Ġà¶Ķà¶½": 1267,
      "Ġà¶ĭà¶½": 1268,
      "Ġà¶¯à¶¸à¶±": 1269,
      "à·ħà¶§": 1270,
      "à¶ļà¶»à¶¸": 1271,
      "Ġà¶Ķà¶´": 1272,
      "à¶ľà¶½à¶±": 1273,
      "Ġà¶ºà·Ģà¶±": 1274,
      "à¶Ĩà¶»": 1275,
      "Ġà¶¢à¶±à¶º": 1276,
      "Ġà¶ĳà¶ł": 1277,
      "à·Ķ.": 1278,
      "Ġ2015": 1279,
      "Ġà¶±à¶»à¶ļ": 1280,
      "Ġà¶Ĩà¶Ń": 1281,
      "Ġà¶ĭà¶´à¶»": 1282,
      "à¶¢à¶»": 1283,
      "Ġà·Ģà¶½à¶¯": 1284,
      "Ġà¶ĳà¶¢": 1285,
      "Ġà¶īà¶³à¶±": 1286,
      "Ġà¶¸à¶§à¶Ń": 1287,
      "Ġà¶ļà¶ļ": 1288,
      "Ġà¶´à¶¸à¶«à¶º": 1289,
      "Ġà¶¸à¶©": 1290,
      "Ġ21": 1291,
      "Ġà¶ĭà¶ľ": 1292,
      "Ġà¶Ĩà¶½": 1293,
      "à¶°à¶´": 1294,
      "à¶Ńà¶±à·Ģ": 1295,
      "Ġà¶¸à¶¸à¶Ń": 1296,
      "à·ħà·Ģ": 1297,
      "à¶«à¶¯": 1298,
      "à¶¶à¶§": 1299,
      "Ġà¶Ĵà¶ļà¶§": 1300,
      "Ġà¶¢à¶»": 1301,
      "Ġà¶¢à¶±à¶¸": 1302,
      "Ġà·Ģà¶»à¶ļ": 1303,
      "à·Ģà¶ļà¶¯": 1304,
      "Ġà¶¶à¶½à¶¸": 1305,
      "à¶´à¶§": 1306,
      "Ġà¶ļà¶»à¶Ń": 1307,
      "Ġà·ĥà·Ħà¶±": 1308,
      "Ġà¶ĩà¶´": 1309,
      "Ġà¶Īà¶Ń": 1310,
      "ĸà·Ĥ": 1311,
      "Ġ22": 1312,
      "à¶ļà¶ºà¶§": 1313,
      "Ġà¶µ": 1314,
      "Ġà¶ľà·Ħà¶½": 1315,
      "à¶§à·Ģà¶Ń": 1316,
      "à¶ľà¶¸à¶±": 1317,
      "Ġà·Ģà¶±à¶¯": 1318,
      "à¶ħà·Ģà·ĥ": 1319,
      "à¶ĳà¶±à¶¸": 1320,
      "à·Ģà¶ļà¶º": 1321,
      "à¶¯à¶ľ": 1322,
      "à¶»à¶¶à¶½": 1323,
      "Ġà¶ĩà¶»à¶¹": 1324,
      "Ġà¶»à¶Ł": 1325,
      "Ġà¶»à¶®à¶ºà¶ļ": 1326,
      "Ġà·Ħà¶¯à·Ģà¶Ń": 1327,
      "à¶»à·Ħà¶º": 1328,
      "à¶ļà¶´": 1329,
      "Ġà¶ļà¶¯": 1330,
      "à¶ºà¶«": 1331,
      "à¶¸à¶¸à¶Ń": 1332,
      "Ġà¶ļà¶»à¶¯": 1333,
      "Ġ199": 1334,
      "à¶»à¶ļà¶®à¶±": 1335,
      "à·Ģà¶«": 1336,
      "Ġà¶¢à¶±à¶»": 1337,
      "à¶ºà¶±à¶º": 1338,
      "à¶Ĭà¶º": 1339,
      "à¶¥à¶ºà¶±": 1340,
      "à·Ħà¶½à¶§": 1341,
      "Ġà¶´à¶»à¶«": 1342,
      "Ġà¶ĸà·Ĥ": 1343,
      "Ġà·ĥà¶¢": 1344,
      "Ġà¶½à¶ľ": 1345,
      "Ġà¶½à¶±": 1346,
      "à·ģà·Ģ": 1347,
      "Ġà·Ħà¶±": 1348,
      "Ġà¶ĭà¶±à¶±": 1349,
      "à¶ºà¶¸à¶º": 1350,
      "Ġà¶¸à·ħ": 1351,
      "Ġà¶´à·Ģà¶»": 1352,
      "200": 1353,
      "Ġà¶¶à¶½à¶°": 1354,
      "Ġà¶ĳà¶Ńà¶±": 1355,
      "Ġà¶ħà·ĥà¶±": 1356,
      "Ġà¶ļà¶½à¶ļ": 1357,
      "Ġà¶ħà¶¯à·Ħà·ĥà¶ļ": 1358,
      "Ġà¶ħà¶Ńà¶»à¶Ń": 1359,
      "Ġà¶ĳà¶»à¶§": 1360,
      "ðŁ": 1361,
      "Ġà¶ħà¶Ł": 1362,
      "à·Ģà·ĥà¶»": 1363,
      "Ġ23": 1364,
      "Ġà¶½à¶º": 1365,
      "Ġà¶ļà¶³à·Ģ": 1366,
      "à¶¢à¶ºà¶ļ": 1367,
      "à¶´à¶ºà¶ļà¶§": 1368,
      "à·Ĥà·Ģ": 1369,
      "Ġà¶īà¶©à¶ļ": 1370,
      "Ġà¶ĭà¶´à¶ļà¶»à¶«": 1371,
      "Ġà¶´à·Ħà¶»à¶¯": 1372,
      "Ġà¶ºà¶¯": 1373,
      "Ġà¶§à¶º": 1374,
      "à¶«à·Ģà¶Ń": 1375,
      "Ġà¶ĳà·Ģà¶±": 1376,
      "à¶±à·Ģà¶½à¶§": 1377,
      "à¶īà¶¯": 1378,
      "Ġà¶¶à¶½à¶ļ": 1379,
      "Ġà¶¶à¶½à·Ģà¶Ń": 1380,
      "à¶©à¶ļà¶º": 1381,
      "Ġ2016": 1382,
      "Ġà¶¶à¶Ń": 1383,
      "à¶ļà¶»à¶ľ": 1384,
      "à¶Ĩà¶«": 1385,
      "à·ģà¶±à¶ºà¶ļ": 1386,
      "à¶¢à¶±à¶ºà¶ļ": 1387,
      "à¶½à¶ļà¶º": 1388,
      "à¶ļà¶ļà¶§": 1389,
      "à¶»à¶¸à·Ģ": 1390,
      "Ġà¶´à¶¸à¶±": 1391,
      "Ġà¶Ńà¶»à¶¸à¶§": 1392,
      "Ġà¶ļà¶»à·Ģ": 1393,
      "Ġà·ĥà¶»à·ĥ": 1394,
      "Ġà¶±à·ħ": 1395,
      "à¶Ĩà¶º": 1396,
      "Ġà·ĥà¶ļ": 1397,
      "Ġà¶Ĩà¶´à·Ħ": 1398,
      "à¶¢à¶ºà¶§": 1399,
      "à¶ļà¶»à¶º": 1400,
      "Ġà¶ħà¶§": 1401,
      "Ġà¶¶à¶»à¶´à¶Ńà¶½": 1402,
      "Ġà·ĥà¶»à¶Ń": 1403,
      "Ġà·ĥà¶¶à¶³": 1404,
      "Ġà¶Ńà¶»à¶¸à¶ļ": 1405,
      "à·Ħà¶¬": 1406,
      "Ġà·Ħà¶¯à¶½": 1407,
      "Ġà¶Ĩà¶´à·ĥ": 1408,
      "à¶¶à¶½à¶±": 1409,
      "Ġ26": 1410,
      "à·Ģà¶´": 1411,
      "Ġà¶¸à¶ł": 1412,
      "à·Ģà¶»à¶ļ": 1413,
      "Ġà¶ħà¶±à¶±": 1414,
      "Ġà¶ļà¶»à¶¯à¶»": 1415,
      "Ġ40": 1416,
      "à¶ľà¶±à¶º": 1417,
      "à¶¸à¶©": 1418,
      "Ġà¶ħà¶ºà·Ģ": 1419,
      "à·ĥà¶±à¶º": 1420,
      "à¶ľà¶´": 1421,
      "à¶ºà¶§à¶Ń": 1422,
      "Ġà·Ģà¶»à¶¯à¶ļ": 1423,
      "Ġà¶¶à¶³": 1424,
      "à¶¯à¶Ń": 1425,
      "Ġà¶¢à¶±à¶´à¶¯à¶º": 1426,
      "Ġà¶ħà·Ģà¶ļ": 1427,
      "à¶¯à¶±à¶ºà¶ļ": 1428,
      "Ġà¶ĳà¶ļà¶ļà¶§": 1429,
      "Ġà¶ħà·Ģà¶§": 1430,
      "à¶ļà¶ľ": 1431,
      "Ġà·ĥà¶¶à¶³à¶Ń": 1432,
      "à¶´à¶Ńà¶ļ": 1433,
      "à·ħà¶´": 1434,
      "à·ĥà·ĥ": 1435,
      "à¶¶à¶»à·Ģ": 1436,
      "Ġ198": 1437,
      "Ġà·ĥà¶¶": 1438,
      "à¶©à¶ºà¶ļ": 1439,
      "Ġà¶¸à·Ħà¶½": 1440,
      "à¶±à¶ļà¶¸": 1441,
      "à·Ģà·ĥà¶§": 1442,
      "Ġà¶¶à¶½à¶´à¶Ń": 1443,
      "Ġà¶±à·Ģà¶ļ": 1444,
      "Ġà¶ºà·Ħà¶´": 1445,
      "à¶Łà·Ģ": 1446,
      "Ġà¶ºà¶®": 1447,
      "Ġà¶»à¶¢à¶ºà¶§": 1448,
      "à¶©à·Ģ": 1449,
      "Ġà¶Ĵà¶ļà¶ļà¶º": 1450,
      "Ġ27": 1451,
      "Ġà¶¢à·Ģ": 1452,
      "Ġà¶ľà¶±à¶±": 1453,
      "à¶ľà¶«": 1454,
      "à·Ģà¶»à¶ºà¶ļ": 1455,
      "à·Ģà·ĥà¶ļ": 1456,
      "Ġà¶ĳà¶±à¶¸": 1457,
      "Ġà¶¶à¶½à·Ģ": 1458,
      "à¶Ľà¶±": 1459,
      "50": 1460,
      "Ġà¶´à¶º": 1461,
      "Ġà·Ģà·ĥà¶»à¶ļ": 1462,
      "à¶½à¶½": 1463,
      "Ġà¶´à¶»à¶´": 1464,
      "à·ħà¶º": 1465,
      "à¶ľà¶ļ": 1466,
      "à¶«à·ĥ": 1467,
      "Ġà¶±à¶º": 1468,
      "Ġ28": 1469,
      "Ġà¶Ńà¶§": 1470,
      "Ġà¶ħà·ģ": 1471,
      "à¶´à¶ºà¶§": 1472,
      "à¶Ńà·Ģà¶¯": 1473,
      "Ġà¶ĸà·Ĥà¶°": 1474,
      "à¶©à¶±à¶º": 1475,
      "Ġà¶ĭà¶´à¶º": 1476,
      "Ġà¶ĩà¶ºà¶ľ": 1477,
      "Ġà¶ºà¶½": 1478,
      "à¶»à¶ļà¶»": 1479,
      "à¶¸à¶§à¶¯": 1480,
      "Ġà¶ķà·ĥ": 1481,
      "Ġà¶¢à¶´": 1482,
      "à¶¸à¶ºà¶§": 1483,
      "Ġà¶¸à¶»à¶«à¶º": 1484,
      "Ġà¶½à¶¶à¶º": 1485,
      "à·Ħà¶ºà¶ļ": 1486,
      "Ġà¶ľà·Ģ": 1487,
      "Ġà·ĥà¶»à·ĥà·Ģ": 1488,
      "Ġà¶ħà·Ħà·ĥ": 1489,
      "Ġà·Ģà·ĥà¶±": 1490,
      "Ġà¶¯à¶º": 1491,
      "à·ĥà¶»à¶«": 1492,
      "à¶«à·Ģà¶»": 1493,
      "Ġà¶ĳà¶Ńà¶ļ": 1494,
      "Ġà¶¶à¶½à¶ºà¶§": 1495,
      "ĵà¶Ń": 1496,
      "à¶ħà¶±à¶Ń": 1497,
      "Ġà·Ģà¶ļ": 1498,
      "à¶«à¶§": 1499,
      "Ġà¶ħà·Ģà·ĥà¶»": 1500,
      "Ġà¶±à¶½": 1501,
      "à¶ºà¶½à¶Ń": 1502,
      "à¶ľà·Ħ": 1503,
      "Ġà¶´à·ħà·Ģ": 1504,
      "Ġ01": 1505,
      "Ġà·Ħà·Ģ": 1506,
      "Ġà·Ģà¶§à·Ħ": 1507,
      "à¶Ķà¶¶à¶§": 1508,
      "Ġà¶ĭà¶´à¶Ń": 1509,
      "Ġà¶ħà¶±à·Ģ": 1510,
      "Ġà¶ļà·Ģà¶»": 1511,
      "Ġà·ĥà¶»à¶½": 1512,
      "Ġà¶¢à¶ºà·Ģà¶»": 1513,
      "à¶ľà¶½à¶ºà¶ļ": 1514,
      "Ġà¶»à·Ħ": 1515,
      "à¶»à·Ħà·ĥ": 1516,
      "Ġà¶ĭà¶´à·ĥ": 1517,
      "Ġà¶±à¶¸à¶ļ": 1518,
      "Ġà¶´à·Ħà¶ļ": 1519,
      "à·ĥà¶½à¶ļ": 1520,
      "à¶łà¶±à¶ºà¶ļ": 1521,
      "à¶¶à·Ħ": 1522,
      "à¶§à¶§": 1523,
      "Ġà¶ĳà¶Ńà¶»à¶¸": 1524,
      "à¶»à¶§à¶§": 1525,
      "à¶ºà¶¸à¶§": 1526,
      "à¶½à¶±à¶ºà¶§": 1527,
      "à·ĥà¶ļà¶§": 1528,
      "à·Ģà¶ļà¶ºà¶±": 1529,
      "à¶®à¶±à¶º": 1530,
      "Ġà¶ħà¶ļà¶¸": 1531,
      "à¶¯à¶»à¶§": 1532,
      "à¶¶à¶Ń": 1533,
      "Ġà·Ģà¶łà¶±à¶º": 1534,
      "à¶½à¶ļà¶ºà¶±": 1535,
      "Ġà·ĥà·Ģà·ĥ": 1536,
      "à¶Ńà¶¯": 1537,
      "Ġà·ĥà·Ħà¶ľà¶Ń": 1538,
      "Ġà¶ĭà·Ģà¶¸à¶±": 1539,
      "à¶´à¶«à¶º": 1540,
      "Ġà·ĥà¶½à¶ļà¶±": 1541,
      "Ġ00": 1542,
      "Ġà¶ĭà¶ľà¶±": 1543,
      "Ġà¶ºà¶±à¶ļ": 1544,
      "à¶«à¶ºà¶±": 1545,
      "à¶«à¶ºà¶§": 1546,
      "à¶¨à¶º": 1547,
      "à·Ĥà¶ļà¶ºà¶±": 1548,
      "Ġà¶Ńà¶¶à¶±": 1549,
      "à¶Ĵà¶ļà¶§": 1550,
      "à·Ħà¶»à¶«à¶ºà¶ļ": 1551,
      "à¶»à¶¢à¶º": 1552,
      "Ġà¶łà¶¸": 1553,
      "Ġà¶īà·Ģà·ĥ": 1554,
      "à¶°à¶»": 1555,
      "à¶ľà¶ºà¶±": 1556,
      "Ġà¶ľà¶Ńà·Ģ": 1557,
      "Ġà¶¢à¶±à¶´à¶¯": 1558,
      "à¶Ńà¶ļà¶§": 1559,
      "Ġà¶ħà¶¢": 1560,
      "à¶¯à·ĥ": 1561,
      "Ġà¶±à¶±": 1562,
      "à¶´à·ħà¶¸": 1563,
      "Ġ197": 1564,
      "Ġà¶»à¶«à·Ģ": 1565,
      "Ġà·ĥà¶´à¶ºà¶±": 1566,
      "à·ĴâĢį": 1567,
      "à¶»à·Ģà¶±": 1568,
      "à·ĥà¶·": 1569,
      "à¶Łà¶ļ": 1570,
      "à·Ģà¶±à¶¸": 1571,
      "à¶½à¶ļà¶§": 1572,
      "Ġà¶ļà¶Ńà¶±": 1573,
      "à¶ĳà¶¶": 1574,
      "Ġ29": 1575,
      "Ġà¶Ńà¶ļ": 1576,
      "Ġà¶ĵà¶Ń": 1577,
      "Ġà¶Ńà·Ģà¶¸": 1578,
      "Ġ03": 1579,
      "Ġà¶Ķà¶¶à¶Ń": 1580,
      "Ġà·Ħà¶½": 1581,
      "Ġà¶īà·Ģà¶»à¶º": 1582,
      "Ġà·Ħà¶Ńà¶»à¶ļ": 1583,
      "Ġ31": 1584,
      "Ġà¶»à¶Łà¶´": 1585,
      "Ġà·Ģà·Ħà¶½": 1586,
      "à¶§à¶ľ": 1587,
      "à¶±à¶ºà¶ļà¶§": 1588,
      "à¶¶à¶½à¶º": 1589,
      "Ġà¶ĭà¶ľà¶Ń": 1590,
      "à¶ľà·Ģ": 1591,
      "à¶ļà¶»à¶½": 1592,
      "à¶¯à¶»à·Ģ": 1593,
      "Ġà¶¸à¶±à·ĥ": 1594,
      "Ġà¶´à¶©": 1595,
      "à¶»à¶¹": 1596,
      "à¶±à¶§à¶Ń": 1597,
      "Ġà¶ĳà¶±à¶ļ": 1598,
      "Ġ2014": 1599,
      "Ġà·Ģà·ħà¶ļ": 1600,
      "à¶Ńà¶´": 1601,
      "Ġà¶ĩà¶§": 1602,
      "à¶±à¶©": 1603,
      "à¶±à¶§à¶¸à¶Ń": 1604,
      "Ġ60": 1605,
      "à¶±à¶¸à¶ļ": 1606,
      "à¶ľà¶¸à¶ļ": 1607,
      "à¶ºà¶ļà¶»": 1608,
      "Ġà¶ħà¶Ńà¶»à¶¸": 1609,
      "à¶¹à¶±": 1610,
      "Ġ07": 1611,
      "à¶ķà¶±": 1612,
      "à¶ľà¶¸à¶§": 1613,
      "à¶»à·ĥà¶±": 1614,
      "Ġà¶ħà¶ºà¶¯": 1615,
      "Ġà·Ģà¶»à¶§": 1616,
      "à¶³à¶´": 1617,
      "à·Ģà¶»à¶«à¶ºà¶ļ": 1618,
      "Ġà¶Ĩà¶Ńà¶½": 1619,
      "Ġà·Ģà¶¸": 1620,
      "Ġà¶ľà¶¶à¶©": 1621,
      "Ġà·ģà¶¶": 1622,
      "à¶Ľà¶«": 1623,
      "à·ĥà¶»à·Ħ": 1624,
      "Ġà¶Ĩà¶¶": 1625,
      "Ġà¶īà¶¯à¶±": 1626,
      "Ġà¶Ĩà¶ºà¶Ńà¶±à¶ºà¶ļ": 1627,
      "à¶·à¶ļ": 1628,
      "à¶ħà¶ļ": 1629,
      "à¶»à¶±à¶º": 1630,
      "à¶Į": 1631,
      "à¶¸à·Ħà¶Ń": 1632,
      "à¶©à¶§": 1633,
      "à¶ĩà¶½": 1634,
      "à¶ĳà¶ºà¶§": 1635,
      "Ġà¶Ķà·Ĩ": 1636,
      "Ġ05": 1637,
      "Ġà¶ļà¶»à·Ģà¶±": 1638,
      "à¶Ńà¶ľ": 1639,
      "18": 1640,
      "Ġ500": 1641,
      "à¶½à¶±à¶ºà¶ļ": 1642,
      "Ġà¶īà¶´à¶¯": 1643,
      "Ġà¶īà¶¯à¶½": 1644,
      "à·Ģà¶§à¶¸": 1645,
      "Ġà¶»à¶¢à¶Ń": 1646,
      "Ġà·ĥà·Ħà¶ļ": 1647,
      "à¶ĩà¶¸à¶»": 1648,
      "Ġà¶Ĵà¶ļà¶ļ": 1649,
      "Ġà¶ĳà·ħà¶¹": 1650,
      "à¶»à¶ľà¶±": 1651,
      "à¶©à¶ļà¶ºà¶±": 1652,
      "Ġà¶Ĩà¶ļà¶»": 1653,
      "à¶»à¶ļà¶º": 1654,
      "à·Ģà¶§à¶Ń": 1655,
      "à·ħà¶¸": 1656,
      "Ġà¶Ĩà¶±à¶±": 1657,
      "Ġà¶ħà·ĥà¶»à¶«": 1658,
      "à¶¨à¶¸": 1659,
      "à·ģà¶ºà¶±": 1660,
      "Ġà¶ľà¶¸à¶±à¶ļ": 1661,
      "Ġà¶ħà¶´à·Ħ": 1662,
      "Ġà¶´à¶½à·Ģ": 1663,
      "à¶ĳà·ħ": 1664,
      "à¶»à·Ģà¶º": 1665,
      "Ġà¶ĩà¶©": 1666,
      "à¶´à¶¸à¶«": 1667,
      "à·ĥà¶ºà¶§": 1668,
      "à¶ħà¶´à¶§": 1669,
      "Ġà¶ħà¶»à¶ľà¶½à¶º": 1670,
      "Ġà¶Ĭà·ħà¶Ł": 1671,
      "Ġà¶´à·ģ": 1672,
      "Ġà¶īà·Ģ": 1673,
      "à¶ºà·Ģà·ģ": 1674,
      "à¶±à·Ģà¶§": 1675,
      "Ġà¶»à¶³à·Ģ": 1676,
      "à·Ĥà¶«à¶ºà¶§": 1677,
      "Ġà¶ĭà¶¹à¶§": 1678,
      "Ġà¶Ĩà¶´à¶¯": 1679,
      "à·ĥà¶»à·Ħà¶§": 1680,
      "Ġ08": 1681,
      "Ġ2013": 1682,
      "Ġ35": 1683,
      "à·Ĥà¶½": 1684,
      "Ġ2012": 1685,
      "à·ħà¶°": 1686,
      "Ġà·ĥà¶¸à¶»à·Ģ": 1687,
      "à·Ĥà¶ºà¶±": 1688,
      "Ġà¶ħà¶ľà¶±": 1689,
      "à¶½à¶¶": 1690,
      "Ġà¶¸à¶ļ": 1691,
      "à·Ģà¶ºà¶ļà¶§": 1692,
      "Ġà¶ľà¶Ł": 1693,
      "Ġ70": 1694,
      "à¶§à¶´à¶Ń": 1695,
      "à¶¢à¶±à¶ºà¶§": 1696,
      "à·Ģà¶»à¶±": 1697,
      "à·ļâĢįà·ĬâĢį": 1698,
      "à¶¸à¶ļà·Ģ": 1699,
      "à·Ģà¶©": 1700,
      "Ġà¶·à¶º": 1701,
      "Ġà¶ħà·Ģà¶Ń": 1702,
      "à¶Ńà¶ļà¶º": 1703,
      "à¶±à·Ģà¶±à¶¸": 1704,
      "à·Ĥà¶¸": 1705,
      "à¶īà·Ħà¶Ń": 1706,
      "à¶ľà¶Ńà·Ģ": 1707,
      "à¶Ĩà¶»à¶ł": 1708,
      "Ġ02": 1709,
      "à¶łà¶º": 1710,
      "à·Ħà¶½à¶º": 1711,
      "Ġà·ĥà¶Ł": 1712,
      "à¶°à¶±à¶ºà¶ļ": 1713,
      "à¶¢à¶½": 1714,
      "Ġà¶ħà¶´à¶±à¶ºà¶±": 1715,
      "Ġà·Ĩà¶º": 1716,
      "Ġà·Ģà·ħ": 1717,
      "à¶©à¶¶": 1718,
      "à¶µà¶½à¶ºà¶ļ": 1719,
      "Ġà¶±à¶Ń": 1720,
      "à¶¸à¶ļà¶¯": 1721,
      "Ġà¶½à·Ģ": 1722,
      "à¶ľà¶«à¶º": 1723,
      "à¶«à·Ģ": 1724,
      "Ġà¶łà¶ļ": 1725,
      "à·Ģà·ħ": 1726,
      "à¶©à¶Ń": 1727,
      "à¶´à¶¯à·Ģ": 1728,
      "à¶ķà¶ļ": 1729,
      "Ġ04": 1730,
      "à·Ģà¶»à¶«à¶ºà¶§": 1731,
      "à¶ļà¶¸à¶§": 1732,
      "à¶ºà¶ļà·Ģà¶»à¶º": 1733,
      "10": 1734,
      "à¶¸à¶´": 1735,
      "à¶¯à·Ħà¶±": 1736,
      "à¶¸à¶±à¶§": 1737,
      "à¶½à·Ģà¶½": 1738,
      "à·ıâĢį": 1739,
      "Ġà¶Ńà¶»à·Ħ": 1740,
      "à¶®à¶¸": 1741,
      "Ġ06": 1742,
      "Ġà¶ĳà¶ļà¶Łà¶Ń": 1743,
      "à¶»à¶ºà¶Ń": 1744,
      "à·ĥà¶´": 1745,
      "à¶³à¶§à¶¸": 1746,
      "Ġà¶ħà¶«": 1747,
      "à¶¸à·Ħà¶±": 1748,
      "à¶»à¶Ńà·Ģ": 1749,
      "Ġ2010": 1750,
      "à¶ľà¶©": 1751,
      "à·Ĥà¶¥": 1752,
      "12": 1753,
      "Ġà¶¶à¶»à¶´à¶Ńà·ħ": 1754,
      "Ġà¶¶à¶½à¶±à·Ģ": 1755,
      "à¶Ńà¶ļà¶»": 1756,
      "à·Ĥà¶±à¶º": 1757,
      "Ġà¶½à¶Ń": 1758,
      "Ġà¶ħà¶ºà¶ļ": 1759,
      "à¶½à¶¹": 1760,
      "à¶»à·ĥà¶º": 1761,
      "Ġà¶ħà¶Ńà¶»à¶§": 1762,
      "Ġà¶ħà¶Ńà·Ħ": 1763,
      "Ġà¶¶à¶¶": 1764,
      "Ġà¶¸à¶Ńà·Ģ": 1765,
      "à¶»à¶¸à¶«": 1766,
      "âĨ": 1767,
      "Ġà¶¸à·Ħà¶¢à¶±à¶Ń": 1768,
      "Ġ80": 1769,
      "à¶Ķà¶¶à¶ľ": 1770,
      "à®": 1771,
      "Ġà¶Ķà¶Ń": 1772,
      "Ġà¶Ĩà¶¥": 1773,
      "à¶¸à¶°": 1774,
      "à·ĥà¶±à¶§": 1775,
      "à·ĶâĢį": 1776,
      "à¶½à·Ģà¶º": 1777,
      "à¶»à¶¸à¶ºà¶§": 1778,
      "à¶ļà¶»à¶Ń": 1779,
      "à·Ħà¶»à·Ģ": 1780,
      "Ġà¶īà¶¶": 1781,
      "à¶»à¶«à¶ºà¶§": 1782,
      "à¶¢à¶°": 1783,
      "à¶ħà¶ľ": 1784,
      "Ġà¶ħà·Ģà¶½": 1785,
      "à¶ºà¶·": 1786,
      "Ġà·Ģà·Ģ": 1787,
      "à¶ºà·Ĥ": 1788,
      "à¶»à¶§à¶¸": 1789,
      "à¶»à¶¸à¶«à¶º": 1790,
      "Ġà¶ħà¶¬": 1791,
      "Ġà·Ģà¶»à¶º": 1792,
      "Ġà¶¶à¶½à¶ºà¶ļ": 1793,
      "Ġà¶ħà¶¹": 1794,
      "Ġà¶ļà·Ħ": 1795,
      "à¶»à¶ºà¶ļà¶§": 1796,
      "à·Ģà¶»à¶§": 1797,
      "à¶ĩà¶¸": 1798,
      "Ġà¶¶à¶§": 1799,
      "Ġà¶»à¶ł": 1800,
      "Ġ45": 1801,
      "à¶¸à¶ºà¶±": 1802,
      "Ġà¶¶à¶½à¶Ńà¶½": 1803,
      "Ġà·ĥà¶§à·Ħà¶±à¶ļ": 1804,
      "Ġ2011": 1805,
      "Ġà¶ļà·ħà¶Ń": 1806,
      "à¶°à¶ºà¶±": 1807,
      "Ġà¶Ķà¶»": 1808,
      "à¶¸à¶»à¶º": 1809,
      "à¶Ńà·Ħ": 1810,
      "Ġà¶»à¶łà¶±": 1811,
      "à¶ºà¶ºà¶±à¶º": 1812,
      "30": 1813,
      "à¶©à¶ļà¶§": 1814,
      "Ġà·Ħà¶¯à¶´": 1815,
      "Ġà·Ħà¶»à¶ļ": 1816,
      "Ġà¶´à¶¯à¶ļ": 1817,
      "à¶īà¶»": 1818,
      "Ġà¶ħà¶¯à¶Ń": 1819,
      "Ġà¶ħà¶»à¶ľà¶½": 1820,
      "Ġà¶Ĩà·Ģà¶»à¶«à¶º": 1821,
      "à¶½à¶Ł": 1822,
      "Ġà¶Ĭà¶±": 1823,
      "à¶½à¶ºà¶±": 1824,
      "Ġà¶´à·Ħà¶±": 1825,
      "Ġà¶ĳà·Ģà¶ļà¶§": 1826,
      "à¶±à¶´à¶Ń": 1827,
      "à¶®à¶ļà·Ģ": 1828,
      "à¶»à¶ļà¶®à¶±à¶º": 1829,
      "à¶°à¶±à¶ºà¶§": 1830,
      "à¶īà¶ļ": 1831,
      "Ġà¶ļà¶º": 1832,
      "Ġà¶¯à¶«": 1833,
      "Ġà·ĥà¶½à·ĥ": 1834,
      "Ġà¶łà¶Ń": 1835,
      "Ġà¶Ĩà·ĥà¶º": 1836,
      "Ġà¶Ĵà¶¸à¶§": 1837,
      "Ġà·Ģà¶łà¶±à¶ºà¶ļ": 1838,
      "Ġà¶±à·Ģà¶ļà¶Ń": 1839,
      "à¶©à·ĥà¶§à·Ħà¶±à¶ļ": 1840,
      "Ġà¶Ĵà¶¸": 1841,
      "Ġà·ĥà¶»à¶«": 1842,
      "Ġà·Ļ": 1843,
      "Ġà¶¯à¶¹": 1844,
      "à·ģà·Ģà¶º": 1845,
      "Ġà¶°à¶¸": 1846,
      "Ġà¶ħà¶¸à¶Ńà¶»": 1847,
      "à¶´à¶ł": 1848,
      "Ġà¶¯à·ģà¶ļà¶º": 1849,
      "à¶³à¶ļ": 1850,
      "Ġà¶ľà¶½à·Ģ": 1851,
      "à·ĥà¶ľ": 1852,
      "à¶°à¶ºà¶§": 1853,
      "Ġà¶ķà·Ģ": 1854,
      "Ġà·ĥà¶¸à¶ľà¶¸": 1855,
      "à¶´à·Ģà¶Ń": 1856,
      "à¶¯à¶ºà¶±": 1857,
      "Ġà·Ģà¶½à¶ļ": 1858,
      "Ġà¶ħà¶¯à¶§à¶Ń": 1859,
      "à·Ħà¶±à¶ºà¶ļ": 1860,
      "à¶Ńà¶±à¶ºà¶§": 1861,
      "Ġà·Ħà·Ģà·ĥ": 1862,
      "Ġà¶ħà¶±à·Ģà·ģ": 1863,
      "2018": 1864,
      "15": 1865,
      "à¶§à¶¸à¶ļ": 1866,
      "à¶¯à¶´": 1867,
      "à¶»à¶ļà¶Ńà¶±": 1868,
      "Ġà¶Ķà¶§": 1869,
      "à¶µà¶½à¶º": 1870,
      "Ġà·ĥà¶¸à¶»": 1871,
      "Ġà¶ĩà¶ľà¶º": 1872,
      "à¶§à¶½à¶º": 1873,
      "à·Ģà¶½à¶Ń": 1874,
      "Ġà¶ħà¶Ľà¶«": 1875,
      "à¶®à¶ºà¶ļ": 1876,
      "à¶Ķà¶ļ": 1877,
      "à¶¯à¶»à¶Ń": 1878,
      "Ġà¶´à¶¯à·Ģ": 1879,
      "Ġà¶´à·Ģà·ĥà¶¸": 1880,
      "2015": 1881,
      "à¶ħà·ĥ": 1882,
      "Ġà¶¢à¶ºà¶ļ": 1883,
      "Ġà¶ĭà·Ĥ": 1884,
      "à¶Ńà¶½à¶¸": 1885,
      "à¶ºà¶¸à¶±": 1886,
      "à¶ļà¶»à¶ľà¶Ń": 1887,
      "à¶«à¶ľ": 1888,
      "à¶·à·Ģ": 1889,
      "à¶¸à¶½à¶º": 1890,
      "à·Ģà¶Ńà¶ļ": 1891,
      "Ġà¶Įà·Ģ": 1892,
      "à¶ĳà¶Ńà¶±": 1893,
      "à¶´à¶«": 1894,
      "Ġà·Ģà¶ľà¶±": 1895,
      "à·Ļà·ıà·Ĭ": 1896,
      "Ġà¶¯à·ģà¶ļ": 1897,
      "à¶¶à·ħ": 1898,
      "Ġà¶¶à¶³à·Ģ": 1899,
      "Ġà¶¯à·ħ": 1900,
      "Ġà¶±à·ĥ": 1901,
      "à·Ħà¶»à¶«": 1902,
      "à¶½à¶Ńà¶¸": 1903,
      "à·Ĳà·Ķ": 1904,
      "Ġà¶Ńà¶»à¶Łà¶º": 1905,
      "Ġà¶°à¶±à·Ģ": 1906,
      "Ġà¶´à¶¸à¶±à¶ļ": 1907,
      "Ġà¶±à·Ģà¶Ńà¶¸": 1908,
      "à·Ħà¶»à¶«à¶º": 1909,
      "Ġà¶Ĩà¶ļà¶½": 1910,
      "Ġà¶ĭà¶¶": 1911,
      "Ġà·Ħà¶¯à¶±à·Ģ": 1912,
      "Ġà¶¯à·Ħà·ĥà¶ļ": 1913,
      "à·ħà¶³à¶´": 1914,
      "à·ĥà·Ģà¶ºà¶ļ": 1915,
      "Ġà¶į": 1916,
      "à¶ºà¶ļà¶ľ": 1917,
      "à·Ĥà¶»": 1918,
      "Ġà¶ħà¶¸à¶Ńà¶¸": 1919,
      "Ġ09": 1920,
      "Ġà¶©à¶¶": 1921,
      "à¶´à¶Ńà¶§": 1922,
      "âĢįâĢį": 1923,
      "à¶¯à·Ħà¶¸": 1924,
      "à¶ļà¶»à¶ľà¶±": 1925,
      "à¶¯à·Ħ": 1926,
      "199": 1927,
      "à¶ĩà¶±": 1928,
      "à¶»à¶¶": 1929,
      "Ġà¶īà¶¸": 1930,
      "Ġà¶´à¶´": 1931,
      "à¶¹à¶½": 1932,
      "Ġà¶ħà·ĥà¶Ń": 1933,
      "à¶«à¶»à¶Ń": 1934,
      "Ġà¶±à¶©à¶Ń": 1935,
      "Ġ196": 1936,
      "Ġà¶Ķà·ħ": 1937,
      "Ġà¶»à·ĥà·Ģà¶Ń": 1938,
      "à·Ħà¶ľ": 1939,
      "à¶ºà·Ģà¶»à¶ļ": 1940,
      "Ġà¶ľà·Ħà¶±à·Ģ": 1941,
      "à¶¸à¶±à¶¸": 1942,
      "à¶ľà·Ģà¶½": 1943,
      "Ġà¶½à¶¸à¶º": 1944,
      "Ġà¶¸à¶»à¶«à¶ºà¶§": 1945,
      "Ġà¶°à¶±à¶´à¶Ń": 1946,
      "à¶»à¶łà¶«": 1947,
      "Ġà¶ħà¶Ńà¶ļ": 1948,
      "à¶ļà¶§à¶Ń": 1949,
      "ðŁĳ": 1950,
      "à·Ħà¶»à¶ļ": 1951,
      "Ġà¶¯à·Ħà·Ģà¶½": 1952,
      "Ġ32": 1953,
      "à¶¶à¶»à¶º": 1954,
      "à¶Ľà¶º": 1955,
      "à¶ĳà¶ļà¶ļ": 1956,
      "17": 1957,
      "Ġà·ĥà¶Łà¶»": 1958,
      "Ġà¶»à¶º": 1959,
      "à¶ĩà¶ľ": 1960,
      "Ġà¶Ĩà¶©à¶¸": 1961,
      "à¶½à¶¶à¶±": 1962,
      "à¶¶à¶§à·Ħ": 1963,
      "Ġà¶´à¶»à¶ļ": 1964,
      "à·Ģà¶³": 1965,
      "à¶ļà¶§à¶¯": 1966,
      "Ġà¶ļà¶«à¶ľ": 1967,
      "à¶ĳà¶ł": 1968,
      "Ġà·Ħà¶ºà¶ļ": 1969,
      "Ġà¶ħà·Ģà¶±": 1970,
      "à·Ĥà¶ľ": 1971,
      "à·Ģà¶»à¶¯": 1972,
      "Ġà·Ģà¶¯à¶±": 1973,
      "Ġà¶ĭà¶ļ": 1974,
      "Ġ36": 1975,
      "à¶Ī": 1976,
      "Ġà¶ºà·Ģ": 1977,
      "Ġà¶ħà·ĥà¶¸": 1978,
      "à¶ľà·Ģà¶Ń": 1979,
      "Ġà¶¶à¶½à·ģà¶ļ": 1980,
      "Ġà¶ĳà¶¶": 1981,
      "Ġà¶¸à·Ħà·Ģ": 1982,
      "Ġ300": 1983,
      "Ġ2009": 1984,
      "à¶¯à·Ħà·ĥà¶ļ": 1985,
      "à·Ħà¶«": 1986,
      "Ġà·Ħà¶ļ": 1987,
      "à¶³à¶½": 1988,
      "Ġà¶ĳà¶ļà¶½": 1989,
      "à¶Łà¶±": 1990,
      "à¶»à¶´à¶§à¶ºà¶ļ": 1991,
      "Ġà¶¢à¶ľà¶Ń": 1992,
      "Ġà¶¢à¶±à¶ľ": 1993,
      "13": 1994,
      "à¶Ńà¶½à¶±": 1995,
      "à¶ļà¶ľà¶Ń": 1996,
      "à¶»à¶ļà¶ºà¶±": 1997,
      "à¶ħà¶ľà¶¸": 1998,
      "à·ĥà¶¸à¶ļ": 1999,
      "à·ħà¶ľ": 2000,
      "Ġà¶ĭà¶¸": 2001,
      "à¶ļà·Ģà¶¸": 2002,
      "Ġà¶ºà¶ļà¶©": 2003,
      "à¶©à¶½à¶ºà¶§": 2004,
      "à¶ļà¶»à¶±à·Ģ": 2005,
      "Ġà¶¢à¶ºà¶±": 2006,
      "Ġà¶ĭà¶¯à¶º": 2007,
      "à¶»à¶¥": 2008,
      "Ġà¶ĩà¶¶": 2009,
      "197": 2010,
      "Ġà¶ļà¶½à¶¶à¶½": 2011,
      "Ġà¶ħà¶¸à¶±": 2012,
      "Ġà¶ĳà¶¸à¶ľ": 2013,
      "à¶¯à·Ģà¶±": 2014,
      "Ġï": 2015,
      "Ġà¶¯à·Ģ": 2016,
      "Ġà·ĥà·Ħà¶½": 2017,
      "à¶Ńà¶ļà¶¯": 2018,
      "à·ĥà¶½à¶§": 2019,
      "Ġ90": 2020,
      "à¶¢à¶±à¶ļ": 2021,
      "à¶¯à¶¯": 2022,
      "Ġà¶·à¶§": 2023,
      "à¶ľà¶«à¶ļà¶º": 2024,
      "14": 2025,
      "Ġà¶ĭà¶ł": 2026,
      "Ġà¶ħà·Ħà¶±à·Ģ": 2027,
      "à¶³à¶ľ": 2028,
      "Ġà¶ĩà¶»à¶½": 2029,
      "Ġà¶Ĩà¶±à¶ºà¶±à¶º": 2030,
      "198": 2031,
      "à¶Ĭà·ħà¶Ł": 2032,
      "Ġà·Ģà¶±à¶¢": 2033,
      "Ġà·Ģà¶³": 2034,
      "Ġà¶´à¶ł": 2035,
      "Ġà¶Ĵà¶ļà¶Ń": 2036,
      "à¶¸à·Ħà¶»": 2037,
      "ĠðŁ": 2038,
      "à¶½à¶«": 2039,
      "Ġà¶ĭà¶ºà¶±": 2040,
      "ðŁĳĮ": 2041,
      "Ġà¶¯à·Ħà¶ºà¶ļ": 2042,
      "Ġà¶ļà¶½à¶Ń": 2043,
      "Ġà¶īà·ĥà·Ģ": 2044,
      "à·Ħà¶´": 2045,
      "à¶ĩà·ĥ": 2046,
      "Ġà¶ħà·Ģà·Ħ": 2047,
      "à¶§à¶»à¶§": 2048,
      "Ġà¶ħà·ĥà¶¸à¶Ń": 2049,
      "Ġà¶ĩà¶Ńà¶Ń": 2050,
      "à¶´à¶¸": 2051,
      "Ġà¶ĳà¶©": 2052,
      "à¶¸à·Ħà¶½": 2053,
      "ðŁĳĮðŁĳĮ": 2054,
      "Ġà¶¯à·Ģà¶½": 2055,
      "à¶±à¶ļà¶±": 2056,
      "à¶¶à¶»à¶ľà¶¸": 2057,
      "à¶±à·Ģà¶º": 2058,
      "à·Ģà¶»à¶ĳà·ħ": 2059,
      "Ġà¶¯à¶»à¶«": 2060,
      "Ġà·Ģà¶»à¶´": 2061,
      "Ġà¶±à¶§": 2062,
      "Ġà¶ħà¶»à¶ļ": 2063,
      "Ġà·Ģà·ĥà¶»à¶ļà¶§": 2064,
      "Ġà¶´à¶½à¶¸": 2065,
      "à¶ļà¶»à¶±à¶º": 2066,
      "Ġ75": 2067,
      "Ġà¶ħà¶ľà¶ºà¶ļ": 2068,
      "à¶Ńà¶»à¶ľà¶¸": 2069,
      "à¶§à¶»à¶ºà¶ļ": 2070,
      "Ġà¶ļà¶»à¶¯à¶»à¶ºà¶ļ": 2071,
      "à·Ħà¶ºà¶±": 2072,
      "à·²": 2073,
      "Ġà¶Ńà¶»à¶ľà¶ºà¶ļ": 2074,
      "Ġà·Ģà¶ºà¶¹": 2075,
      "à¶®à¶ļà¶Ń": 2076,
      "Ġà·ĥà¶´à¶º": 2077,
      "à¶·à¶ºà¶ļ": 2078,
      "16": 2079,
      "Ġà¶¶à·Ģà¶§à¶º": 2080,
      "Ġà¶īà¶»à¶«": 2081,
      "Ġà¶¯à·Ģà·ĥà¶§": 2082,
      "Ġà¶¸à¶Ńà¶ºà¶ļ": 2083,
      "Ġà¶¯à¶½": 2084,
      "à¶ºà·Ģà¶Ń": 2085,
      "à·ģà·Ģà¶½à¶§": 2086,
      "Ġ150": 2087,
      "à¶´à¶±à¶ºà¶§": 2088,
      "25": 2089,
      "à¶ĭà¶´": 2090,
      "Ġ33": 2091,
      "à¶ħà¶´à¶ľ": 2092,
      "à¶Ŀà¶±à¶º": 2093,
      "Ġà¶¯à·ħà¶¯": 2094,
      "à¶¢à·ĥ": 2095,
      "à¶ļà¶§à¶¸": 2096,
      "Ġà¶Ĩà¶¯à¶»à¶«": 2097,
      "Ġà¶±à¶»à¶¹à¶±": 2098,
      "à¶ºà¶±à·Ģà¶¯": 2099,
      "Ġà¶¸à¶»à¶±": 2100,
      "Ġà¶ĩà¶¹": 2101,
      "Ġà¶¢à¶´à¶±": 2102,
      "Ġà¶ļà¶»à¶«": 2103,
      "Ġ1000": 2104,
      "à¶±à¶§à¶¸": 2105,
      "Ġà¶ĭà¶©à¶§": 2106,
      "Ġà·ĥà¶¸à¶»à¶±": 2107,
      "à¶½à¶ºà¶ļà¶§": 2108,
      "à¶½à¶³": 2109,
      "Ġ2000": 2110,
      "à¶ħà·Ħ": 2111,
      "Ġà¶ļà¶´à¶±": 2112,
      "à¶ħà¶·": 2113,
      "à·ĥà¶¸à¶§": 2114,
      "Ġà¶ĩà¶ļ": 2115,
      "à·ĥà¶»à¶ºà¶ļ": 2116,
      "Ġà¶¸à·Ħà¶»": 2117,
      "Ġà¶Ĩà¶ºà¶Ńà¶±à·Ģà¶½": 2118,
      "Ġà¶±à·Ģà·ĥ": 2119,
      "Ġà¶¯à¶Ł": 2120,
      "à¶Ńà¶±à¶ºà¶ļ": 2121,
      "à¶½à¶±à·Ģ": 2122,
      "Ġà¶±à¶ľà¶»à¶ºà¶§": 2123,
      "11": 2124,
      "à¶¢à¶ºà¶±": 2125,
      "à·ģà¶«": 2126,
      "Ġà¶»à¶«à¶Ń": 2127,
      "Ġà¶ľà·Ħà¶´": 2128,
      "à¶łà¶½": 2129,
      "Ġà¶Ľà¶±": 2130,
      "à¶ħà¶´à¶»": 2131,
      "à¶Ĩà¶±": 2132,
      "2017": 2133,
      "à¶¸à¶Ńà¶ļ": 2134,
      "à·Ģà·ģ": 2135,
      "à¶ļà·Ģà¶¯": 2136,
      "à¶¶à¶«": 2137,
      "Ġ194": 2138,
      "à¶ºà¶§à¶º": 2139,
      "à¶Ńà¶¸à¶º": 2140,
      "Ġà·ģà¶½": 2141,
      "à·Ħà¶½à¶ºà¶±": 2142,
      "à¶¯à¶ļà¶º": 2143,
      "Ġà¶´à¶½à¶ļ": 2144,
      "Ġà¶µà¶½à¶¯": 2145,
      "Ġà¶ħà¶Łà·Ħà¶»": 2146,
      "Ġà¶¢à¶±à¶ļ": 2147,
      "Ġà¶ĩà¶Łà·Ģ": 2148,
      "Ġà¶´à¶±à·Ģ": 2149,
      "Ġà¶Ĭà·ģ": 2150,
      "à¶©à¶ľ": 2151,
      "Ġà¶ĭà¶´à·Ħ": 2152,
      "à¶ļà·Ģà¶½": 2153,
      "à¶¯à¶ºà¶ļà¶§": 2154,
      "Ġà¶ļà¶¶": 2155,
      "à·Ĥà¶´": 2156,
      "à¶Ĩà¶¯à¶»": 2157,
      "à¶´à¶±à¶ºà¶ļ": 2158,
      "à¶±à¶ļà¶½": 2159,
      "à¶©à¶ļà¶»à¶±": 2160,
      "Ġà¶ĭà¶¹à¶½": 2161,
      "Ġ34": 2162,
      "Ġà¶īà·Ĥ": 2163,
      "à¶ļà¶»à¶«à¶ºà¶ļ": 2164,
      "Ġà¶´à¶»à¶¯": 2165,
      "Ġà¶ľà¶¸à¶§": 2166,
      "Ġà¶¸à¶łà¶±": 2167,
      "à·ĲâĢį": 2168,
      "Ġà¶½à¶¶à¶±à·Ģ": 2169,
      "Ġ400": 2170,
      "Ġà·Ĥà¶»": 2171,
      "à·ģà¶ľ": 2172,
      "à·Ĵà·Ĵ": 2173,
      "Ġà¶¶à¶½à·Ħà¶Ń": 2174,
      "à¶»à¶Ńà¶½": 2175,
      "22": 2176,
      "à¶¯à·Ģà·ĥ": 2177,
      "Ġà¶ħà·Ģà·Ģ": 2178,
      "Ġà·Ģà¶ļà·Ģ": 2179,
      "Ġà¶Ĩà¶¸": 2180,
      "Ġ48": 2181,
      "à¶±à¶Ńà¶¸": 2182,
      "Ġà¶ĳà·Ĩ": 2183,
      "Ġà¶ļà¶±à·Ģ": 2184,
      "à·ĥà·Ģà¶ºà¶§": 2185,
      "à¶½à¶°à¶»": 2186,
      "à¶Ķà¶¶à¶Ń": 2187,
      "Ġà¶¸à¶©à¶ļ": 2188,
      "Ġà¶©à¶ºà·ĥ": 2189,
      "à¶´à·Ħà¶Ń": 2190,
      "à¶Ńà¶»à¶±": 2191,
      "à¶³à·Ģà¶±": 2192,
      "Ġà¶¶à¶½à¶¯": 2193,
      "à¶»à¶ºà¶º": 2194,
      "à¶§à¶Ńà¶§": 2195,
      "à¶»à¶¸à¶ļ": 2196,
      "à¶¸à¶»à¶«": 2197,
      "Ġà¶īà¶©à¶ļà¶©": 2198,
      "à·Ħà¶½à¶ļ": 2199,
      "Ġà¶Ĵà¶ļà¶º": 2200,
      "à¶ĩà¶¸à¶Ń": 2201,
      "à·Ĥà¶¸à¶Ń": 2202,
      "à·ħà·ĥ": 2203,
      "à¶ļà·Ģà¶Ń": 2204,
      "Ġà¶ľà¶ºà¶±": 2205,
      "Ġ195": 2206,
      "Ġà¶´à·Ģà·ĥà¶Ń": 2207,
      "à¶¢à¶±à·Ģà¶Ń": 2208,
      "Ġà¶ĩà¶ºà·Ģ": 2209,
      "à¶¢à¶±à¶´à¶Ń": 2210,
      "Ġ37": 2211,
      "Ġà¶»à¶§à·Ģà¶½à¶§": 2212,
      "Ġà¶ħà¶´à¶¯": 2213,
      "Ġà¶ħà¶´à·Ģ": 2214,
      "à¶½à¶·": 2215,
      "Ġà¶´à¶¯à¶±": 2216,
      "Ġà¶īà¶´": 2217,
      "Ġà·Ħà¶»à·Ģ": 2218,
      "Ġà¶ĩà¶¯à·Ħ": 2219,
      "à¶¸à¶±à¶º": 2220,
      "à¶ĭà·ĥà·ĥ": 2221,
      "à¶ľà¶ºà¶ļà¶§": 2222,
      "à¶¯à·Ģà·ĥà¶ļ": 2223,
      "à·Ģà¶½à¶¸": 2224,
      "à¶¸à¶ł": 2225,
      "à¶±à¶ºà¶º": 2226,
      "à·ĥà¶ºà¶±": 2227,
      "à¶Łà¶º": 2228,
      "Ġ65": 2229,
      "à·ĥà¶½à¶Ń": 2230,
      "âĨĳ": 2231,
      "à¶ļà¶ľà¶±": 2232,
      "à·Ģà¶ºà¶Ń": 2233,
      "à¶¶à¶ºà¶ļ": 2234,
      "Ġà¶ĳà¶ļà·Ģà¶»": 2235,
      "à¶ºà·Ģà¶ļ": 2236,
      "Ġà·ĥà¶¶à¶»à¶ľà¶¸": 2237,
      "à¶¸à¶łà¶±": 2238,
      "Ġà¶Ķà¶¶à·Ģ": 2239,
      "à¶»à¶©": 2240,
      "Ġà¶±à¶¯": 2241,
      "à¶¯à¶½à¶§": 2242,
      "Ġ38": 2243,
      "à¶§à¶»à¶º": 2244,
      "Ġà¶īà·Ħà·ħà¶§": 2245,
      "à·ģà¶±à¶ºà¶§": 2246,
      "à¶»à¶»": 2247,
      "Ġà¶ĩà¶¯à¶ľ": 2248,
      "à·Ħà¶ļà¶§": 2249,
      "Ġà¶¶à·Ģà¶§à¶Ń": 2250,
      "Ġà¶Ńà¶»à¶ľà¶ºà¶§": 2251,
      "à¶¯à¶±à¶ºà¶§": 2252,
      "Ġ55": 2253,
      "Ġà·ĥà·Ģà¶±": 2254,
      "à¶ĭà¶©": 2255,
      "Ġà¶´à¶Ńà¶±à·Ģ": 2256,
      "à¶Ĩà·ĥ": 2257,
      "à·Ħà¶´à¶Ń": 2258,
      "Ġà¶ļà¶´à¶½": 2259,
      "à¶ľà¶«à¶±": 2260,
      "Ġà¶»à¶«à·Ģà¶ļ": 2261,
      "Ġà¶ļà·ħà¶¸à¶«": 2262,
      "Ġà¶½à¶½": 2263,
      "à·ħà¶¹à¶§": 2264,
      "Ġà·ħà¶Łà¶§": 2265,
      "Ġà¶´à·Ħà¶»à¶ļ": 2266,
      "à¶¡à¶±": 2267,
      "à·ħà¶½": 2268,
      "à¶ºà¶±à¶¸": 2269,
      "Ġà·Ģà¶§à¶´": 2270,
      "Ġà¶¶à¶»à¶ļ": 2271,
      "à¶»à¶Ńà¶±": 2272,
      "Ġà¶ľà¶¸à¶ľ": 2273,
      "Ġà·Ģà¶±à¶Ń": 2274,
      "Ġà¶°à¶±à¶º": 2275,
      "à·Ħà·Ģ": 2276,
      "à·Ģà¶ºà·ĥ": 2277,
      "2016": 2278,
      "Ġà¶¢à¶±à¶ľà·Ħà¶±à¶º": 2279,
      "Ġà¶īà·Ģà¶Ńà¶§": 2280,
      "Ġà¶½à¶¶à¶¸": 2281,
      "Ġà¶ļà¶©à¶±": 2282,
      "Ġà¶ħà¶»à¶¹": 2283,
      "Ġà·Ħà¶©": 2284,
      "à·ģà¶¸": 2285,
      "à¶ļà¶»à¶´": 2286,
      "à¶Ĩà¶»à¶ļ": 2287,
      "à¶»à¶¶à¶±": 2288,
      "Ġà¶ħà·Ħà¶´": 2289,
      "Ġà¶¸à¶½à¶º": 2290,
      "Ġà¶¶à¶¸": 2291,
      "Ġà¶ĩà·Ĩ": 2292,
      "à·Ĥà·Ģà¶»à¶º": 2293,
      "Ġà¶ĭà¶©à¶»à¶§": 2294,
      "Ġà¶ħà·Ħà¶¸": 2295,
      "à¶ĳà¶ļà¶¸": 2296,
      "à¶¯à·Ģà¶½": 2297,
      "Ġà¶¢à¶ºà¶»à¶Ń": 2298,
      "à¶ħà·Ģà·ģ": 2299,
      "à·Ģà·ĥà¶±": 2300,
      "à¶¶à¶»à¶½": 2301,
      "à¶±à¶±à¶¸": 2302,
      "à¶»à¶łà¶½": 2303,
      "à¶±à¶§à¶º": 2304,
      "Ġà¶·à¶ļ": 2305,
      "Ġà¶ļà¶Ńà¶»à¶ľà¶¸": 2306,
      "Ġà¶Ĩà·Ģà¶§": 2307,
      "Ġà¶įà¶¢": 2308,
      "à¶ľà¶»à¶º": 2309,
      "à¶±à¶¸à¶º": 2310,
      "Ġà¶¸à·Ģà¶ļ": 2311,
      "Ġà¶Ĭà¶¢": 2312,
      "Ġà·ĥà¶´à¶Ń": 2313,
      "Ġà¶»à¶«à·ĥ": 2314,
      "à¶ľà¶ľ": 2315,
      "à¶½à¶§à¶¸": 2316,
      "0000": 2317,
      "Ġà¶īà·Ħà·ħà¶¸": 2318,
      "à¶ħà·Ģà·ĥà¶±": 2319,
      "à¶Ńà¶±à¶¯": 2320,
      "à·ģà¶«à¶º": 2321,
      "Ġà¶´à¶Ńà¶±": 2322,
      "à¶½à¶±à¶¥à¶º": 2323,
      "Ġà·ĥà·ĥ": 2324,
      "à·Ĩà¶»": 2325,
      "Ġà¶ħà¶ł": 2326,
      "¿½": 2327,
      "Ġà¶ĩà¶´à¶½": 2328,
      "à¶ĭà¶¹à¶§": 2329,
      "Ġà¶ħà¶¸à¶»à·ĥ": 2330,
      "Ġà·Ģà¶»à¶¸": 2331,
      "Ġà¶ĭà¶´à·Ģ": 2332,
      "Ġà·Ģà¶§à¶º": 2333,
      "Ġà¶ĳà¶ºà¶º": 2334,
      "à¶»à·Ģà¶½à¶§": 2335,
      "Ġ2008": 2336,
      "Ġà¶¸à·Ħà¶¢à¶±à¶º": 2337,
      "Ġà¶ħà¶»à¶½": 2338,
      "Ġà¶ħà¶§à¶ļ": 2339,
      "Ġà¶ļà¶±à¶ľ": 2340,
      "à¶Ĩà¶ł": 2341,
      "Ġà¶Ķà·ĥà·Ģ": 2342,
      "Ġà¶ļà¶½à¶º": 2343,
      "à¶ºà·Ģà¶±à·Ģ": 2344,
      "à¶łà¶ºà¶ļ": 2345,
      "à¶Ńà¶½à¶º": 2346,
      "à¶°à¶ļà¶ºà¶ļ": 2347,
      "Ġà¶±à¶ľà¶±": 2348,
      "Ġà¶ļà¶½à·Ħ": 2349,
      "Ġà¶°à¶±à·Ģà¶Ń": 2350,
      "à¶ľà¶»à¶§": 2351,
      "à·Ģà¶ºà¶º": 2352,
      "à¶łà¶»à¶º": 2353,
      "à¶»à·Ħà¶«à¶ºà¶ļ": 2354,
      "à¶¶à¶¸": 2355,
      "Ġà¶¢à¶ºà¶Ń": 2356,
      "Ġà¶»à¶¶à¶»": 2357,
      "Ġà·Ģà¶½à¶§à¶Ń": 2358,
      "Ġà·ģà¶Ń": 2359,
      "Ġà·ħà¶ľ": 2360,
      "Ġà¶©à·Ģ": 2361,
      "Ġà·Ħà¶Ńà¶ļ": 2362,
      "à·Ħà¶ºà¶§": 2363,
      "Ġà¶ľà¶«à¶±à¶º": 2364,
      "Ġà¶±à¶Ł": 2365,
      "à·Ģà¶»à¶Ń": 2366,
      "à¶Ĩà¶ľà¶¸": 2367,
      "Ġà¶Ĩà·Ģà¶Ń": 2368,
      "Ġà¶´à¶½à¶Ń": 2369,
      "Ġà¶Ĩà¶ºà¶Ńà¶±à¶ºà¶§": 2370,
      "à¶Ľà¶Ń": 2371,
      "Ġ56": 2372,
      "à¶¸à¶Ł": 2373,
      "à¶ºà¶±à·Ģà¶±à¶¸": 2374,
      "à¶ºà¶±à¶ļ": 2375,
      "Ġà¶Ĭà¶§à¶Ń": 2376,
      "âĢī": 2377,
      "à¶®à·Ģ": 2378,
      "à¶¸à¶ļà¶º": 2379,
      "à¶»à·Ģà¶«à¶Ń": 2380,
      "Ġà¶ļà¶¸à¶§": 2381,
      "Ġà¶ºà¶§à¶´à¶Ń": 2382,
      "Ġà·Ħà¶»à·ĥ": 2383,
      "Ġà¶Įà¶§": 2384,
      "à·ħà¶±": 2385,
      "à¶°à¶ļà¶»": 2386,
      "Ġà¶ħà¶ºà·Ħà¶´à¶Ń": 2387,
      "à·Ģà¶»à¶ºà¶±": 2388,
      "Ġà·ĥà¶¸à¶»à·ĥ": 2389,
      "à·Ģà·Ħà¶¸": 2390,
      "Ġà¶Ĩà¶¯à¶»à¶ºà¶ļ": 2391,
      "Ġà·ĥà¶¸à·Ħà¶»à¶ļ": 2392,
      "à¶¯à¶¸à¶§": 2393,
      "24": 2394,
      "Ġà¶īà¶Ł": 2395,
      "à¶ľà·Ģà¶½à¶§": 2396,
      "à¶´à¶¯à·Ģà¶±": 2397,
      "Ġà¶ļà¶»à¶±à¶ļ": 2398,
      "à·ĥà¶»à¶ºà¶§": 2399,
      "Ġà¶»à¶§à¶ļà¶§": 2400,
      "à¶»à·Ģà¶»à¶º": 2401,
      "Ġà¶´à¶¯à¶±à¶¸à¶ļ": 2402,
      "à¶Ĵà¶ļà¶Ń": 2403,
      "à¶©à¶»à¶½": 2404,
      "à·Ģà¶§à¶º": 2405,
      "Ġà¶ľà·Ħà¶ľ": 2406,
      "21": 2407,
      "à¶°à¶ļà¶º": 2408,
      "Ġà¶ĳà¶ļà¶¯": 2409,
      "à¶łà¶ļ": 2410,
      "Ġà¶´à¶±à·ĥ": 2411,
      "Ġà¶ĳà¶ļà¶´": 2412,
      "à·ľà·Ĭ": 2413,
      "à¶ºà·Ģà·ĥà¶¸": 2414,
      "Ġà¶ħà¶ºà¶§à¶Ń": 2415,
      "à¶½à¶±à¶¥à¶ºà¶±": 2416,
      "Ġà¶ļà¶½à¶ļà¶§": 2417,
      "à¶ĳà·Ģà¶±": 2418,
      "à·ĥà¶ļà¶ľ": 2419,
      "à¶±à¶ºà¶Ń": 2420,
      "à¶½à·Ģà¶Ń": 2421,
      "à·Ģà¶¸à¶ļ": 2422,
      "Ġà¶¶à¶©à¶ľ": 2423,
      "Ġà¶¸à¶¸à¶º": 2424,
      "Ġà¶µà¶½": 2425,
      "Ġà¶»à·ĥà¶º": 2426,
      "Ġà¶ĩà·ħ": 2427,
      "à¶»à·Ģà¶«": 2428,
      "Ġà¶ĳà·ħà·Ģà·ħ": 2429,
      "Ġà¶Ĩà¶±à¶ºà¶±": 2430,
      "Ġà¶ĩà¶¯à¶½": 2431,
      "à¶ļà¶¸à¶º": 2432,
      "Ġà·ĥà¶¸à¶ľà¶º": 2433,
      "à¶¶à¶ļ": 2434,
      "Ġ2020": 2435,
      "Ġà·ĥà·ħà¶ļ": 2436,
      "Ġà¶ļà·ħà¶º": 2437,
      "à¶±à¶±à·Ģ": 2438,
      "à¶±à¶¸à¶±": 2439,
      "à¶¯à¶§à¶¸": 2440,
      "à¶¢à¶ļà¶º": 2441,
      "à·ħà¶«": 2442,
      "23": 2443,
      "Ġ44": 2444,
      "Ġà¶ľà¶º": 2445,
      "à¶½à·Ģà·Ģ": 2446,
      "Ġà¶¶à·ħà¶ļ": 2447,
      "Ġà¶¯à¶©à¶ºà¶¸": 2448,
      "Ġà¶¢à¶¸": 2449,
      "Ġà¶»à·ĥà·Ģ": 2450,
      "à¶©à¶±à¶ľ": 2451,
      "Ġà·ĥà¶Ńà¶»": 2452,
      "Ġ39": 2453,
      "à¶ļà¶³": 2454,
      "Ġà¶ħà¶¸à¶»à·Ģ": 2455,
      "Ġà·Ģà¶»à¶¯à¶ļà¶»": 2456,
      "Ġà¶Ĩà¶·": 2457,
      "à·Ĥà¶ºà¶ļà¶§": 2458,
      "à·Ģà·Ħà¶½": 2459,
      "à¶Ľà¶ļà¶º": 2460,
      "à¶´à¶ºà¶±": 2461,
      "à¶´à¶¸à¶«à¶ļ": 2462,
      "à¶»à¶¸à¶±": 2463,
      "Ġà¶Ĩà¶Ńà¶Ń": 2464,
      "à¶Ĩà¶¯à¶»à¶º": 2465,
      "à¶¢à¶´": 2466,
      "à¶¢à¶±à·Ģ": 2467,
      "à¶¶à¶½à¶¸": 2468,
      "à¶½à¶¸à¶ļ": 2469,
      "à¶Ńà·Ģà¶½": 2470,
      "Ġà¶ļà·ĥà·ħ": 2471,
      "Ġà¶Ĵà¶ļà¶±": 2472,
      "à¶ĳà¶¢": 2473,
      "à·Ĥà¶§": 2474,
      "à·ĥà¶¸à·Ħà¶»à·Ģ": 2475,
      "Ġà·ĥà¶¸à¶Łà¶¸": 2476,
      "Ġ43": 2477,
      "Ġà¶ħà¶ľà·Ģ": 2478,
      "à·Ĥà·Ģà¶»": 2479,
      "Ġà¶»à¶ľ": 2480,
      "à·Ļ.": 2481,
      "à¶īà¶½": 2482,
      "Ġà¶¯à¶¸à¶¸": 2483,
      "à¶ºà·Ħà¶´": 2484,
      "Ġà¶ķà¶±à¶¸": 2485,
      "60": 2486,
      "Ġà¶»à¶¢à¶ºà¶ļ": 2487,
      "à¶ºà¶ļà¶ºà¶ļ": 2488,
      "à·Ģà¶»à¶±à¶º": 2489,
      "Ġà¶©à¶º": 2490,
      "à¶¨à¶ļà¶º": 2491,
      "à¶½à¶ºà¶Ń": 2492,
      "à¶ºà¶ļà¶¯": 2493,
      "à·ħà¶¹à¶¯": 2494,
      "à·Ł": 2495,
      "à¶©à¶¯": 2496,
      "à¶»à¶ļà¶Ńà¶±à¶º": 2497,
      "Ġ42": 2498,
      "Ġ1998": 2499,
      "Ġà¶»à¶®à·Ģ": 2500,
      "à¶ļà¶«": 2501,
      "à·Ĥà·Ģà¶½": 2502,
      "à¶¯à¶ļà¶§": 2503,
      "Ġà¶±à¶§à¶±": 2504,
      "Ġà¶ĳà¶ļà¶±": 2505,
      "à¶ª": 2506,
      "Ġà¶īà¶»à¶«à¶¸": 2507,
      "à¶½à·Ħ": 2508,
      "Ġà¶ľà·ĥà¶±": 2509,
      "à¶ºà·Ģà¶´": 2510,
      "Ġà·ĥà¶Łà·Ģ": 2511,
      "à¶«à¶¸": 2512,
      "à·Ļà·Ĵ": 2513,
      "Ġà¶ľà·Ħà¶ļ": 2514,
      "à¶Ńà¶ºà¶Ń": 2515,
      "Ġà¶ħà·Ħà·Ģà¶½": 2516,
      "à¶±à¶ľà¶»": 2517,
      "Ġà·Ħà¶´": 2518,
      "Ġà¶±à¶´": 2519,
      "Ġà¶´à¶¶": 2520,
      "Ġà¶¶à¶½à·ĥ": 2521,
      "à¶§à¶¸à¶§": 2522,
      "à¶ºà¶½à¶¯": 2523,
      "à¶ºà¶Ńà¶±à¶º": 2524,
      "à¶ºà¶±à·Ģà¶±": 2525,
      "Ġà¶ķà·Ģà¶»": 2526,
      "à·ħà¶¸à¶º": 2527,
      "à·Ħà¶ļà¶º": 2528,
      "à·ĥà¶¸à·ĥ": 2529,
      "Ġà¶ľà¶¸à¶±à¶§": 2530,
      "à¶Ľà¶±à¶º": 2531,
      "Ġà¶īà¶³à¶ľ": 2532,
      "Ġà¶´à¶§à·Ħ": 2533,
      "40": 2534,
      "à¶»à·Ħà¶«": 2535,
      "à¶Ĩà·Ħ": 2536,
      "Ġà·Ħà¶§à¶ľà¶Ń": 2537,
      "Ġà¶¸à¶©à¶ļà¶½à¶´": 2538,
      "à¶ĳà¶¸à¶ľ": 2539,
      "Ġ47": 2540,
      "Ġà¶ĩà¶«": 2541,
      "à¶©à¶½à¶ºà¶ļ": 2542,
      "à¶©à¶¸à¶ļ": 2543,
      "Ġà¶ħà¶»à¶ľà¶½à¶ºà¶ļ": 2544,
      "à¶ķà·ĥ": 2545,
      "à¶¯à¶»à¶ļ": 2546,
      "à¶±à¶ļà¶¯": 2547,
      "ĠðŁĺ": 2548,
      "à·Ģà¶»à¶¸": 2549,
      "à¶ĳà¶ļà¶½": 2550,
      "à¶°à¶±à¶´": 2551,
      "Ġà¶ľà¶©": 2552,
      "Ġà¶ľà¶Ńà·Ħ": 2553,
      "à¶ºà·ģ": 2554,
      "Ġà¶¸à¶±à¶¸": 2555,
      "Ġà¶½à¶Łà¶§": 2556,
      "Ġà¶ļà·ħà¶¯": 2557,
      "à¶§à¶ļà¶º": 2558,
      "Ġ99": 2559,
      "Ġà¶±à¶ľà¶»à¶ºà¶ļ": 2560,
      "à¶»à·Ħà¶ºà¶ļ": 2561,
      "à¶ķà·Ģ": 2562,
      "à¶¸à·ĥà¶±": 2563,
      "Ġà¶Ĩà·Ģà¶¸": 2564,
      "Ġà¶»à·ħ": 2565,
      "Ġà·Ģà¶ł": 2566,
      "à·ħà·Ģà¶»": 2567,
      "Ġà¶Ĵà¶¢à¶±": 2568,
      "Ġà¶¢à¶ºà¶ľà¶Ń": 2569,
      "26": 2570,
      "à·Ĩà¶º": 2571,
      "Ġ58": 2572,
      "à¶ľà¶¸à¶ľ": 2573,
      "2014": 2574,
      "28": 2575,
      "à¶¢à¶ºà¶ľ": 2576,
      "à¶½à¶ºà¶º": 2577,
      "Ġà¶ľà¶±à¶±à¶ļ": 2578,
      "à·Ĥà¶ļà·Ģà¶»à¶º": 2579,
      "Ġ250": 2580,
      "Ġà¶Ńà·Ħà¶±": 2581,
      "Ġà¶¶à¶ºà¶º": 2582,
      "à·Ĵà·ĬâĢį": 2583,
      "Ġà·Ħà¶¹": 2584,
      "Ġà·Ģà¶°": 2585,
      "à¶§à¶±à¶º": 2586,
      "Ġà·ĥà·ħ": 2587,
      "à¶ľà¶Ńà¶ºà¶ļ": 2588,
      "Ġà¶¸à¶½à¶ļ": 2589,
      "Ġ57": 2590,
      "Ġà¶¶à¶ļ": 2591,
      "à¶§à·Ģà¶±": 2592,
      "à¶łà¶¸": 2593,
      "à¶Ĵà·Ģà¶ľ": 2594,
      "à·ĻâĢį": 2595,
      "à¶ºà¶±à¶ľ": 2596,
      "Ġà·ĥà·Ħà¶¢": 2597,
      "Ġà·ĥà·Ħà¶±à¶ºà¶ļ": 2598,
      "à¶ºà¶ľà·Ħ": 2599,
      "à¶¢à¶ľà¶Ń": 2600,
      "Ġà·Ģà¶ºà·ĥà¶§": 2601,
      "Ġ2019": 2602,
      "Ġà¶¯à·Ģà·ĥà¶ļà¶§": 2603,
      "à·Ħà·ħ": 2604,
      "Ġà¶»à·Ģà¶§": 2605,
      "Ġà¶¸à¶Ńà¶§": 2606,
      "à¶Ĵà¶ļà¶º": 2607,
      "Ġà¶Ńà¶»à¶¸à¶§à¶¸": 2608,
      "Ġà¶»à¶§à¶¸": 2609,
      "Ġà¶Ńà¶«": 2610,
      "27": 2611,
      "Ġà·ĥà¶§à¶±à¶ļ": 2612,
      "Ġà·ĥà¶±à¶Ń": 2613,
      "à¶ĩà¶ºà¶§": 2614,
      "à·Ģà·ĥà¶¸": 2615,
      "Ġà¶´à¶¬": 2616,
      "Ġà¶¸à·Ħà¶¸": 2617,
      "à¶Ŀà¶»à¶Ń": 2618,
      "à¶ºà¶´à¶±": 2619,
      "âĨĲ": 2620,
      "Ġà¶»à¶¸": 2621,
      "à¶Ĩà¶¯": 2622,
      "à¶´à¶·": 2623,
      "Ġà¶ħà¶¸à¶Ńà¶±": 2624,
      "à¶ĭà¶¶": 2625,
      "à¶¸à¶§à¶¸": 2626,
      "à¶»à¶®à¶¸à¶º": 2627,
      "à¶ºà·Ģà·Ħ": 2628,
      "Ġà·ĥà¶¸à¶½": 2629,
      "à·ģà¶Ńà¶ºà¶ļ": 2630,
      "à¶·à¶±": 2631,
      "à·ĥà¶³à¶±": 2632,
      "Ġà·Ħà¶§à¶ľ": 2633,
      "à¶©à¶ļà¶§à¶º": 2634,
      "Ġà·Ģà¶ľà¶ºà¶ļ": 2635,
      "Ġà¶ħà·Ħà¶ľ": 2636,
      "à¶ĳà¶´à¶¸à¶«à¶ļ": 2637,
      "Ġà¶Įà¶»": 2638,
      "à¶§à¶ºà¶ļ": 2639,
      "à¶»à·Ħà¶½": 2640,
      "Ġà¶Ĵà·Ģà¶§": 2641,
      "à¶ºà¶ºà¶º": 2642,
      "Ġà¶Ķà¶ł": 2643,
      "Ġ46": 2644,
      "Ġ2005": 2645,
      "ĠâĢ": 2646,
      "Ġ64": 2647,
      "à¶©à·Ģà¶»": 2648,
      "à¶¸à¶»à¶ºà¶ļ": 2649,
      "Ġà¶©à¶ºà¶½": 2650,
      "Ġà¶¢à¶ºà·Ģ": 2651,
      "Ġà·ħà¶Łà¶¯": 2652,
      "Ġà¶´à·Ħà·ħà¶§": 2653,
      "à¶§à¶½à¶ºà¶ļ": 2654,
      "à·ľâĢį": 2655,
      "à·Ģà¶ļà¶¸": 2656,
      "Ġà¶´à·ħà¶½": 2657,
      "à¶»à·Ħà¶»": 2658,
      "à¶«à¶»": 2659,
      "Ġà¶Ńà¶½à¶º": 2660,
      "Ġà¶ºà¶§à·Ģ": 2661,
      "Ġà¶īà¶¸à·Ħà¶Ń": 2662,
      "à¶ľà¶¯": 2663,
      "à¶ĩà¶ºà¶ľ": 2664,
      "29": 2665,
      "80": 2666,
      "Ġà·Ħà¶¬à¶ļ": 2667,
      "à¶©à·ĥà¶§à·Ħà¶±à¶§": 2668,
      "Ġà¶Ńà¶¶à¶¸": 2669,
      "Ġà·Ģà¶½à¶Ń": 2670,
      "Ġà¶ļà¶»à¶±à·Ģà¶¯": 2671,
      "à·ħà¶ºà¶ļ": 2672,
      "Ġà¶¸à·Ģà¶ľ": 2673,
      "Ġà¶Ĭà¶¸": 2674,
      "Ġà¶īà¶©à¶¸à¶ļ": 2675,
      "à¶§à¶©": 2676,
      "Ġà¶ħà·Ģà¶´": 2677,
      "Ġ54": 2678,
      "Ġ130": 2679,
      "Ġà¶Ĭà¶½à¶Ł": 2680,
      "Ġà·ĥà¶¸à·Ħà¶»à·Ģ": 2681,
      "Ġà¶»à¶łà¶ļà¶º": 2682,
      "à¶ºà¶±à¶ºà¶ļ": 2683,
      "Ġà¶ħà¶¯à¶§": 2684,
      "à¶ºà¶Ńà¶¸": 2685,
      "Ġà·ĥà¶¸à¶ļ": 2686,
      "Ġà¶ħà·Ģà·ĥà¶»à¶º": 2687,
      "à¶Ńà¶ºà¶ļà¶§": 2688,
      "Ġà¶Ķà¶¶à¶½": 2689,
      "Ġï¿½": 2690,
      "à¶»à·Ģà¶ºà¶ļ": 2691,
      "Ġ600": 2692,
      "à¶»à·Ģà¶Ń": 2693,
      "Ġà¶ħà¶¯à·Ħà¶±": 2694,
      "à¶½à¶ļà¶±": 2695,
      "Ġà¶»à¶¢à·Ģà¶»": 2696,
      "à¶½à¶ļà¶»": 2697,
      "Ġà¶ļà¶©à¶¯": 2698,
      "Ġà¶ļà·ĥà¶½": 2699,
      "à¯": 2700,
      "à¶¢à¶ļà¶ºà¶±": 2701,
      "Ġà¶Ĩà¶ľà¶¸à¶ļ": 2702,
      "à¶½à¶§à¶Ń": 2703,
      "à¶¢à¶ľ": 2704,
      "à¶«à¶´": 2705,
      "Ġà·Ģà¶´": 2706,
      "Ġà¶ĳà¶ļà·ĥ": 2707,
      "Ġà¶»à·Ħà·ĥà¶ļ": 2708,
      "à¶¢à¶§": 2709,
      "Ġà¶ħà¶´à¶º": 2710,
      "à¶«à¶½": 2711,
      "Ġà¶¸à¶Ńà¶ļà¶ºà¶±": 2712,
      "à¶¶à·Ħà¶§": 2713,
      "à·Ħà¶§à¶¸": 2714,
      "à·Ĥà¶«à·Ģà¶½": 2715,
      "Ġà¶Ŀà¶±": 2716,
      "Ġà¶¸à¶Ńà¶ļà¶ºà¶ļ": 2717,
      "Ġà¶Ĩà·ĥà¶±à¶º": 2718,
      "à¶°à¶¸": 2719,
      "Ġà¶ĭà¶´à¶ļà¶½": 2720,
      "Ġà¶ļà¶©à¶½": 2721,
      "Ġà¶ľà¶¸à¶ļ": 2722,
      "Ġà¶§à·Ģ": 2723,
      "à¶Ńà¶»à¶ľ": 2724,
      "Ġà¶ĭà¶´à¶ºà¶±": 2725,
      "Ġ53": 2726,
      "à¶±à·Ģà¶½à¶¯": 2727,
      "à¶¨à¶½": 2728,
      "Ġ49": 2729,
      "2012": 2730,
      "Ġà¶»à¶¢à¶¸à·Ħ": 2731,
      "à¶©à·Ģà¶½": 2732,
      "88": 2733,
      "Ġà¶´à·ĥà¶ļ": 2734,
      "Ġà¶ļà¶»à¶ļ": 2735,
      "à·ģà·ĥ": 2736,
      "Ġà¶ĳà¶ļà¶§à¶¸": 2737,
      "à¶«à·ģ": 2738,
      "Ġà·Ģà¶ºà·ĥà¶ļ": 2739,
      "à¶½à¶ľà¶±": 2740,
      "Ġà¶ħà·Ģà¶·": 2741,
      "à¶ļà¶®": 2742,
      "à¶«à¶ºà¶ļà¶§": 2743,
      "Ġà¶ħà¶ľà¶ºà¶±": 2744,
      "Ġà¶Ĭà·ĥ": 2745,
      "à¶Ńà¶±à¶§": 2746,
      "Ġà¶Ķà¶»à¶½": 2747,
      "à¶Ńà·Ģà¶¸à¶Ń": 2748,
      "Ġà¶ĩà¶³à¶ľ": 2749,
      "à·ĥà¶¸à¶±": 2750,
      "Ġà¶¶à·Ģà¶§à¶¯": 2751,
      "à·ĥà¶ºà¶ļà¶§": 2752,
      "Ġà¶ľà·ĥà¶ļ": 2753,
      "Ġà¶Ĵà·Ģà¶ľ": 2754,
      "Ġà¶ħà¶´à¶ļ": 2755,
      "à¶«à¶ļà¶»": 2756,
      "à·ħà·Ħ": 2757,
      "Ġà¶Ĩà¶»à·Ģ": 2758,
      "à¶»à¶§à¶ļ": 2759,
      "Â©": 2760,
      "Ġà¶´à·Ħà¶½à¶§": 2761,
      "Ġà¶»à¶łà¶±à¶º": 2762,
      "à¶½à¶´à¶Ń": 2763,
      "Ġà¶½à·ĥà¶±": 2764,
      "à·Ģà¶ļà¶ľ": 2765,
      "à¶Ńà¶½à¶ºà¶ļ": 2766,
      "Ġà¶¸à·Ħà¶´": 2767,
      "à¶ĳà¶ļà¶§": 2768,
      "Ġ5000": 2769,
      "Ġà¶ľà¶Ńà¶º": 2770,
      "Ġà¶¸à·Ħà¶»à¶ľà¶¸": 2771,
      "à¶½à·Ģà¶±": 2772,
      "à¶Ĭà·ħà¶Łà¶§": 2773,
      "2010": 2774,
      "à¶´à¶»à¶¸": 2775,
      "à¶ĭà¶¹à¶½": 2776,
      "Ġ89": 2777,
      "Ġà¶Ķà¶¶à¶§à¶Ń": 2778,
      "à¶¯à¶ºà¶Ń": 2779,
      "Ġà¶´à¶»à·ĥ": 2780,
      "à¶ºà¶ºà¶ļà¶§": 2781,
      "à¶¯à¶»à¶¸": 2782,
      "Ġà¶»à¶³": 2783,
      "à¶¸à¶»à¶Ń": 2784,
      "Ġà¶¯à·Ħà¶º": 2785,
      "à¶¯à¶¹": 2786,
      "à¶»à¶±à·Ģ": 2787,
      "à¶Ńà¶¶": 2788,
      "à·Ĥà¶«à¶ºà¶±": 2789,
      "à¶ºà·Ģà¶¯": 2790,
      "Ġà¶Ńà¶»à¶º": 2791,
      "à·ĥà¶»à¶Ń": 2792,
      "Ġ2007": 2793,
      "Ġà¶ħà·Ģà¶º": 2794,
      "à¶»à¶«à¶ºà¶ļà¶§": 2795,
      "à¶ºà¶ľà¶¸": 2796,
      "à·ģà¶Ńà¶º": 2797,
      "Ġà¶¢à¶±à¶¸à¶Ń": 2798,
      "Ġà¶»à¶¹": 2799,
      "Ġà¶ħà·Ħà¶ļ": 2800,
      "Ġà¶ħà·ĥà·ħ": 2801,
      "à¶¢à¶¸": 2802,
      "à¶¥à·Ģà¶»": 2803,
      "Ġà·ĥà¶ł": 2804,
      "Ġà¶ħà¶´à¶±à¶ºà¶±à¶º": 2805,
      "Ġ95": 2806,
      "à·ĥà¶¶": 2807,
      "ðŁĳĮðŁĳĮðŁĳĮðŁĳĮ": 2808,
      "à¶Ńà¶»à¶ºà¶§": 2809,
      "Ġà·Ħà·Ĥ": 2810,
      "à¶Ķà·ĥ": 2811,
      "Ġ66": 2812,
      "à·ĥà¶¯à¶º": 2813,
      "33": 2814,
      "Ġà¶ħà¶¯à·Ħà·ĥà¶º": 2815,
      "Ġà¶ħà¶´à¶Ń": 2816,
      "Ġà¶ļà¶§à·Ħà¶¬": 2817,
      "à¶»à¶¢à¶±": 2818,
      "à¶łà¶ļà¶º": 2819,
      "Ġà·Ħà¶Ńà·ħ": 2820,
      "à¶¸à¶Ńà¶º": 2821,
      "Ġà·ĥà¶¸à¶±à¶½": 2822,
      "Ġà¶¶à¶½à¶±à¶ļ": 2823,
      "à¶¶à¶½à¶´": 2824,
      "à¶Ŀà¶±": 2825,
      "Ġà¶´à¶¯à¶º": 2826,
      "70": 2827,
      "à¶ħà·ħ": 2828,
      "Ġà·Ģà·ĥà¶¸": 2829,
      "à¶ļà¶§à¶º": 2830,
      "à¶łà¶Ń": 2831,
      "Ġà¶ĳà¶ļà¶§à¶Ń": 2832,
      "à¶ĳà·Ĩ": 2833,
      "Ġà¶½à¶Łà¶¯": 2834,
      "Ġà¶ºà·ĥ": 2835,
      "à¶¸à·Ģà¶±": 2836,
      "à·ĥà¶§à¶º": 2837,
      "Ġà¶ĳà¶Ńà¶±à¶§": 2838,
      "Ġà¶´à¶§à¶º": 2839,
      "à¶ºà·Ģà¶»à¶ºà¶ļ": 2840,
      "à¶¢à¶±à¶´": 2841,
      "Ġà¶īà·Ģà¶»à·Ģ": 2842,
      "Ġà¶ºà¶§à¶Ńà¶§": 2843,
      "à·ĥà¶»à¶«à¶º": 2844,
      "Ġà¶´à·Ħà¶ļà¶§": 2845,
      "Ġà¶´à·ħà¶Ń": 2846,
      "Ġ41": 2847,
      "à¶Ńà·ģ": 2848,
      "à¶©à¶¶à¶½à¶±": 2849,
      "à·ĥà·Ģà¶ºà¶ļà¶§": 2850,
      "Ġà¶´à¶Ńà¶½": 2851,
      "à·Ģà¶´à¶Ń": 2852,
      "à·ĥà·Ģà¶½": 2853,
      "à·Ģà¶±à¶§": 2854,
      "à¶Ĵà¶ļà¶±": 2855,
      "2011": 2856,
      "Ġà¶Ĩà¶ľà¶±": 2857,
      "à¶¨à¶ļ": 2858,
      "Ġà¶Ľà¶«": 2859,
      "Ġ2006": 2860,
      "Ġà·ĥà¶»à¶½à·Ģ": 2861,
      "à¶»à¶«à¶Ń": 2862,
      "ĠÐ": 2863,
      "Ġà¶¸à¶»à¶½": 2864,
      "à·Ŀà¶Ĥ": 2865,
      "2009": 2866,
      "31": 2867,
      "Ġà¶Ĩà¶¸à¶±": 2868,
      "à¶«à·Ħ": 2869,
      "Ġ85": 2870,
      "Ġà·Ģà·ħà¶½": 2871,
      "Ġà¶»à¶Ńà¶±": 2872,
      "Ġà¶ħà¶»à·Ģ": 2873,
      "Ġà¶¸à¶ľà·Ħ": 2874,
      "194": 2875,
      "195": 2876,
      "Ġà¶¸à¶½à¶½": 2877,
      "2013": 2878,
      "Ġà¶¶à¶¹": 2879,
      "Ġà¶Ĩà¶ľ": 2880,
      "Ġà¶¸à¶³": 2881,
      "Ġà·ģà¶Ńà¶ļ": 2882,
      "à¶ºà¶´à¶Ń": 2883,
      "196": 2884,
      "à·Ħà¶Ńà¶»": 2885,
      "à¶°à¶ºà¶ļà¶§": 2886,
      "à¶´à·ĥà¶§": 2887,
      "à¶¯à¶ļà¶½": 2888,
      "Ġà¶±à¶¸à¶§": 2889,
      "à¶§à¶´à¶Ńà¶ļ": 2890,
      "à¶ºà¶¸à¶Ń": 2891,
      "à¶»à¶¸à¶Ń": 2892,
      "à·Ħà¶¬à·Ģ": 2893,
      "à¶»à¶ļà¶®": 2894,
      "Ġà·Ģà¶¢": 2895,
      "à¶ºà¶»à¶Ń": 2896,
      "Ġà¶ľà¶Ńà·Ģà¶±": 2897,
      "à·ģà¶ļà·Ģà¶»à¶º": 2898,
      "à¶°à¶¯": 2899,
      "Ġà¶ħà¶ºà¶º": 2900,
      "Ġà¶ĭà¶´à¶¸": 2901,
      "Ġ77": 2902,
      "Ġà¶´à·Ģà¶»à¶±": 2903,
      "Ġà¶ķà¶ļà¶§": 2904,
      "Ġà¶Ńà¶¹": 2905,
      "Ġ59": 2906,
      "à¶ľà·Ħà¶±": 2907,
      "à¶¸à·Ħà¶¢à¶±": 2908,
      "à·ģà¶¶": 2909,
      "à¶Ńà·Ģà¶½à¶§": 2910,
      "à¶´à¶»à¶«": 2911,
      "Ġà¶ħà¶¸à¶»à¶Ń": 2912,
      "à¶¯à¶»à¶ºà¶ļ": 2913,
      "à·ĥà¶±à¶¸": 2914,
      "à¶Ńà·Ģà¶¸": 2915,
      "Ġà¶Ńà¶»à¶«à¶º": 2916,
      "à¶łà¶±à¶ºà¶§": 2917,
      "à¶Ńà¶»à¶ľà¶º": 2918,
      "Ġà¶ĭà·Ģà¶¯": 2919,
      "Ġà¶īà¶ľà¶±": 2920,
      "à¶»à·ĥà¶»": 2921,
      "à·Ķà·ı": 2922,
      "à¶¯à¶»à¶¯": 2923,
      "Ġ800": 2924,
      "Ġà·Ģà¶½à·Ģ": 2925,
      "Ġà¶ĩà¶Łà¶§": 2926,
      "Ġà¶Ķà¶Ńà¶±": 2927,
      "Ġà¶¸à¶¯à¶ļ": 2928,
      "à¶ºà¶¶à·Ħ": 2929,
      "à¶½à·Ģà¶»": 2930,
      "Ġà·Ģà¶»à¶§à¶Ń": 2931,
      "Ġà·ĥà¶§à¶±à¶§": 2932,
      "à·ĥà¶ļà¶º": 2933,
      "Ġà¶¢à¶ºà¶¸": 2934,
      "Ġà¶´à¶½à·ĥ": 2935,
      "Ġà¶ĳà¶ļà¶±à¶¸": 2936,
      "Ġà·ĥà·Ħà¶ļà¶»": 2937,
      "à¶ºà¶°": 2938,
      "à·Ħà¶Ńà¶¸": 2939,
      "à¶Ńà¶»à¶¯": 2940,
      "Ġ2004": 2941,
      "à¶»à¶¸à¶»à¶Ń": 2942,
      "à¶¸à¶»à¶ºà¶§": 2943,
      "Ġà¶ħà¶Ńà·Ģà¶»": 2944,
      "Ġà¶Ĭà¶»": 2945,
      "Ġà¶ħà¶«à¶¯": 2946,
      "à¶©à·ĥ": 2947,
      "à¶´à¶ľ": 2948,
      "Ġà¶ľà¶«à¶±à¶ļà¶§": 2949,
      "à¶ļà¶¶à¶½": 2950,
      "à¶ľà¶Ńà¶ºà¶±": 2951,
      "Ġà¶ļà¶¸à¶½": 2952,
      "à¶»à¶¸à¶¶": 2953,
      "Ġà¶¸à¶»à¶¯": 2954,
      "à¶ļà¶»à·Ģ": 2955,
      "à·ĥà·Ģà¶±": 2956,
      "Ġà¶Ĵà¶ľ": 2957,
      "à¶±à¶Ł": 2958,
      "Ġà·ĥà·Ħà¶±à¶º": 2959,
      "âĢįà·Ļ": 2960,
      "Ġà¶ħà¶¬à¶±": 2961,
      "35": 2962,
      "à¶ºà¶½à¶±": 2963,
      "à¶ºà¶¹à¶½": 2964,
      "Ġà¶ĳà¶ļà¶Łà¶º": 2965,
      "à¶©à¶±à¶ľà¶±": 2966,
      "Ġà¶´à¶Ńà¶¸": 2967,
      "à¶ºà¶¯à¶¸à¶ļ": 2968,
      "Ġà·ħà¶¯à¶»": 2969,
      "Ġà¶Ĩà¶§": 2970,
      "Ġà¶¯à¶©à¶ºà¶ļ": 2971,
      "Ġà¶®": 2972,
      "Ġ120": 2973,
      "à·ģà¶»": 2974,
      "à¶»à¶±à¶ºà¶ļ": 2975,
      "Ġà¶īà·Ģà·Ħà¶½": 2976,
      "à¶´à¶¶": 2977,
      "Ġà¶ļà¶¢": 2978,
      "à¶ĥ": 2979,
      "à·Ģà¶§à¶¯": 2980,
      "Ġ52": 2981,
      "Ġ68": 2982,
      "Ġà¶½à¶¸": 2983,
      "à¶¯à¶ļà¶¸": 2984,
      "à¶·à·Ģà¶º": 2985,
      "Ġà¶ħà¶»à¶¹à¶±": 2986,
      "à¶ļà·Ģà¶»à¶«à¶º": 2987,
      "à¶Ŀà¶º": 2988,
      "Ġà¶½à¶ľà¶§": 2989,
      "Ġà¶ħà¶Łà¶½": 2990,
      "à¶§à·Ģà¶½": 2991,
      "à·Ĵà·Ļ": 2992,
      "Ġà¶¢à¶±à¶»à¶¢à¶º": 2993,
      "à·Ħà¶©": 2994,
      "à·Ĥà¶¥à¶º": 2995,
      "Ġ51": 2996,
      "à·ĥà¶¢": 2997,
      "à¶©à¶ºà¶§": 2998,
      "Ġà·Ģà·ĥà¶»à¶§": 2999,
      "Ġà¶¸à¶§à¶±à¶¸": 3000,
      "Ġà·ĥà¶¸à¶Łà¶º": 3001,
      "à¶Ńà¶ļà¶¸": 3002,
      "à¶½à·Ģà¶½à¶§": 3003,
      "à¶¸à·Ģà¶Ń": 3004,
      "à¶Ńà¶ºà¶º": 3005,
      "à¶»à¶ľà¶Ńà·Ģ": 3006,
      "Ġà¶īà¶©à¶¯": 3007,
      "à¶±à¶»à¶Ń": 3008,
      "à¶¸à¶ºà¶ļà¶§": 3009,
      "Ġà¶Ńà¶©": 3010,
      "Ġà¶īà·Ħà¶Ńà¶¯": 3011,
      "Ġà¶ļà¶¹": 3012,
      "Ġà·ĥà·ĥà¶»": 3013,
      "Ġà¶½à·Ħ": 3014,
      "à·ĥà¶»à¶±": 3015,
      "Ġà¶ħà¶§à·Ģ": 3016,
      "à¶¶à¶³à·Ģà¶Ń": 3017,
      "44": 3018,
      "Ġà¶ħà·ĥà¶½à¶§": 3019,
      "à¶§à¶ºà¶¸": 3020,
      "à¶±à¶ºà¶¸": 3021,
      "Ġà¶¸à¶Ńà¶ļà¶¯": 3022,
      "Ġà¶¶à¶ºà¶ļ": 3023,
      "Ġà·Ħà¶Ńà¶»à¶ļà¶§": 3024,
      "à¶´à¶ºà¶ļà¶¯": 3025,
      "à¶±à¶§à¶¯": 3026,
      "Ġà¶Ĩà·ĥà¶¸": 3027,
      "à·Ĥà¶ºà¶º": 3028,
      "Ġà¶Īà¶Ńà¶§": 3029,
      "Ġà¶īà·Ģà·ĥà¶±": 3030,
      "Ġà¶īà¶³à¶½à¶¸": 3031,
      "Ġà¶±à¶»à¶¹": 3032,
      "36": 3033,
      "ãģ": 3034,
      "Ġà¶¸à·Ħà¶¶": 3035,
      "à¶¸à¶§à·Ģà¶Ń": 3036,
      "à¶¢à¶¶": 3037,
      "à¶»à·Ģà¶¸": 3038,
      "à¶ħà¶¯à¶§à¶Ń": 3039,
      "Ġà¶ľà¶¶": 3040,
      "Ġà¶ĳà¶±à¶ļà¶¸": 3041,
      "à¶ºà¶ļà¶»à¶«à¶º": 3042,
      "à¶ĭà·ĥ": 3043,
      "Ġà·ĥà¶¶à¶¯": 3044,
      "à¶ºà¶§à¶¯": 3045,
      "Ġà¶ĳà¶ºà¶Ń": 3046,
      "Ġà·Ħà¶´à¶±": 3047,
      "à¶ļà¶©à·Ģ": 3048,
      "à¶¶à·Ħà¶ļ": 3049,
      "Ġà¶Ĭà¶½à¶ľ": 3050,
      "Ġ247": 3051,
      "Ġà¶»à¶¯": 3052,
      "à¶ļà¶½à¶º": 3053,
      "à·Ģà¶½à¶º": 3054,
      "Ġà¶ļà¶¯à·Ģ": 3055,
      "à¶½à¶ļà¶»à¶Ń": 3056,
      "Ġ69": 3057,
      "à·ĥà¶ļà¶»": 3058,
      "Ġà¶¯à·Ħà¶¸à¶§": 3059,
      "à¶Ńà¶·": 3060,
      "à¶©à¶ºà¶±": 3061,
      "Ġà¶ħà¶±à¶ľ": 3062,
      "à·Ģà¶±à¶¯": 3063,
      "à¶¶à¶³à·Ģà¶º": 3064,
      "Ġà·ĥà¶ľà¶º": 3065,
      "à·Ĭà·Ļ": 3066,
      "Ġà¶ľà¶½à·Ģà¶½": 3067,
      "à·ģà¶½": 3068,
      "à¶¸à¶§à¶±à¶¸": 3069,
      "Ġ62": 3070,
      "à·Ĥà¶±à¶½": 3071,
      "à¶ĩà·Ģ": 3072,
      "Ġà¶ķà¶½": 3073,
      "à¶»à¶´à¶§à¶ºà¶§": 3074,
      "à·ĥà¶ļà¶¸": 3075,
      "Ġà¶ľà¶«à¶º": 3076,
      "Ġ3000": 3077,
      "à¶»à¶ļà¶ºà¶ļ": 3078,
      "à¶Ĭà¶§à¶Ń": 3079,
      "à¶¸à¶»à¶±": 3080,
      "Ġà¶¸à¶Ńà¶ļà¶ºà¶§": 3081,
      "à¶łà·ĥ": 3082,
      "Ġà¶ĳà¶¶à¶³": 3083,
      "39": 3084,
      "à¶¸à¶±à·ĥ": 3085,
      "à¶¸à¶±à¶§à¶¸": 3086,
      "Ġà¶ľà¶½à¶ļ": 3087,
      "Ġ67": 3088,
      "à¶±à·Ħà¶¸": 3089,
      "à¶»à¶¸à·Ģà¶Ń": 3090,
      "37": 3091,
      "à¶½à¶¯à¶ļ": 3092,
      "Ġà¶ĳà·ĥà·Ģ": 3093,
      "Ġà¶īà·Ħà¶½à¶§": 3094,
      "à¶·à·ĥ": 3095,
      "Ġà¶ĳà¶ļà·Ħà¶¸": 3096,
      "à·ģà¶ºà¶ļà¶§": 3097,
      "à¶»à¶«à·Ģ": 3098,
      "Ġà¶ħà¶½à·Ģ": 3099,
      "Ġà¶ħà¶¸à¶»": 3100,
      "à¶¯à¶¶": 3101,
      "à¶ļà¶½à¶§": 3102,
      "à¶½à¶¸à¶º": 3103,
      "Ġà¶´à¶Ńà¶ļ": 3104,
      "Ġà¶ĩà¶³à¶½": 3105,
      "Ġà¶¸à¶Ńà¶·": 3106,
      "Ġà¶ĳà¶ļà¶ľ": 3107,
      "Ġâ": 3108,
      "à¶¯à·Ħà·ĥà¶§": 3109,
      "Ġà·ĥà¶¶à¶¯à¶Ń": 3110,
      "Ġà¶¸à·ĥà¶ļà¶§": 3111,
      "Ġà¶ħà¶¸à¶»à¶¯": 3112,
      "Ġà¶´à¶±à·Ģà¶±": 3113,
      "Ġà¶¸à¶§à¶¸": 3114,
      "Ġà¶Ĭà·ħà¶Łà¶§": 3115,
      "Ġà¶¤": 3116,
      "à¶©à¶±à¶ºà¶§": 3117,
      "à¶©à¶±à¶ºà¶ļ": 3118,
      "Ġà¶¯à¶»à¶¸": 3119,
      "à¶¥à¶ºà¶ļ": 3120,
      "à·Ģà¶½à¶§à¶Ń": 3121,
      "Ġ2500": 3122,
      "à¶Ńà¶»à¶½": 3123,
      "2008": 3124,
      "Ġà¶Ńà¶»à¶ľà¶ļ": 3125,
      "Ġà¶ħà¶Ńà¶ļà¶§": 3126,
      "Ġà·Ħà¶¸à¶±": 3127,
      "ĻĤ": 3128,
      "à¶³à¶¯": 3129,
      "à·ĥà¶½à¶º": 3130,
      "à¶¢à¶±à¶¸": 3131,
      "à¶±à¶¸à¶¸": 3132,
      "à·Ħà¶³": 3133,
      "à¶ºà·Ģà¶½à¶§": 3134,
      "Ġà¶ħà¶¯à·Ħà·ĥà¶§": 3135,
      "à·Ķà·Ķ": 3136,
      "Ġà¶´à¶±à¶Ńà¶§": 3137,
      "à·Ģà¶łà¶±à¶º": 3138,
      "à·ĥà¶ºà¶º": 3139,
      "Ġà¶Ĭà·ħ": 3140,
      "Ġà¶Ĩà¶ºà¶Ńà¶±à·Ģà¶½à¶§": 3141,
      "à·ģà¶¯": 3142,
      "à¶Łà¶ºà¶ļ": 3143,
      "Ġà¶Ĵà¶ļà¶ļà¶ºà¶ļ": 3144,
      "Ġà¶ħà¶¯à¶º": 3145,
      "à¶ļà·Ħà¶¸": 3146,
      "à¶¢à¶±à¶±": 3147,
      "Ġà¶ļà¶»à·ħ": 3148,
      "Ġà¶»à¶¢à¶»à¶§": 3149,
      "à·ģà¶ļà¶ºà¶±": 3150,
      "à¶ļà¶ºà¶¸": 3151,
      "à¶¥à·Ģà¶»à¶º": 3152,
      "Ġà¶ħà¶ľà¶Ń": 3153,
      "à¶®à¶ļà¶º": 3154,
      "Ġà¶´à¶»à¶Ńà¶»à¶º": 3155,
      "Ġà¶Ĵà·Ģà¶Ń": 3156,
      "à¶°à¶ļà¶¸": 3157,
      "à¶´à·Ģà¶½": 3158,
      "Ġà¶ļà¶§à¶§": 3159,
      "à¶ºà¶ºà¶±à¶ºà¶ļ": 3160,
      "à·Ļà·ĬâĢį": 3161,
      "à¶»à¶ľà·Ħ": 3162,
      "à¶ºà·Ħà¶´à¶Ń": 3163,
      "à¶Ńà¶«": 3164,
      "Ġà¶ľà¶ľ": 3165,
      "Ġ1989": 3166,
      "à¶īà¶ľ": 3167,
      "à¶ĭà¶«": 3168,
      "Ġ88": 3169,
      "à¶´à¶§à¶º": 3170,
      "à¶¸à¶»à¶«à¶º": 3171,
      "Ġ1990": 3172,
      "Ġà¶¢à¶ºà¶ľà¶±": 3173,
      "à¶ºà·ĥà¶±": 3174,
      "à¶»à·Ħà¶±à¶º": 3175,
      "à¶ħà¶¯à¶Ń": 3176,
      "Ġà¶ħà¶·à¶º": 3177,
      "Ġà¶ħà·Ħà¶ľà¶±": 3178,
      "à¶ºà¶¯à¶»": 3179,
      "Ġà¶¸à·Ģà¶§": 3180,
      "Ġà·ĥà¶ļà·ĥà¶±": 3181,
      "38": 3182,
      "Ġà¶¢à¶½à¶¢": 3183,
      "à¶ĳà·Ģà¶ļà¶§": 3184,
      "Ġà¶¸à·Ħà¶«": 3185,
      "à¶Ķà¶½": 3186,
      "Ġà¶ºà·Ħà·ħ": 3187,
      "Ġà¶¶à¶½à¶ľà¶Ń": 3188,
      "à¶ħà¶¢": 3189,
      "Ġà¶¸à·Ģà¶±": 3190,
      "Ð°": 3191,
      "à¶´à·ģ": 3192,
      "Ġà¶ľà¶½à¶ľ": 3193,
      "à¶¢à¶Ń": 3194,
      "à¶īà¶¸": 3195,
      "Ġà·ĥà¶½à·ĥà¶±": 3196,
      "à¶Ńà¶±à¶¸": 3197,
      "ĠðŁĺĢ": 3198,
      "à¶®à¶ºà¶±": 3199,
      "Ġà¶´à¶®à¶º": 3200,
      "à·Ĥà¶ºà¶ºà¶±": 3201,
      "à·ģà¶ļà¶ºà¶ļ": 3202,
      "à·Ĥà¶«à¶ºà¶ļà¶§": 3203,
      "à·ģà¶ľà¶Ń": 3204,
      "34": 3205,
      "Ġà·Ħà¶Ńà¶½": 3206,
      "à¶»à¶łà¶±": 3207,
      "à¶©à¶»à¶º": 3208,
      "Ġ72": 3209,
      "Ġà¶´à¶§à¶½": 3210,
      "Ġà¶¶à·ħà¶½": 3211,
      "Ġà¶ĳà¶ļà¶Łà·Ģ": 3212,
      "à¶°à·ĥ": 3213,
      "Ġà·Ħà¶§à¶ľà¶±": 3214,
      "à¶´à¶½à¶º": 3215,
      "Ġà¶ħà¶Ńà¶ľ": 3216,
      "à¶ºà¶Ńà¶±": 3217,
      "Ġà¶¶à¶ºà·Ģ": 3218,
      "à¶¯à¶»à¶±": 3219,
      "à·Ģà¶¸à¶º": 3220,
      "à¶ļà¶¸à¶Ń": 3221,
      "Ġ700": 3222,
      "Ġà¶·à¶§à¶º": 3223,
      "à¶»à¶ľà¶¸": 3224,
      "Ġà¶łà¶½à¶±à¶º": 3225,
      "à¶ĭà¶ľ": 3226,
      "à¶»à·Ħà¶«à¶ºà¶§": 3227,
      "à·ĥà¶¸à¶º": 3228,
      "à¶©à·Ģà¶½à¶§": 3229,
      "Ġà¶ħà¶Ńà¶»à·Ģ": 3230,
      "Ġà¶ľà¶½à¶±": 3231,
      "100": 3232,
      "Ġà¶·à¶§à¶ºà¶±": 3233,
      "Ġà¶¸à·Ħà¶ļ": 3234,
      "à¶±à¶Ńà¶»à¶¸": 3235,
      "à·ļà·ĬâĢį": 3236,
      "Ġà¶´à¶³": 3237,
      "Ġà¶¢à¶±à¶ľà·Ħ": 3238,
      "à¶±à¶Ľ": 3239,
      "Ġà¶ĩà¶»à¶º": 3240,
      "Ġà·Ģà¶»à¶¯à¶§": 3241,
      "à·Ĥà¶±à¶ºà¶ļ": 3242,
      "à¶¨à¶ļà¶ºà¶±": 3243,
      "à¶¸à¶¸à¶º": 3244,
      "Ġà¶´à¶±à¶Ńà¶ļ": 3245,
      "à¶¯à¶±à·Ģ": 3246,
      "Ġ1500": 3247,
      "Ġà¶°à·Ģà¶½": 3248,
      "Ġà¶ļà¶½à¶¶": 3249,
      "à·ĥà¶»à·Ģ": 3250,
      "à¶ºà·Ħà¶¸": 3251,
      "Ġà·ĥà¶³à¶»": 3252,
      "à¶¶à¶³à·Ģà¶¯": 3253,
      "Ġà¶´à·ħà¶ļà¶»": 3254,
      "à¶´à¶½à¶ºà¶ļ": 3255,
      "Ġà¶Ĩà¶´à¶±": 3256,
      "Ġà¶ħà¶ºà¶±": 3257,
      "Ġà·ģà¶Ńà¶ļà¶º": 3258,
      "Ġà¶Ķà¶©": 3259,
      "Ġà¶§à¶»": 3260,
      "Ġà·Ĩà¶±": 3261,
      "Ġà¶Ńà¶¯à¶¶à¶¯": 3262,
      "Ġà¶´à·ħà¶´": 3263,
      "à¶Ĭà¶½à¶Ł": 3264,
      "à¶§à·ĥà¶§": 3265,
      "à¶¢à¶ºà¶¯": 3266,
      "Ġà¶ļà¶©à¶ºà¶ļ": 3267,
      "Ġ78": 3268,
      "à¶Ĩà¶»à¶¸": 3269,
      "à¶±à¶ºà¶¯": 3270,
      "à¶»à¶ļà¶Ń": 3271,
      "Ġà¶¶à¶½à¶´à¶±": 3272,
      "à¶ļà·Ħ": 3273,
      "à·Ĥà¶ļà·Ģà¶»": 3274,
      "Ġà¶ĳà¶±à¶Ń": 3275,
      "Ġà¶ĳà¶ļà·Ģ": 3276,
      "Ġà¶ĭà¶´à¶ļà¶»à¶«à¶ºà¶ļ": 3277,
      "à·Ĥà¶«à·Ģà¶½à¶¯": 3278,
      "à¶ľà¶ºà¶º": 3279,
      "à¶¶à¶´": 3280,
      "à¶Ńà·ĥ": 3281,
      "Ġ2001": 3282,
      "Ġà¶ħà¶Ńà¶´à·ĥ": 3283,
      "Ġà¶ħà¶©à¶±": 3284,
      "Ġà¶ħà¶©à¶ļ": 3285,
      "Ġà¶±à¶»à¶ļà¶º": 3286,
      "Ġà¶Ķà¶ºà¶Ń": 3287,
      "Ġ71": 3288,
      "à·ļà·Ĭ": 3289,
      "Ġà¶ĳà·Ģà¶ļ": 3290,
      "Ð¾": 3291,
      "à·ħà¶³à·ĥ": 3292,
      "Ġà¶ķà¶º": 3293,
      "à·ħà·Ģà¶½": 3294,
      "à·Ĥà¶ļà¶ºà¶ļ": 3295,
      "à¶ľà¶Ńà¶ºà¶§": 3296,
      "à¶ļà¶»à¶¯": 3297,
      "Ġà¶Ĩà¶ľà¶¸à¶±": 3298,
      "à¶ļà·ħà·Ħ": 3299,
      "à¶ľà·ģ": 3300,
      "à¶¯à¶ļà¶ºà¶±": 3301,
      "à¶ļà¶½à¶ļ": 3302,
      "à¶Įà·Ģ": 3303,
      "à¶Ńà¶±à¶Ń": 3304,
      "à¶¯à¶¸à¶±": 3305,
      "Ġà¶½à¶ºà¶±": 3306,
      "Ġà·Ĩà¶»": 3307,
      "Ġà¶¯à¶¸à¶º": 3308,
      "Ġà·ĥà¶¸à¶±à¶º": 3309,
      "à¶»à¶¸à¶¯": 3310,
      "Ġà¶ĭà¶»à·Ħ": 3311,
      "à·Ģà¶ºà¶¯": 3312,
      "Ġà¶½à¶ľà¶¯": 3313,
      "Ġà¶¯à·Ħà·ĥà¶ļà¶§": 3314,
      "Ġà¶ħà·Ģà¶ºà·Ģ": 3315,
      "à¶»à¶¥à¶´": 3316,
      "Ġà¶ĳà¶¸à¶Ł": 3317,
      "Ġà¶ľà¶½à·Ģà¶±": 3318,
      "45": 3319,
      "Ġà¶»à¶¯à·Ģ": 3320,
      "Ġà¶´à¶»à¶±": 3321,
      "à·ħà¶¹à·Ģ": 3322,
      "Ġà¶¯à·ĥà¶±": 3323,
      "à¶¹à¶§": 3324,
      "Ġà¶¢à·Ģà¶±": 3325,
      "à¤": 3326,
      "77": 3327,
      "Ġà·Ħà¶¶": 3328,
      "à·Ģà¶łà¶±": 3329,
      "Ġà¶»à·Ħà¶Ń": 3330,
      "à¶½à·Ģà¶ļ": 3331,
      "à·ģà·Ģà¶ºà¶±": 3332,
      "Ġà¶ļà¶»à¶§": 3333,
      "à¶´à¶±à¶Ń": 3334,
      "à¶ºà·Ģà¶ľ": 3335,
      "Ġà¶ħà¶´à·Ģà¶Ń": 3336,
      "Ġà¶ļà¶´à¶§": 3337,
      "Ġà¶»à·Ħà¶Ńà¶±": 3338,
      "à¶³à¶±": 3339,
      "à¶ĭà¶´à¶Ń": 3340,
      "Ġà¶ħà·Ģà·ĥà¶»à¶ºà¶ļ": 3341,
      "à·ĥà·Ħà¶ľà¶Ń": 3342,
      "Ġà¶Ńà·Ħà¶©": 3343,
      "Ġà·Ģà¶ºà¶»": 3344,
      "à¶ºà·Ģà¶¸": 3345,
      "à·Ĭà·Ĭ": 3346,
      "à¶ľà¶±à¶ºà¶§": 3347,
      "Ġà¶»à¶®à¶ºà¶§": 3348,
      "à¶»à·Ĥ": 3349,
      "ĠðŁĻĤ": 3350,
      "à·Ĥà¶Ńà¶¸": 3351,
      "Ġà¶ĭà¶¹à·Ģ": 3352,
      "32": 3353,
      "Ġà·Ģà·ĥà¶º": 3354,
      "Ġà·Ģà·Ħà¶ľ": 3355,
      "Ġ2002": 3356,
      "Ġà·Ħà·ĥà¶±": 3357,
      "à¶»à·Ħà¶ºà¶±": 3358,
      "Ġà¶ŀ": 3359,
      "Ġà¶ļà¶»à·Ģà¶½": 3360,
      "Ġ2003": 3361,
      "Ġà¶ħà¶±à¶»": 3362,
      "Ġà¶´à·ħà¶ļ": 3363,
      "ķĶ": 3364,
      "Ġà¶ļà¶©à¶ļ": 3365,
      "Ġà¶ºà¶±à·Ģà¶¯": 3366,
      "Ġà¶¯à·ģ": 3367,
      "Ġà¶ļà¶½à¶¸à¶±": 3368,
      "à¶ºà¶ļà·Ģà¶»": 3369,
      "à¶Ńà¶ºà¶ľ": 3370,
      "Ġà¶±à¶¶": 3371,
      "Ġà¶ĳà·Ģà¶½": 3372,
      "à¶ħà¶§": 3373,
      "à¶»à¶ºà¶§à¶¸": 3374,
      "à¶īà¶©à¶¸": 3375,
      "à·ĥà¶»à¶¯": 3376,
      "ĠïķĶ": 3377,
      "Ġà¶ľà¶³": 3378,
      "à¶½à¶¥à¶º": 3379,
      "Ġà¶ħà¶»à¶ľà¶±": 3380,
      "Ġà·ĥà¶»à¶¸": 3381,
      "Ġà¶ºà·Ģà¶½": 3382,
      "Ġà·Ģà¶±à¶º": 3383,
      "Ġà¶Ńà¶»à¶Łà¶ºà¶ļ": 3384,
      "Ġà·Ħà·Ģà·ĥà¶§": 3385,
      "Ġà¶ļà¶½à·Ģ": 3386,
      "à·Ģà¶½à¶ļ": 3387,
      "Ġà¶¸à¶Ńà¶ºà¶§": 3388,
      "à¶·à¶¯": 3389,
      "Ġ76": 3390,
      "à¶Ľà¶ļ": 3391,
      "à¶ºà¶ļà¶¸": 3392,
      "à¶½à¶ľà¶Ń": 3393,
      "Ġà¶Ĵà·Ģà¶º": 3394,
      "Ġ1980": 3395,
      "Ġ1994": 3396,
      "Ġà¶īà·Ħà¶½à¶¸": 3397,
      "à¶ħà¶Ł": 3398,
      "Ġà¶ľà·ĥà¶¸": 3399,
      "à¶»à¶ºà¶¯": 3400,
      "Ġà·ģà·Ĥ": 3401,
      "Ġà¶»à¶§à¶Ń": 3402,
      "Ðµ": 3403,
      "à¶¢à¶½à¶º": 3404,
      "à¶¤à¶º": 3405,
      "Ġà¶Ķà¶ºà¶ľ": 3406,
      "Ġà¶´à¶±à·Ħà¶ļ": 3407,
      "Ġà¶ħà·Ĥ": 3408,
      "à¶ºà¶½à·Ģà¶Ń": 3409,
      "Ġà¶ħà·ĥà¶·": 3410,
      "Ġà¶ĩà¶¬": 3411,
      "Ġà¶©à¶¶à¶½": 3412,
      "Ġà¶ħà¶±à·Ģà·ĥà¶»": 3413,
      "Ġà¶ħà¶´à¶ł": 3414,
      "à¶Ńà¶¸à¶§": 3415,
      "à¶»à¶ľà¶½": 3416,
      "Ġà¶ĩà·ĥà¶§": 3417,
      "à¶ĳà¶¸à¶±": 3418,
      "ĠâĢĽ": 3419,
      "Ġà¶ĳà¶±à¶ļà¶±": 3420,
      "à¶īà¶³": 3421,
      "à¯į": 3422,
      "à¶§à¶¸à¶ļà¶§": 3423,
      "à¶»à·Ħà·ĥà¶ļ": 3424,
      "Ġà¶ļà¶½à¶¯": 3425,
      "Ġ94": 3426,
      "Ġà¶Ĩà¶»à¶ł": 3427,
      "90": 3428,
      "Ġà¶½à¶¢": 3429,
      "à¶ħà¶¶": 3430,
      "à·ĥà¶»à¶½": 3431,
      "Ġà¶ĭà¶¶à¶§": 3432,
      "à¶īà·Ģà·ĥ": 3433,
      "Ġà¶ļà¶½à¶§": 3434,
      "Ġà¶Ńà·Ħà¶±à¶¸à¶ļ": 3435,
      "Ġà¶´à·Ħà¶¯": 3436,
      "à¶ľà¶¸à¶ºà¶§": 3437,
      "Ġà¶ħà¶¯à·Ħ": 3438,
      "à¶»à¶¸à¶§": 3439,
      "à¶«à·Ģà¶½": 3440,
      "Ġà¶¸à¶ļà¶»": 3441,
      "à¶¯à¶ºà¶º": 3442,
      "Ġà¶ļà¶§à¶ļ": 3443,
      "Ġà¶ľà¶½à¶´": 3444,
      "à¶±à¶»à¶º": 3445,
      "à¶ĳà¶ļà¶Ń": 3446,
      "à¶»à¶ľà·Ħà¶ļà¶±": 3447,
      "Ġà¶¸à¶±à·ĥà¶ļ": 3448,
      "Ġà¶Ĩà¶ľà¶¸à¶§": 3449,
      "Ġà·ĥà¶¸à¶¶": 3450,
      "Ġ180": 3451,
      "à¶½à¶³à¶´": 3452,
      "Ġà¶Ĵà¶ļà¶»": 3453,
      "Ġà¶±à¶¸à·ĥ": 3454,
      "à¶¯à¶»à¶ºà¶±": 3455,
      "Ġ74": 3456,
      "à·Ģà¶±à¶ºà¶§": 3457,
      "Ġà¶±à·Ģà¶º": 3458,
      "à¶©à¶ľà¶¸": 3459,
      "à¶©à¶ħà¶Ń": 3460,
      "à¶§à¶ºà¶±": 3461,
      "2005": 3462,
      "à·ıà·Ĭ": 3463,
      "à¶Ŀà¶«à¶º": 3464,
      "à¶»à¶°à¶»": 3465,
      "Ġà·ĥà¶»à·ħ": 3466,
      "Ġà¶¯à¶»à¶º": 3467,
      "Ġ350": 3468,
      "à·Ĥà¶¥à¶ºà¶±": 3469,
      "Ð¸": 3470,
      "Ġà¶§à¶ºà¶»": 3471,
      "Ġà·ĥà·Ħà¶¸": 3472,
      "à¶īà·Ħà·ħ": 3473,
      "Ġ1970": 3474,
      "à¶±à¶Ľà¶º": 3475,
      "Ġà¶ºà·Ģà¶±à·Ģ": 3476,
      "Ġà¶ĳà¶ľ": 3477,
      "Ġà¶»à·Ħà¶ļ": 3478,
      "à·Ģà¶¶": 3479,
      "Ġà¶Ńà¶´": 3480,
      "Ġà¶¸à¶³à¶ļ": 3481,
      "à·Ĥà¶«à·Ģà¶½à¶§": 3482,
      "Ġà¶´à¶§à¶½à·Ģ": 3483,
      "Ġà¶ħà¶§à¶¸": 3484,
      "à¶°à¶±à¶ºà¶±": 3485,
      "Ġà¶ħà¶Ńà¶»à¶¸à¶ľ": 3486,
      "à¶±à·Ģà¶ļ": 3487,
      "Ġà¶ħà¶ºà¶»": 3488,
      "Ġ190": 3489,
      "Ġà¶ħà·ĥà¶½à¶¯": 3490,
      "à¶ºà¶½à¶½": 3491,
      "âĢ²": 3492,
      "à¶·à¶»à¶«": 3493,
      "à¶ħà¶¯à·Ħà·ĥ": 3494,
      "Ġà·Ħà¶»à¶º": 3495,
      "à¶±à¶ļà¶º": 3496,
      "à¶®à·Ģà¶Ń": 3497,
      "Ġ86": 3498,
      "99": 3499,
      "Ġà·Ģà¶±à·ĥ": 3500,
      "âĸ": 3501,
      "à¶»à¶ļà¶¸à¶ļ": 3502,
      "à¶ļà¶Ńà¶±": 3503,
      "à¶½à¶ºà¶ļà¶¯": 3504,
      "à¶´à¶´": 3505,
      "Ġà¶Ńà¶±à¶±": 3506,
      "Ġà¶ħà¶Ńà¶½": 3507,
      "Ġà¶´à¶Ńà¶»": 3508,
      "à¶»à¶´à¶±": 3509,
      "Ġà¶¸à¶ľà¶´": 3510,
      "à·ĥà¶»à·ĥà·Ģ": 3511,
      "à·Ħà¶¶": 3512,
      "Ġà¶ľà¶Ńà¶ļà¶»": 3513,
      "à¶¯à¶½à¶ļà¶§": 3514,
      "Ġ96": 3515,
      "à·Ħà¶±à¶ºà¶§": 3516,
      "à¶»à·Ģà¶±à¶Ń": 3517,
      "à¶Ńà·Ģà¶º": 3518,
      "à¶Ĩà·Ģ": 3519,
      "à¶ºà¶¸à¶±à¶ļ": 3520,
      "à¶¶à¶¯à¶º": 3521,
      "à¶ļà·Ģà¶½à¶§": 3522,
      "à¶¬à¶½": 3523,
      "Ġ87": 3524,
      "Ġà¶¹": 3525,
      "Ġà¶ºà·Ħà¶´à¶Ńà¶ļ": 3526,
      "Ġà¶ļà·ħà¶ļ": 3527,
      "à¶Ńà¶»à¶ļà¶»": 3528,
      "à¶Ĩà¶´à¶¯": 3529,
      "à·ĥà¶¢à¶±à¶ļ": 3530,
      "Ġ1977": 3531,
      "à·ĥà¶½à¶ļà¶§": 3532,
      "Ġà¶Ĵà¶©": 3533,
      "Ġà¶ĳà¶½à·Ģ": 3534,
      "Ġà¶ĩà¶³à¶±": 3535,
      "à·ĥà·Ģà¶ºà¶ļà¶¯": 3536,
      "Ġà¶»à·ĥà¶ļ": 3537,
      "à·Ģà¶½à·Ģ": 3538,
      "à¶´à¶ľà¶Ń": 3539,
      "à¶ļà¶±à¶¸": 3540,
      "Ġà¶±à·Ģà¶ºà¶ļ": 3541,
      "à·ģà¶ºà¶º": 3542,
      "Ġà·ħà¶Łà¶¸": 3543,
      "à¶°à·Ģà¶½": 3544,
      "Ġà·Ģà·ģ": 3545,
      "à¶¯à·ģà¶ļ": 3546,
      "Ġà·ģà¶Ńà·Ģà¶»": 3547,
      "Ġà¶»à¶ľà¶´": 3548,
      "Ġà·Ģà¶§à¶ºà¶§": 3549,
      "Ġ98": 3550,
      "Ġà¶©à¶½à·ĥ": 3551,
      "Ġà¶ļà¶©à¶º": 3552,
      "Ġà¶ķà¶¸": 3553,
      "à¶½à¶»à¶º": 3554,
      "Ġà¶Ĩà·Ģà¶»à¶«": 3555,
      "à¶·à¶¸": 3556,
      "Ġà¶Ńà¶»à·Ħà¶ļ": 3557,
      "Ġà¶¸à¶Ńà¶ºà¶º": 3558,
      "Ġ97": 3559,
      "Ġà·ĥà¶´à¶ºà¶º": 3560,
      "à¶·à·Ģà¶ºà¶ļ": 3561,
      "Ġà¶ĭà¶´à¶ļà¶»à¶«à¶º": 3562,
      "Ġà¶ļà¶½à¶´": 3563,
      "à¶§à¶ľà¶Ń": 3564,
      "à¶»à¶¯à¶¬": 3565,
      "à·Ģà·ĥà¶»à¶ļ": 3566,
      "à¶»à·ģà·ĥ": 3567,
      "Ġà¶ļà·Ģà¶¯à¶Ń": 3568,
      "à¶ľà¶«à¶ļà¶ºà¶ļ": 3569,
      "à¶ĩà·Ħ": 3570,
      "Ġà¶±à¶§à¶¶": 3571,
      "48": 3572,
      "Ø§": 3573,
      "à¶ĩà¶³": 3574,
      "Ġà¶ºà·Ħà¶¸": 3575,
      "Ġà·ĥà·Ħà¶ºà¶ļ": 3576,
      "à¶±à·ĥà¶ļà¶§": 3577,
      "à·ĥà¶±à¶ºà¶§": 3578,
      "Ġà¶»à·ģ": 3579,
      "Ġà¶ħà¶Ńà¶´à¶Ń": 3580,
      "Ġà¶Ķà¶¶à¶±": 3581,
      "Ġà¶¶à¶¹à¶»": 3582,
      "Ġà¶¢à¶±à¶±à¶º": 3583,
      "Ġà·ĥà¶¶à¶±": 3584,
      "Ġà¶ķà¶´à¶±": 3585,
      "Ġà¶¯à·Ħà¶Ń": 3586,
      "Ġà¶ľà·Ģà¶º": 3587,
      "à·ĥà¶ľà¶Ń": 3588,
      "à¶¶à¶»à¶ºà¶ļ": 3589,
      "Ġà¶īà¶´à¶º": 3590,
      "Ġà¶Ńà¶¯à¶¶à¶¯à¶º": 3591,
      "à·ĥà¶±à¶ļ": 3592,
      "Ġà¶ļà¶»à¶´à¶±": 3593,
      "à¶Ńà¶»à¶§": 3594,
      "à¶¯à¶¸à¶º": 3595,
      "à¶±à¶ºà¶ļà¶¯": 3596,
      "à¶Ńà¶§à¶Ń": 3597,
      "à¶¯à¶©": 3598,
      "Ġà¶§à¶ļ": 3599,
      "Ġà¶ľà¶Ńà¶ļà¶»à¶±": 3600,
      "à·Ħà¶§à¶º": 3601,
      "Ġà·Ħà¶Ńà¶»à·Ģà¶±": 3602,
      "Ġ125": 3603,
      "Ġà¶łà¶«": 3604,
      "Ġà¶¸à¶ľà¶ļ": 3605,
      "ĠâĢįà·Ļ": 3606,
      "Ġà¶ĭà¶¶à¶½": 3607,
      "Ġà¶ļà¶¶à¶½": 3608,
      "Ġà¶´à·ħà¶ļà¶»à¶±": 3609,
      "à¶»à¶´à¶Ń": 3610,
      "à¶Ńà¶»à·Ģà¶½": 3611,
      "Ġà¶Ĩà¶¯à¶»à·Ģà¶±": 3612,
      "à¶´à¶½à¶¸": 3613,
      "à¶¢à¶ºà·Ģà¶»": 3614,
      "Ġ79": 3615,
      "Ġà¶¸à¶±à·ĥà¶§": 3616,
      "Ġà¶ľà·Ħà¶ľà¶±": 3617,
      "à¶Īà¶Ń": 3618,
      "à¶Ńà·Ģà¶±": 3619,
      "Ġà·Ģà¶§à¶»à·Ģ": 3620,
      "à¶§à¶±à¶¸": 3621,
      "âĢįà·Ĭ": 3622,
      "Ġà¶ĩà¶»à¶ľ": 3623,
      "Ġà¶Ĩà¶½à¶º": 3624,
      "à¶Ĩà¶´à·Ħ": 3625,
      "Ġà¶ļà¶»à¶±à·Ģà¶§": 3626,
      "à¶ħà·Ħà·ĥ": 3627,
      "Ġà¶°à¶¢à¶º": 3628,
      "à¶§à¶Ńà¶¸": 3629,
      "Ġà·ĥà¶ľà¶ºà¶±": 3630,
      "à¶±à·Ģà·ĥ": 3631,
      "à¶ľà¶¸à¶ļà¶§": 3632,
      "Ġ63": 3633,
      "à¶»à·Ħà¶±": 3634,
      "à¶ĳà¶Ńà¶±à¶¯": 3635,
      "56": 3636,
      "Ġà¶ļà¶»à¶½à¶Ń": 3637,
      "Ġà¶ļà¶±à·ĥ": 3638,
      "à¶¢à¶ºà¶¶": 3639,
      "Ġ011": 3640,
      "à·Ĥà·Ģà¶½à¶§": 3641,
      "Ġà¶ħà¶ľà¶½": 3642,
      "Ġà¶±à·Ģà¶¯": 3643,
      "à¶¢à¶ºà¶ļà¶½": 3644,
      "Ġà¶ħà¶»à¶ľà¶½à¶ºà¶§": 3645,
      "à¶ºà¶ļà·Ģ": 3646,
      "Ġà·ģà¶±": 3647,
      "Ġà¶ºà¶§à¶§": 3648,
      "Ġà¶ĩà¶Łà¶½": 3649,
      "âĢ³": 3650,
      "Ġà¶ĳà·ħà·Ģà¶½": 3651,
      "à¶ħà·ģ": 3652,
      "Ġà¶¸à·Ħà¶ľ": 3653,
      "Ġà¶ĩà¶¹à¶»": 3654,
      "à·Ģà¶Ńà¶º": 3655,
      "à·ģà¶ºà¶Ń": 3656,
      "à¶»à·ħà¶§": 3657,
      "Ġ84": 3658,
      "Ġà¶ħà·Ģà¶»": 3659,
      "Ġà·Ģà¶ľà¶¶à¶½": 3660,
      "Ġà¶¯à¶Łà¶½à¶±": 3661,
      "Ġà·Ģà¶¯à¶ºà¶ļ": 3662,
      "Ġà·Ģà¶ľà¶ĭà¶Ń": 3663,
      "Ġà¶ľà¶¯": 3664,
      "à¶ĭà¶¸": 3665,
      "Ġà¶ĳà¶±à¶ļà¶½": 3666,
      "à¶°à¶±à·Ģ": 3667,
      "Ġ92": 3668,
      "à¶©à¶±à¶Ł": 3669,
      "à¶»à¶»à¶Ń": 3670,
      "à¶ĳà¶´": 3671,
      "Ġ1987": 3672,
      "Ġà¶¯à¶¹à¶¯": 3673,
      "à·Ĩà·ĥ": 3674,
      "Ġà¶īà·Ģà¶»à¶ºà¶ļ": 3675,
      "à¶¸à·Ħà·Ģ": 3676,
      "Ġà¶ĭà·ĥà¶§": 3677,
      "à¶´à¶Ńà¶±": 3678,
      "à¶łà¶»à¶¸": 3679,
      "Ġà¶ĩà·Ģà¶±": 3680,
      "à¶Ľà¶Ńà¶¸": 3681,
      "Ġà·Ħà¶¯à·Ģà¶Ńà¶§": 3682,
      "Ġà·Ħà¶»à·Ģà¶±": 3683,
      "à¶ºà¶Ńà¶½": 3684,
      "Ġà¶ºà¶±à¶Ń": 3685,
      "Ġà¶łà¶¸à¶Ń": 3686,
      "Ġà¶»à¶Łà·Ħà¶½": 3687,
      "Ġà¶¢à¶ºà¶½à¶Ń": 3688,
      "à¶´à¶ºà¶º": 3689,
      "à·ļâĢį": 3690,
      "à¶ºà¶±à·Ģà¶§": 3691,
      "Ġà·ĥà·Ħà¶ľà¶Ńà·Ģ": 3692,
      "Ġ1988": 3693,
      "Ġà·ĥà·ĥà¶´": 3694,
      "à¶ħà·Ģà¶¸": 3695,
      "à¶¨à¶Ńà¶¸": 3696,
      "à¶±à¶»à¶½": 3697,
      "à¶¸à¶«à¶º": 3698,
      "à¶ºà¶ľà¶Ń": 3699,
      "à¶´à·ħà·Ģ": 3700,
      "à¶½à·Ģà¶»à¶«à¶º": 3701,
      "à¶ĩà¶Ł": 3702,
      "à·ĥà¶¸à·Ħ": 3703,
      "à¶Ńà¶¥": 3704,
      "à¶»à·ĥà¶¸": 3705,
      "Ġà¶ĳà¶½à·Ģà¶±": 3706,
      "Ġà¶ħà·Ħà·ĥà¶§": 3707,
      "à¶ºà¶¸à¶ºà¶ļ": 3708,
      "Ġà¶ħà·Ħà¶¹": 3709,
      "à·Ģà¶½à¶´": 3710,
      "Ġà¶ĩà¶½à·Ģ": 3711,
      "Ġà·ĥà¶»à¶¯": 3712,
      "à¶¯à¶±à¶ºà¶±": 3713,
      "Ġ83": 3714,
      "à¶¢à¶±à¶ºà¶ļà¶§": 3715,
      "Ġà·Ģà¶łà¶±à·Ģà¶½": 3716,
      "Ġà¶ħà¶±à¶´": 3717,
      "Ġ110": 3718,
      "Ġà¶½à¶¶à¶´": 3719,
      "à¶ľà¶ºà¶Ń": 3720,
      "à¶¢à¶ºà¶¸": 3721,
      "Ġà¶´à·ħà·Ģà¶±": 3722,
      "Ġà¶¯à¶±à·Ģà¶±": 3723,
      "à·Ĥà¶ºà¶Ń": 3724,
      "à¶®à¶ºà¶§": 3725,
      "Ġà¶»à¶§à¶§à¶¸": 3726,
      "Ġà¶ĩà¶ļà¶©à¶¸": 3727,
      "à¶Ĩà¶ļ": 3728,
      "à¶½à·Ģà¶ºà¶ļ": 3729,
      "à¶«à¶ļà¶§": 3730,
      "2020": 3731,
      "à¶¯à¶ľà¶±": 3732,
      "Ġà¶¯à¶¸à¶½": 3733,
      "Ġà¶ħà·Ģà¶±à¶Ń": 3734,
      "à¶±à·Ģà¶¸": 3735,
      "Ġà¶Ĵà¶ļà¶ļà¶ºà¶§": 3736,
      "Ġà¶īà·ģ": 3737,
      "Ġà·Ģà¶½à·ĥ": 3738,
      "à¶Ńà¶½à¶§": 3739,
      "à¶ĵà¶Ń": 3740,
      "à¶ľà¶Ł": 3741,
      "à·Ģà¶»à¶«à¶ºà¶ļà¶§": 3742,
      "à¶ºà·ĥà¶±à¶º": 3743,
      "Ġà¶Ĩà¶·à¶»à¶«": 3744,
      "à·Ģà¶Ńà¶§": 3745,
      "Ġà¶¢à¶±à·Ģà¶»": 3746,
      "Ġà¶ļà¶ł": 3747,
      "à¶¸à¶±à¶ļ": 3748,
      "Ġà¶¸à·ĥà¶ļ": 3749,
      "Ġà¶¸à·Ħà·ĥ": 3750,
      "Ġà¶»à¶¢à¶ºà¶±": 3751,
      "Ġà·ĥà¶ļà¶½": 3752,
      "Ġà¶ĭà¶¹à¶Ń": 3753,
      "à¶¸à·Ģà¶½": 3754,
      "Ġà¶¶à·Ħà¶§": 3755,
      "Ġ1960": 3756,
      "Ġà¶ĳà¶ļà¶ľà¶Ń": 3757,
      "à¶¢à¶¸à¶º": 3758,
      "Ġà¶ħà¶´à¶§à¶Ń": 3759,
      "à¶ºà¶Łà¶º": 3760,
      "Ġà¶´à·Ħà·Ģ": 3761,
      "Ġà¶´à¶»à¶º": 3762,
      "à·Ļà·Ł": 3763,
      "Ġà¶´à·ħà¶ļà·ħ": 3764,
      "Ġ160": 3765,
      "à¶»à¶«à¶ºà¶±": 3766,
      "Ġà¶Ńà¶½à¶Ń": 3767,
      "à¶´à·Ħà¶¯": 3768,
      "à¶Ńà¶ºà¶¸": 3769,
      "à¶ļà·Ģà¶»": 3770,
      "à¶´à¶»à¶ºà¶ļ": 3771,
      "Ġà¶Ńà¶»à¶Łà¶ļ": 3772,
      "à·Ģà¶¥": 3773,
      "à·Ģà¶±à¶ļ": 3774,
      "à¶Ĩà¶´": 3775,
      "Ġà·Ģà¶»à¶¯à·Ģ": 3776,
      "Ġà¶ºà·ģ": 3777,
      "Ġà¶¯à·Ħà¶¯": 3778,
      "à¶»à·Ģà¶¯": 3779,
      "Ġà¶±à¶¸à¶Ń": 3780,
      "à¶¸à¶¢à¶ºà¶±": 3781,
      "à¶¸à¶ºà¶º": 3782,
      "Ġà¶Ĵà¶ļà¶¸": 3783,
      "Ġà¶ĭà¶¸à¶Ń": 3784,
      "à¶»à¶¸à¶ºà¶ļà¶§": 3785,
      "Ġà¶ĳà¶ºà¶¯": 3786,
      "à¶»à¶¢à¶Ń": 3787,
      "Ġà¶ľà¶Łà¶§": 3788,
      "Ġà¶±à·Ģà¶¸": 3789,
      "Ġà¶§à¶Ń": 3790,
      "Ġà¶¯à·ģà¶¸": 3791,
      "Ġ1978": 3792,
      "à¶§à¶¹": 3793,
      "Ġà¶«à¶ºà¶ļ": 3794,
      "2007": 3795,
      "âĢįâĢįâĢįâĢį": 3796,
      "à¶³à¶ľà¶Ń": 3797,
      "Ġà·ĥà¶¸à¶»à¶ļ": 3798,
      "Ġà·ĥà¶¯à·Ħà¶§à¶¸": 3799,
      "55": 3800,
      "Ġà¶»à¶§à¶´": 3801,
      "à·ģà¶Ń": 3802,
      "Ġà·ĥà¶¸à¶´": 3803,
      "Ġà¶±à¶ľà¶»à·Ģà¶½": 3804,
      "Ġà¶Ńà¶¯à¶¶à¶¯à¶ºà¶ļ": 3805,
      "à¶ºà·Ħà¶±": 3806,
      "à¶Ĩà¶±à¶±": 3807,
      "à¶ºà·Ģà¶»à¶ºà¶±": 3808,
      "à¶Ĭà¶½à¶ľ": 3809,
      "Ġà¶ĳà¶½à¶¹": 3810,
      "Ġà¶¸à¶Łà·Ħ": 3811,
      "à¶¨à¶ºà¶ļ": 3812,
      "Ġà¶¶à·ĥà¶º": 3813,
      "à¶°à¶±à¶ľ": 3814,
      "ðŁĳĮðŁĳĮðŁĳĮðŁĳĮðŁĳĮðŁĳĮðŁĳĮðŁĳĮ": 3815,
      "à¶ĳà¶ºà¶Ń": 3816,
      "à¶ħà¶ºà·Ģ": 3817,
      "à·Ĥà¶¶": 3818,
      "Ġà·Ħà¶Ł": 3819,
      "Ġà¶łà¶º": 3820,
      "à¶±à·Ħà·Ģ": 3821,
      "Ġà¶´à¶»à¶«à·Ģ": 3822,
      "à¶»à¶½à¶±": 3823,
      "à·Ħà¶»à¶±": 3824,
      "Ġà¶ĭà¶¹à¶½à¶§": 3825,
      "à¶¸à¶ŀ": 3826,
      "Ġà¶±à·Ģà¶½": 3827,
      "Ġà¶¸à·Ħà¶Ł": 3828,
      "Ġà·Ħà¶ºà¶ļà¶§": 3829,
      "à¶ķà¶ļà¶§": 3830,
      "Ġà¶ļà¶§à¶ļà¶Ń": 3831,
      "à¶¸à¶¸à¶±à¶¸": 3832,
      "Ġà¶¸à·Ħà¶¯": 3833,
      "Ġà·Ħà¶Ńà¶»à·Ģ": 3834,
      "Ġà¶ľà¶«à¶ļ": 3835,
      "à¶¢à¶±à¶ºà¶±": 3836,
      "Ġà¶ļà¶©à·Ģ": 3837,
      "Ġà·ĥà¶¸à·ĥà¶¸": 3838,
      "Ġ61": 3839,
      "à¶Ńà¶¶à¶±": 3840,
      "Ġà¶ħà¶½à·Ħà¶´": 3841,
      "Ġ1983": 3842,
      "à·Ģà¶»à¶´": 3843,
      "à¶ļà¶½à¶Ń": 3844,
      "à·Ģà¶ºà¶¸": 3845,
      "Ġà·ĥà¶³à·Ħà¶±à¶ļ": 3846,
      "à·ĥà·Ħà¶º": 3847,
      "à¶·à¶ºà¶§": 3848,
      "Ġà¶ºà·Ģà¶¸": 3849,
      "Ġ900": 3850,
      "Ġà®": 3851,
      "à¶Ĭà·ģ": 3852,
      "Ġà¶ļà¶½à·Ģà¶¸": 3853,
      "Ġà¶½à¶«": 3854,
      "Ġ73": 3855,
      "ÑĤ": 3856,
      "à¶»à¶·à¶½": 3857,
      "Ġà¶¸à¶»à¶«à¶ºà¶ļ": 3858,
      "Ġà¶´à¶§à·Ģ": 3859,
      "à¶»à¶§à·Ģà¶½": 3860,
      "à¶ĩà·Ĩ": 3861,
      "à¶¸à¶ļà¶»": 3862,
      "à¶ľà¶Ńà¶¯": 3863,
      "à¶ļà·ĥà¶±": 3864,
      "Ġà¶´à¶½à¶ļà¶»à¶±": 3865,
      "à¶ĭà¶´à¶±": 3866,
      "à¶¹à¶º": 3867,
      "Ġà¶¶à¶¯à·Ģ": 3868,
      "à¶°à·Ģà¶½à¶§": 3869,
      "Ġà¶¯à·Ħà¶ºà¶ļà¶§": 3870,
      "Ñģ": 3871,
      "à¶´à·Ħà¶½": 3872,
      "Ġà¶»à¶§à·Ģ": 3873,
      "Ġ4000": 3874,
      "à¶»à¶ºà¶§à¶º": 3875,
      "à¶¯à¶±à¶ļ": 3876,
      "Ġà¶ļà¶§à¶Ń": 3877,
      "à¶´à¶½à·Ģ": 3878,
      "Ġà¶ļà¶±à¶§": 3879,
      "Ġà¶ħà¶Ľà¶±": 3880,
      "2006": 3881,
      "Ġà·ĥà·ħà¶ļà¶±": 3882,
      "Ġà¶ºà¶±à¶ļà¶¸": 3883,
      "à·ħà¶Łà¶§": 3884,
      "à¶±à¶¸à¶§": 3885,
      "à¶§à¶´à¶½": 3886,
      "à·Ħà·Ģà·ĥ": 3887,
      "à¶Ńà¶ļà¶ºà¶±": 3888,
      "à·ħà¶¯à¶´": 3889,
      "Ġ140": 3890,
      "à¶Ĩà¶±à¶º": 3891,
      "à¶ºà¶ºà¶Ń": 3892,
      "à·Ħà¶ļà¶ºà¶±": 3893,
      "à·ħà¶ºà¶§": 3894,
      "ĠâĢįâĢį": 3895,
      "Ġà·Ĩà¶½": 3896,
      "Ġà¶ļà·Ħà¶§": 3897,
      "à¶łà¶©": 3898,
      "à¶ĳà¶»à¶§": 3899,
      "à¶Ķà¶¶à¶§à¶Ń": 3900,
      "Ġà¶¯à¶©à¶º": 3901,
      "à¶ĩà¶«": 3902,
      "à¶ºà¶¸à¶ļà¶§": 3903,
      "à·ĥà·Ħà¶±": 3904,
      "Ġà¶Ĵà¶ļà¶¸à¶Ń": 3905,
      "à¶¸à¶½à¶Ń": 3906,
      "Ġà¶ļà¶½à·Ħà¶ļ": 3907,
      "Ġà¶±à¶Łà¶±": 3908,
      "Ġà¶Ķà¶¸": 3909,
      "66": 3910,
      "à¶¶à·Ģà¶±": 3911,
      "Ġà¶¸à¶ľà¶©": 3912,
      "à¶¨à¶Ń": 3913,
      "à¶¨à¶ºà¶±": 3914,
      "Ġà¶īà·Ħà·ħà¶º": 3915,
      "Ġà¶ĳà·ħà·Ģ": 3916,
      "Ġà¶ĩà·ĥà·ħ": 3917,
      "Ġà¶ħà·Ħà·Ģà¶»": 3918,
      "Ġà·Ģà·ĥà¶»à¶ļà¶¸": 3919,
      "à·Ģà¶±à¶Ń": 3920,
      "Ġà¶¸à·Ħà¶±à¶ľà¶»": 3921,
      "Ð½": 3922,
      "à¶ºà¶§à·Ģà¶Ń": 3923,
      "à¶»à¶¶à¶½à¶º": 3924,
      "à·ĳà¶Ĥ": 3925,
      "Ġà¶ºà·Ħà¶±": 3926,
      "Ġà¶Ĩà¶Ńà¶»": 3927,
      "à¶«à¶ºà¶Ń": 3928,
      "à¶¸à¶©à¶ļ": 3929,
      "à¶¢à¶ºà¶Ń": 3930,
      "à¶©à·Ģà·ĥà¶¸": 3931,
      "Ġà¶ĭà¶¹à¶½à¶ľ": 3932,
      "Ġà¶´à¶¯à¶ºà¶ļ": 3933,
      "à¶¸à¶ļà¶¸": 3934,
      "Ġà¶łà¶½à¶±": 3935,
      "Ġà¶ħà¶¯à¶¸": 3936,
      "Ġà¶ħà¶±à·Ģà·ĥà¶»à¶º": 3937,
      "Ġà¶Ĩà·Ģà¶»": 3938,
      "à¶»à¶¸à¶½": 3939,
      "Ġà¶´à¶¯à¶¸": 3940,
      "Ġà¶ħà¶ļà¶»": 3941,
      "Ġà¶Ĵà¶»": 3942,
      "à·Ħà¶ļà¶Ń": 3943,
      "Ġà¶ĳà¶±à·Ģà¶¯": 3944,
      "Ġà¶±à¶»à¶ļà¶¯": 3945,
      "à¶ĭà¶½": 3946,
      "2004": 3947,
      "à¶ľà·Ģà¶±": 3948,
      "Ġà¶¢à·ĥ": 3949,
      "à¶§à¶¸à¶º": 3950,
      "Ġà¶½à¶ºà¶±à¶½": 3951,
      "à¶±à¶ľà¶»à¶º": 3952,
      "à·ıà·Ļ": 3953,
      "Ġà¶¬": 3954,
      "à¶ħà¶±à·Ģ": 3955,
      "Ġà¶ħà¶¸à¶½": 3956,
      "Ġà¶´à¶»à¶½": 3957,
      "à¶½à¶ļà¶ºà¶ļ": 3958,
      "ÑĢ": 3959,
      "à·ĵâĢį": 3960,
      "Ġà¶ļà¶©à·Ģà¶½": 3961,
      "à·ĵà·ĬâĢį": 3962,
      "75": 3963,
      "Ġà¶¢à¶±à¶ľà·Ħà¶«à¶º": 3964,
      "Ġà¶łà¶¸à¶½": 3965,
      "à¶Ĩà¶ºà¶Ńà¶±à¶º": 3966,
      "Ġ0112": 3967,
      "Ġà¶±à·Ħ": 3968,
      "à¶ħà¶³": 3969,
      "Ġà¶¸à¶Łà¶´": 3970,
      "à·Ĭà·ĬâĢį": 3971,
      "Ġà¶»à·ĥà¶ºà¶ļ": 3972,
      "à·Ĥà¶ļà¶Ń": 3973,
      "Ġà¶´à¶§à·Ģà¶±": 3974,
      "à¶ļà¶ºà¶Ń": 3975,
      "à·Ĥà·Ģà¶Ń": 3976,
      "à·Ģà¶°à¶»": 3977,
      "à·Ģà·Ģà¶Ń": 3978,
      "ðŁĺ": 3979,
      "à¶Ńà¶»à¶¸à¶º": 3980,
      "Ġà¶ħà¶»à¶¹à¶º": 3981,
      "Ġà¶´à¶½à¶ºà¶±": 3982,
      "à·Ĩà¶½": 3983,
      "à¶ľà·ĥà¶¸": 3984,
      "à·ĥà¶§à¶±": 3985,
      "Ġà·Ģà¶ľà·Ģ": 3986,
      "à¶·à¶«": 3987,
      "Ġà¶ĸà·Ĥà¶°à¶ºà¶ļ": 3988,
      "à¶©à¶´à¶º": 3989,
      "Ġà¶»à¶®à¶ºà¶ļà¶§": 3990,
      "à¶¸à¶½à·ĥ": 3991,
      "à¶ļà¶¶": 3992,
      "2019": 3993,
      "à¶ħà¶Ńà¶»": 3994,
      "à·ģà¶ļà¶»": 3995,
      "à¶´à¶ºà¶ļà¶¸": 3996,
      "Ġà¶Īà¶º": 3997,
      "à¶ľà¶±à¶ºà¶ļ": 3998,
      "Ġà¶´à¶§à¶ºà¶ļ": 3999,
      "Ġà¶īà¶«": 4000,
      "à¶±à·Ģà¶ľ": 4001,
      "Ġà·ĥà¶¸à¶®": 4002,
      "Ġà¶Ĩà¶¯à¶»à¶ºà¶§": 4003,
      "à·Ģà·Ħà¶½à¶ļ": 4004,
      "à·Ģà¶ļà¶»": 4005,
      "à¶ºà¶¢à¶±à¶ļ": 4006,
      "Ġà¶Īà¶§": 4007,
      "à¶»à¶Ł": 4008,
      "à¶ľà·Ħà·Ģ": 4009,
      "à¶»à¶¯à¶ľ": 4010,
      "à·ĥà·Ħà¶ºà¶ļ": 4011,
      "à¶½à·ĥà¶±": 4012,
      "à·ĥà¶§à¶¸": 4013,
      "Ġà¶ļà¶©à¶īà¶¸": 4014,
      "à¶»à¶Ńà·Ģà¶±": 4015,
      "Ġà¶ĳà¶¯à¶Ń": 4016,
      "à¶Ľà¶±à¶ºà¶ļ": 4017,
      "à·ģà¶«à¶ºà¶ļ": 4018,
      "à·Ģà¶»à·Ģ": 4019,
      "à·Ħà·ĥà¶ļ": 4020,
      "âĢįà·ı": 4021,
      "à¶§à·ĥà¶Ń": 4022,
      "Ġà¶ļà¶»à¶½à¶º": 4023,
      "à¶Ĩà¶Ń": 4024,
      "à¶Įà¶§": 4025,
      "à·Ħà¶¯à·Ģà¶Ń": 4026,
      "à¶¢à¶´à¶±": 4027,
      "à¶½à¶±à¶ºà¶ļà¶§": 4028,
      "Ġà¶īà¶³à·Ħ": 4029,
      "à·ħà·Ħà¶ļ": 4030,
      "à·Ĥà¶¯": 4031,
      "à¶Ŀà¶ļ": 4032,
      "à·ģà·Ģà¶ºà¶ļ": 4033,
      "à·Ĥà¶¸à·Ģ": 4034,
      "à¶³à¶ľà¶±": 4035,
      "Ġà¶¶à·Ħà¶ļ": 4036,
      "Ġ1971": 4037,
      "à¶ļà¶±à¶º": 4038,
      "à·Ħà¶±à·Ģà¶½": 4039,
      "à·Ģà·ĥà¶»à¶ļà¶§": 4040,
      "à¶½à¶ļà¶«": 4041,
      "65": 4042,
      "Ġà¶ļà¶©à·Ģà¶Ń": 4043,
      "à¶ħà¶¸à¶Ńà¶ļ": 4044,
      "Ġ1999": 4045,
      "à¶¸à¶§à¶ľ": 4046,
      "à·ĥà¶§à¶Ń": 4047,
      "Ġà¶¶à¶½à¶ľ": 4048,
      "Ġà¶Ĩà¶ºà¶Ńà¶±à¶ºà¶±": 4049,
      "Ġà¶¯à¶¸à¶±à·Ģ": 4050,
      "Ġà¶ħà¶©à¶´à¶«": 4051,
      "Ġà¶»à¶®à·Ģà¶½": 4052,
      "Ġà·ĥà¶»à¶±": 4053,
      "Ġà·Ħà¶»à·Ģà¶Ń": 4054,
      "à¶¸à¶ļà¶·": 4055,
      "à¶ºà·Ģà¶±à¶ļ": 4056,
      "à·Ģà¶°": 4057,
      "à·Ģà¶¸à¶§": 4058,
      "à¶»à¶¸à¶ºà¶±": 4059,
      "Ġà¶±à¶ľà¶¸": 4060,
      "à¶½à¶©": 4061,
      "à¶Ńà¶»à¶ºà¶ļà¶§": 4062,
      "Ġà¶´à¶¤": 4063,
      "Ġà¶¶à¶§à¶»": 4064,
      "à¶ľà¶Ńà·Ħ": 4065,
      "à¶´à¶¸à¶º": 4066,
      "Ġà¶ĭà·ĥà¶¸": 4067,
      "Ġ189": 4068,
      "Ġà·ĥà¶»à¶«à¶º": 4069,
      "Ġ225": 4070,
      "Ġà¶ĭà¶¯à·Ħà·ĥ": 4071,
      "à·Ģà·ħà¶ļ": 4072,
      "à¶´à¶½à¶ļ": 4073,
      "Ġà¶ľà¶Ńà¶ļ": 4074,
      "à¶´à¶Ńà¶±à¶º": 4075,
      "ģ£": 4076,
      "Ġà¶½à¶´": 4077,
      "à¶®à·ĥ": 4078,
      "47": 4079,
      "Ġ81": 4080,
      "à¶ľà¶±à¶ļ": 4081,
      "Ġà¶ķà·Ĩ": 4082,
      "à¶Ĩà·ĥà¶±": 4083,
      "à·ģà¶±à¶ºà¶±": 4084,
      "Ġà¶¢à¶±à·Ħà¶¸": 4085,
      "Ġà¶ķà¶´": 4086,
      "à¶£": 4087,
      "à¶¡à¶±à¶º": 4088,
      "à¶ĸà·Ĥ": 4089,
      "à¶´à¶ºà¶Ń": 4090,
      "à·ģà·Ģà¶Ń": 4091,
      "à¶¶à¶¶": 4092,
      "à¶¯à·Ģà¶½à¶§": 4093,
      "Ġà¶·à·Ģà¶º": 4094,
      "à¶¶à¶¸à¶º": 4095,
      "Ġ1948": 4096,
      "à¶ļà¶ļà¶¯": 4097,
      "Ġà¶¯à·Ħà¶¸à¶ļ": 4098,
      "à·Ģà¶ºà¶¹": 4099,
      "à¶±à¶¯à¶§": 4100,
      "Ġà¶ĳà¶Ńà¶±à¶¯": 4101,
      "à¶»à¶ļà¶¯": 4102,
      "à¶ļà¶»à·Ģà¶±": 4103,
      "à¶ĳà¶¸à¶Ł": 4104,
      "Ġà¶»à¶¢à¶ļà¶¸": 4105,
      "Ġà¶ļà¶»à¶«à¶º": 4106,
      "Ġà¶»à¶ľà¶»": 4107,
      "à·Ħà¶½à¶ļà¶§": 4108,
      "Ġà¶īà¶¯à¶ľ": 4109,
      "Ġ101": 4110,
      "à¶ļà¶©à¶ļ": 4111,
      "à·Ĥà¶°": 4112,
      "Ġà¶łà¶½": 4113,
      "à¶¯à¶ľà¶¸": 4114,
      "Ġà¶ķà¶±à¶¯": 4115,
      "Ġà·ĥà¶¸à¶ºà¶ļ": 4116,
      "à¶»à·Ģà¶ºà¶§": 4117,
      "Ġ82": 4118,
      "Ġà¶Ĩà¶ºà¶Ńà¶±à¶ºà¶ļà¶§": 4119,
      "à¶»à¶ļà¶®à¶±à¶ºà¶ļ": 4120,
      "à¶´à¶©": 4121,
      "Ġà¶ļà¶»à·Ģà¶º": 4122,
      "à¶»à¶½à¶º": 4123,
      "à¶´à¶»à¶º": 4124,
      "à¶¢à¶¹": 4125,
      "Ġà¶Ńà¶¯à¶¶à¶½": 4126,
      "Ġà¶µà¶½à¶º": 4127,
      "à¶ĭà¶ľà¶Ń": 4128,
      "Ġà¶ĭà¶º": 4129,
      "Ġà¶īà¶ºà¶±": 4130,
      "à¶Ķà¶§": 4131,
      "Ġà¶´à¶§à¶ļ": 4132,
      "à¶ļà¶ºà¶º": 4133,
      "à¶ºà¶±à¶ºà¶§": 4134,
      "Ġà¶±à¶¸à¶º": 4135,
      "à¶»à¶ļà¶½": 4136,
      "Ġà¶ĭà¶©à¶¯": 4137,
      "Ġà·ĥà¶§à·Ħà¶±à¶§": 4138,
      "Ġà·ħà·Ħ": 4139,
      "Ġà¶ľà¶«à¶ºà¶§": 4140,
      "à¶Ńà·Ħà¶¸": 4141,
      "à¶»à¶Ńà¶º": 4142,
      "à¶ļà¶Ńà¶»à¶ľà¶¸": 4143,
      "à·ħà¶ļà¶§": 4144,
      "à¶´à¶Ńà¶½": 4145,
      "à¶Ńà¶±à¶ºà¶±": 4146,
      "à·ĥà¶½à¶¸": 4147,
      "à·Ģà¶¢": 4148,
      "Ġà¶ħà¶ºà¶ļà¶»": 4149,
      "Ġà¶±à·Ħà¶º": 4150,
      "à·ģà¶±à·Ģà¶½": 4151,
      "Ġà¶Ķà¶´à¶»": 4152,
      "2000": 4153,
      "Ġà¶Ĭà·ħà¶ľ": 4154,
      "Ġà·Ģà¶§à¶½": 4155,
      "à·ĬâĢįâĢį": 4156,
      "Ġà¶¯à·Ģà·ĥà¶¸": 4157,
      "ï¿½": 4158,
      "Ġà¶©à¶ľ": 4159,
      "à¶ļà¶»à¶ºà¶ļ": 4160,
      "Ġà¶Ńà¶»à¶Łà¶ºà¶§": 4161,
      "Ġà¶ļà·Ģà¶±": 4162,
      "Ġà·Ģà¶½à¶§à¶¯": 4163,
      "à¶«à¶¸à¶º": 4164,
      "à¶ľà¶«à¶ļà¶ºà¶§": 4165,
      "à¶ºà¶©": 4166,
      "à¶Ńà¶»à¶Ń": 4167,
      "à·ģà·Ģà¶ºà¶§": 4168,
      "à¶©à¶ļà¶ºà¶ļ": 4169,
      "Ġà¶ĭà¶ļà·Ħ": 4170,
      "à¶Ĭà¶¢": 4171,
      "Ġà·ħà¶¸à¶ºà¶§": 4172,
      "Ġà·ģà·Ģ": 4173,
      "Ġà¶ĩà¶«à·Ģ": 4174,
      "à¶ľà¶¸à¶±à¶ºà¶§": 4175,
      "à¶ºà¶¸à¶«": 4176,
      "à¶¯à¶·": 4177,
      "Ġà¶ľà¶¢à¶¶": 4178,
      "Ġà¶´à·ĥà·ħ": 4179,
      "Ġ93": 4180,
      "à¶łà¶ļà¶ºà¶ļ": 4181,
      "à·Ģà¶½à¶¸à¶ļ": 4182,
      "Ġà·Ģà¶´à·ĥà¶»": 4183,
      "Ġà¶ħà·Ĩ": 4184,
      "à¶´à¶»à¶ļ": 4185,
      "Ġà¶Ńà¶«à¶ļ": 4186,
      "à¶¢à¶¢": 4187,
      "à¶»à¶ºà¶ľ": 4188,
      "à¶Ĵà¶±": 4189,
      "à·Ĥà¶«à·Ģ": 4190,
      "Ġà¶¢à¶±à¶´à¶¯à¶ºà¶§": 4191,
      "Ġà¶ļà·Ģà¶»à¶ļ": 4192,
      "Ġà¶«à¶ºà¶§": 4193,
      "à¶¸à¶ºà¶Ń": 4194,
      "à¶Ķà¶Ńà¶±": 4195,
      "Ġà¶ħà¶»à¶·à¶º": 4196,
      "Ġà·Ħà¶Ńà¶»à¶¯": 4197,
      "Ġà¶ħà¶ºà¶®": 4198,
      "Ġà¶¸à¶ľà¶¯": 4199,
      "ãĤ": 4200,
      "à¶°à¶¸à¶±à¶º": 4201,
      "Ġ1996": 4202,
      "Ġà¶½à¶¶à¶½": 4203,
      "à¶»à·Ģà¶«à¶º": 4204,
      "76": 4205,
      "Ġà¶±à¶»à¶ļà¶¸": 4206,
      "à¶ºà¶±à·Ģà¶½": 4207,
      "58": 4208,
      "Ġ188": 4209,
      "Ġà¶¢à¶±à¶»à¶¢": 4210,
      "à¶ºà¶ľà¶½": 4211,
      "à¶¶à¶½à¶ºà¶ļ": 4212,
      "Ġà·Ģà¶½à¶§à¶º": 4213,
      "Ġà·Ħà¶¯à·Ģà¶Ńà¶ļ": 4214,
      "à¶´à·Ħà¶ļ": 4215,
      "Ġà·Ħà¶»à·Ħà¶§": 4216,
      "Ġà¶Ŀà¶±à¶Ń": 4217,
      "71": 4218,
      "Ġà¶¶à·ħ": 4219,
      "Ġà¶ħà¶´à¶½": 4220,
      "à¶´à¶Ńà¶¸": 4221,
      "à¶ĩà¶´à¶½": 4222,
      "à¶ºà¶ľà¶±": 4223,
      "à¶©à¶ľà·ĥ": 4224,
      "à¶«à·Ģà¶½à¶§": 4225,
      "Ġà¶½à¶Ŀ": 4226,
      "Ġà¶ľà¶¢": 4227,
      "à¶Ĭà¶±": 4228,
      "Ġà¶¸à¶ľà¶§": 4229,
      "à¶Ĩà¶½": 4230,
      "Ġà¶ħà·ĥà¶´": 4231,
      "02": 4232,
      "Ġà¶·à·Ģ": 4233,
      "à¶´à¶®": 4234,
      "Ġà¶¸à¶Ńà¶°": 4235,
      "à¶±à·Ģà·Ħà¶»": 4236,
      "à¶ħà·Ħà¶½": 4237,
      "Ġà¶¶à¶»à·Ģ": 4238,
      "à·ĥà¶¸à·Ħà¶»à¶ļ": 4239,
      "Ġà¶´à¶¯à·Ģà¶±": 4240,
      "Ġà¶´à¶±à·Ħ": 4241,
      "à¶ļà¶»à¶«à¶ºà¶±": 4242,
      "Ġà¶ĳà·ħà¶ļ": 4243,
      "à¶´à¶Ńà¶ļà¶§": 4244,
      "Ġà¶ķà·Ģà¶§": 4245,
      "à¶§à¶¸à¶Ń": 4246,
      "à¶¯à¶¸à¶ļ": 4247,
      "à¶»à·Ħà¶¸": 4248,
      "Ġà·ĥà¶½à¶ļà¶±à·Ģ": 4249,
      "à¶Ńà¶§à¶º": 4250,
      "à¶ħà¶©à·Ģ": 4251,
      "Ġà¶Ńà¶®": 4252,
      "Ġà¶Ķà¶¶à¶¸": 4253,
      "Ġ1991": 4254,
      "Ġà¶´à¶½à¶ļà¶½": 4255,
      "59": 4256,
      "à¶¯à·ħ": 4257,
      "Ġà¶ĳà¶ºà¶¸": 4258,
      "à¶īà·Ģ": 4259,
      "à¶ļà¶ºà¶§à¶¸": 4260,
      "78": 4261,
      "à·ĥà¶±à·Ģ": 4262,
      "Ġà·ĥà·Ħà¶ľà¶Ńà¶º": 4263,
      "à¶Ĭà¶§à¶´à·ĥ": 4264,
      "Ġà·Ħà¶¯à¶±à¶ļ": 4265,
      "Ġà¶ħà¶¸à¶»à¶«": 4266,
      "à¶·à¶´": 4267,
      "à¶Ľà·Ģ": 4268,
      "Ġà¶Ķà·ĥà·Ģà¶±": 4269,
      "Ġà¶ĸà·Ĥà¶°à¶º": 4270,
      "à¶ľà¶«à¶±à¶º": 4271,
      "Ġà¶ľà·Ģà¶ºà¶±": 4272,
      "05": 4273,
      "Ġà¶ħà¶Ńà¶»à¶º": 4274,
      "Ġà¶´à¶½à¶¯": 4275,
      "à¶½à¶¥à¶ºà¶±": 4276,
      "à¶»à·Ĩ": 4277,
      "Ġà¶±à¶ļ": 4278,
      "à·Ģà·ĥà¶ļà¶§": 4279,
      "ãĥ": 4280,
      "à¶¶à¶ľ": 4281,
      "à¶¯à·Ħà·ĥà¶ļà¶§": 4282,
      "à·ĥà¶¶à¶»à¶ľà¶¸": 4283,
      "Ġà¶ħà¶´à¶¸à¶«": 4284,
      "à¶¢à¶ºà·ĥ": 4285,
      "à¶ĩà¶´": 4286,
      "Ġà·ĥà¶¸à¶¶à¶»": 4287,
      "à·ģà¶¸à¶Ń": 4288,
      "Ġà¶ĭà¶¯à¶»à¶º": 4289,
      "Ġà·Ģà¶½à¶º": 4290,
      "Ġà¶Īà¶³": 4291,
      "Ġà¶ļà¶¨": 4292,
      "à¶Ľà¶ļà¶ºà¶±": 4293,
      "à¶Ńà¶±à¶ľà¶½": 4294,
      "à¶¢à¶ļà·Ģà¶»": 4295,
      "Ġà¶¸à·Ħà·ħ": 4296,
      "Ġà¶¸à¶¬": 4297,
      "Ġà¶±à·Ħà¶»": 4298,
      "Ġà¶¸à¶§à¶º": 4299,
      "Ġà¶Ńà¶»à¶ľà¶ºà¶ļà¶¯": 4300,
      "à¶¯à¶»à¶ºà¶§": 4301,
      "42": 4302,
      "Ġà¶»à¶¯à¶ľ": 4303,
      "à¶ĳà·ħà¶¹": 4304,
      "à¶ļà¶ºà¶ļà¶§": 4305,
      "Ġà¶ļà¶±à¶Ń": 4306,
      "à¶Łà¶½": 4307,
      "à¶»à·Ħà¶ºà¶§": 4308,
      "Ġà·Ģà¶¯à¶º": 4309,
      "à¶¸à¶«à¶§": 4310,
      "à¶Ńà¶½à¶ļ": 4311,
      "à¶»à¶´à¶§à·Ģà¶½": 4312,
      "à¶»à·ĥà¶ļ": 4313,
      "à¶´à·Ģà¶±": 4314,
      "à¶³à·Ħ": 4315,
      "49": 4316,
      "à¶ļà¶½à¶ºà¶ļ": 4317,
      "Ġà¶ħà¶¸à¶Ńà¶ļà·Ģ": 4318,
      "à¶ºà¶ļà¶§à¶¸": 4319,
      "Ġà¶īà¶¯à¶½à¶¸": 4320,
      "Ġà¶©à¶ļ": 4321,
      "1990": 4322,
      "à·ĥà¶½à¶ºà¶ļ": 4323,
      "à¶´à·Ħà·ĥ": 4324,
      "à¶īà¶¶": 4325,
      "Ġà¶ĳà¶ļà·Ģà¶»à¶¸": 4326,
      "à¶§à¶´à¶±": 4327,
      "à¶¸à¶©à¶ļà¶½à¶´": 4328,
      "à·Ħà¶½à¶ºà¶ļ": 4329,
      "Ġà¶ķà¶ľ": 4330,
      "Ġà¶ĭà¶¯à¶¸": 4331,
      "Ġà·ģà¶Ńà¶ļà¶ºà¶ļ": 4332,
      "Ġà¶Ńà·Ħà¶±à¶¸à¶§": 4333,
      "Ġà¶ħà¶¥": 4334,
      "Ġà·Ģà¶ľà¶º": 4335,
      "à·Ģà¶§à¶±": 4336,
      "à¶´à¶Ńà¶±à¶ºà¶ļ": 4337,
      "Ġà¶ħà¶ºà·Ģà¶½": 4338,
      "46": 4339,
      "à¶©à¶ļà¶¸": 4340,
      "Ġà¶ħà¶½à¶ľ": 4341,
      "à·Ģà¶ºà¶ļà¶¯": 4342,
      "Ġà¶Ĩà·Ģà¶¯": 4343,
      "1970": 4344,
      "à¶ħà¶¹": 4345,
      "à¶¯à¶¢à¶±à¶ļ": 4346,
      "Ġà¶Ńà¶»à¶¶": 4347,
      "à¶´à·Ħà·ħ": 4348,
      "Ġà·Ģà·Ħà¶±à¶º": 4349,
      "à·Ĥà¶»à¶Ń": 4350,
      "Ġà·Ģà¶½à¶½": 4351,
      "Ġà¶¢à¶ºà¶½à¶½": 4352,
      "Ġà·ĥà¶½à¶ļà¶¸": 4353,
      "Ġà¶±à¶Ńà¶»à·Ģ": 4354,
      "Ġà¶ĳà·Ģà¶»": 4355,
      "à¶¸à¶¢": 4356,
      "à¶ļà·Ģà¶»à¶«": 4357,
      "1980": 4358,
      "Ġà·ĥà¶¸à·Ģ": 4359,
      "Ġà¶±à¶ºà¶±": 4360,
      "à¶Ńà·Ģà¶»": 4361,
      "Ġà¶¯à·Ħà¶±à¶º": 4362,
      "à¶½à¶»à¶Ń": 4363,
      "Ġà¶ħà¶ļà¶½": 4364,
      "à¶½à¶°à¶»à¶º": 4365,
      "à¶°à·Ģà¶±": 4366,
      "Ġ1995": 4367,
      "Ġà¶ħà¶±à¶°": 4368,
      "à·ģà¶ľà¶Ńà·Ģ": 4369,
      "à·Ģà¶ļà¶ºà¶ļ": 4370,
      "Ġà·Ģà¶©à¶±": 4371,
      "Ġà¶ĭà¶ļà·ĥ": 4372,
      "Ġà¶´à·Ħà¶§": 4373,
      "Ġà¶ļà¶»à¶½à¶¸": 4374,
      "Ġà¶Ĵà¶±": 4375,
      "Ġà¶ħà¶ľà¶»à¶¯à¶ľ": 4376,
      "à¶ĸà·Ĥà¶°": 4377,
      "à·Ģà¶»à¶ºà¶§": 4378,
      "à¶»à¶«à¶ļ": 4379,
      "Ġà¶ļà¶»à·Ģà¶¸": 4380,
      "Ġà¶ĩà¶¯à¶±": 4381,
      "Ġà¶©à¶©": 4382,
      "Ġ105": 4383,
      "Ġ1200": 4384,
      "Ġà¶Ńà¶«à¶Ń": 4385,
      "Ġà¶´à·ĥà¶§": 4386,
      "Ġà¶Īà¶±": 4387,
      "Ġà¶´à¶½à¶±": 4388,
      "Ġà¶¸à¶¸à¶±à¶¸": 4389,
      "à¶´à¶ļà¶º": 4390,
      "à¶Ĩà·ģ": 4391,
      "à¶ĩà¶»": 4392,
      "à¶ĩà¶¯": 4393,
      "à¶»à·Ģà¶ļ": 4394,
      "Ġà¶¯à·Ĥ": 4395,
      "Ġ1972": 4396,
      "Ġà·Ħà¶¯à¶¸": 4397,
      "Ġà¶ļà¶»à¶¬": 4398,
      "à¶ºà¶½à¶¸": 4399,
      "Ġ113": 4400,
      "à¶ºà¶Ńà¶º": 4401,
      "Ġà·ĥà¶»à¶ł": 4402,
      "à¶½à¶ł": 4403,
      "à¶ºà¶¸à¶ºà¶±": 4404,
      "Ġà·Ģà¶¸à¶§": 4405,
      "à·Ģà¶´à·Ħà·ĥ": 4406,
      "à¶ĩà¶§": 4407,
      "Ġà·ĥà·ģ": 4408,
      "à¶©à·ĥà¶§à·Ħà¶±à¶ļà¶§": 4409,
      "Ġà¶¢à¶±à¶±": 4410,
      "à¶±à·Ħà·Ģà¶ļ": 4411,
      "Ġà·Ģà¶¸à¶Ń": 4412,
      "Ġà¶Ńà¶¶à¶º": 4413,
      "à·Ħà¶¯à·Ģ": 4414,
      "Ġà¶´à¶«à¶Ń": 4415,
      "Ġà¶¯à·Ħà¶±": 4416,
      "Ġà¶ĳà¶ļà¶§à¶º": 4417,
      "2001": 4418,
      "à¶¢à¶ºà¶ļà¶§": 4419,
      "03": 4420,
      "Ġà¶¸à¶¸à¶¯": 4421,
      "1977": 4422,
      "à¶ľà¶½à¶§": 4423,
      "Ġ<": 4424,
      "à¶Ŀà¶±à¶ļ": 4425,
      "à¶Ńà¶ļà¶»à¶«à¶º": 4426,
      "à¶»à¶¸à¶±à¶º": 4427,
      "Ġà¶¸à·Ħà¶»à·Ħ": 4428,
      "à¶»à¶ºà¶¸": 4429,
      "à¶¶à¶½à¶ļ": 4430,
      "Ġà¶ļà¶±à¶ļ": 4431,
      "Ġà¶ºà¶±à·Ģà¶±": 4432,
      "Ġ115": 4433,
      "à¶¯à·Ģà¶ł": 4434,
      "Ġà¶´à¶»à·Ģ": 4435,
      "Ġà¶Ĩà¶»à¶«": 4436,
      "Ġà¶ħà·Ħà¶¸à¶©": 4437,
      "Ġà¶ħà·ĥà¶»à¶«à¶º": 4438,
      "Ġà¶¶à¶ºà¶§": 4439,
      "Ġà¶īà¶¹": 4440,
      "à¶¯à¶»à·Ģà¶»": 4441,
      "Ġ450": 4442,
      "Ġà¶Ŀà¶«": 4443,
      "à¶»à¶¯à·Ģ": 4444,
      "Ġà¶¯à¶¯": 4445,
      "Ġ1956": 4446,
      "à·ĥà¶ł": 4447,
      "41": 4448,
      "Ġà¶´à·Ģà¶±": 4449,
      "à¶´à¶½à¶§": 4450,
      "Ġà¶½à¶Łà¶¸": 4451,
      "à¶ľà¶½à¶ľ": 4452,
      "Ġ6000": 4453,
      "Ġà·Ĭ": 4454,
      "à¶ºà·Ģà¶º": 4455,
      "Ġà·Ģà¶§à¶ºà¶ļ": 4456,
      "Ġà·ĥà¶´à¶ºà¶¸": 4457,
      "à¶§à·ĥà¶ļà¶§": 4458,
      "à·ĥà¶Ł": 4459,
      "à¶®à¶ļà¶®à¶±à¶º": 4460,
      "Ġà¶ºà¶±à¶ļà¶±": 4461,
      "Ġà¶ħà¶¶à¶½à¶±": 4462,
      "Ġ1997": 4463,
      "à¶´à¶ļà¶»à¶«": 4464,
      "Ġà¶ħà¶Ńà·Ħà¶»": 4465,
      "Ġà¶ħà¶»à¶ľà¶Ń": 4466,
      "Ġà¶Ĵà¶º": 4467,
      "à¶¯à¶«": 4468,
      "Ð¾Ð": 4469,
      "Ġà·ħà¶ľà¶§": 4470,
      "Ġà·ĥà·ĥà¶½": 4471,
      "à¶´à·Ģà·Ħà¶±": 4472,
      "à¶Ńà¶ºà¶¯": 4473,
      "à¶©à¶»à¶ºà¶ļ": 4474,
      "Ġà¶Ńà¶»à¶ľà¶ļà¶»": 4475,
      "Ġà¶ħà¶Ńà¶»à¶¯": 4476,
      "à¶Ľà·ĥ": 4477,
      "à·Ħà¶§à¶Ń": 4478,
      "Ġà¶´à¶ľ": 4479,
      "Ġà¶´à¶¸à¶±à¶º": 4480,
      "Ġà¶´à¶»à¶Ńà¶»à¶ºà¶ļ": 4481,
      "à¶Ńà¶´à¶Ń": 4482,
      "à¶ľà·Ħà¶½": 4483,
      "à¶ļà¶©à·Ģà¶½": 4484,
      "à¶¸à·Ħà¶«": 4485,
      "ãĢ": 4486,
      "Ġà¶ħà¶»à¶«": 4487,
      "Ġà·Ģà·Ģà¶±": 4488,
      "Ġà¶Ĩà·Ģà¶»à¶«à¶ºà¶ļ": 4489,
      "43": 4490,
      "à¶Ĵà¶ľ": 4491,
      "à¶½à¶±à¶¸à¶º": 4492,
      "Ġà¶¯à¶»à¶±à·Ģ": 4493,
      "à¶Ńà¶±à·Ģà¶¯": 4494,
      "Ġà¶ļà¶¸à¶Ń": 4495,
      "à¶½à¶ºà¶¸": 4496,
      "Ġà·Ģà¶°à·Ħ": 4497,
      "à·ıà·ı": 4498,
      "Ġà¶ħà¶Ńà¶´à¶º": 4499,
      "Ġ91": 4500,
      "à·Ħà¶ľà¶Ń": 4501,
      "à¶§à¶ľà¶±": 4502,
      "à·ģà¶´à¶Ń": 4503,
      "à¶°à¶±à¶ºà¶ļà¶§": 4504,
      "à¶Ķà¶»": 4505,
      "Ġà¶ĩà·Ģà¶»": 4506,
      "Ġà¶īà¶©à¶ļà¶©à¶ļ": 4507,
      "à¶Ķà¶ºà¶Ń": 4508,
      "Ġà¶ļà·Ĥ": 4509,
      "Ġà¶ĳà·Ģà¶±à·Ģ": 4510,
      "Ġà·Ģà¶¸à¶±à¶º": 4511,
      "à¶«à¶±à·Ģ": 4512,
      "07": 4513,
      "à¶ºà¶®": 4514,
      "à¶´à·Ħà¶±": 4515,
      "à·ĥà¶ºà¶Ń": 4516,
      "Ġà·Ħà¶¯à¶¯": 4517,
      "Ġ1986": 4518,
      "à¸": 4519,
      "à¶Ńà¶¥à¶º": 4520,
      "à¶½à¶´à¶»": 4521,
      "Ġà¶ĩà¶¯à¶ľà¶±": 4522,
      "Ġà¶»à¶¸à¶«": 4523,
      "à·ĥà¶¸à¶½": 4524,
      "Ġà¶ĩà¶³à¶§": 4525,
      "Ġà¶ļà¶»à¶±à·Ģà¶±": 4526,
      "à¶ľà¶ºà¶¯": 4527,
      "Ġà¶Ńà¶»à¶¸à¶ļà¶§": 4528,
      "à¶®à¶»": 4529,
      "Ġà¶µà¶½à¶ļ": 4530,
      "à·ĥà¶´à¶Ń": 4531,
      "Ġà·Ĩà·Ģ": 4532,
      "à¶Ŀà¶«à¶ļ": 4533,
      "à¶»à¶®à¶º": 4534,
      "à¶±à¶¶": 4535,
      "Ġà¶ĭà¶´à¶¯à·Ģà¶±": 4536,
      "à¶ºà¶¶": 4537,
      "Ġà¶¢à¶½à¶ºà¶§": 4538,
      "Ġà¶Ĵà¶ļà¶§à¶Ń": 4539,
      "Ġ1992": 4540,
      "Ġà¶Ĭà¶½": 4541,
      "à¶¨à¶ºà¶§": 4542,
      "Ġ750": 4543,
      "Ġ10000": 4544,
      "Ġà¶±à·Ĥ": 4545,
      "à·ħà·Ģà¶»à¶ļ": 4546,
      "Ġà¶Ķà¶ºà·Ģà¶ľ": 4547,
      "à·ģà¶ļà¶Ń": 4548,
      "Ġà·Ħà¶¬à¶±": 4549,
      "Ġà¶ľà¶ľà¶±": 4550,
      "à·Ĥà¶±à¶ºà¶§": 4551,
      "Ġ1950": 4552,
      "à¶ĭà¶©à¶»à¶§": 4553,
      "à¶ķà¶±à¶¸": 4554,
      "à¶Ĩà¶¶": 4555,
      "Ġà¶¶à¶©à¶§": 4556,
      "à·Ģà¶ľà¶±": 4557,
      "à·Ħà¶»à¶º": 4558,
      "Ġà¶Ńà¶¸à¶±à¶§": 4559,
      "96": 4560,
      "à¶¯à·Ħà¶Ń": 4561,
      "à¶±à¶§à·Ģà¶Ń": 4562,
      "Ġà¶½à¶¶à¶Ń": 4563,
      "Ġà¶¸à¶Ńà¶¸": 4564,
      "à¶Ńà¶¸à·Ģ": 4565,
      "à¶©à¶ļà¶»": 4566,
      "Ġà¶ĳà¶ļà·Ħ": 4567,
      "Ġà¶ļà¶§à·Ģ": 4568,
      "à¶±à¶ºà¶§à¶Ń": 4569,
      "à¶¢à¶ļà¶»": 4570,
      "à¶³à·Ģà¶º": 4571,
      "à¶ĩà¶©": 4572,
      "Ġà¶ļà¶»à¶±à·Ģà¶±à¶¸": 4573,
      "à¶´à·ħà¶ļ": 4574,
      "Ġà¶ħà¶¢à¶±": 4575,
      "à¶Ķà¶¶à¶½": 4576,
      "Ġà¶ħà¶½à·ĥ": 4577,
      "à·ĥà¶³à·Ħ": 4578,
      "à¶½à·ĥà¶§à·Ħà¶±": 4579,
      "à¶ĭà¶ļ": 4580,
      "2002": 4581,
      "Ġà¶ħà¶Łà·Ģ": 4582,
      "Ġà·ĥà·Ĩ": 4583,
      "Ġà¶¸à¶±à¶»à¶¸": 4584,
      "à¶¸à·Ħà¶»à¶ľà¶¸": 4585,
      "Ġà·ĥà¶¸à¶Ńà¶½": 4586,
      "Ġà¶ºà¶±à¶ļà¶½": 4587,
      "à¶Ńà¶©": 4588,
      "à¶ºà¶½à¶§": 4589,
      "Ġà¶¸à·Ħà¶»à¶¢": 4590,
      "Ġà¶¸à·ħà¶ľ": 4591,
      "Ġà¶ļà¶ľ": 4592,
      "Ġà¶Ĩà¶´à¶±à·ģ": 4593,
      "Ġà¶ĭà·ĥà¶ļ": 4594,
      "à¶»à¶ļà¶±": 4595,
      "Ġà·ĥà·ĥà¶³à¶±": 4596,
      "Ġà¶ļà¶§à¶´": 4597,
      "Ġà¶ķà¶©à¶»": 4598,
      "à·Ħà¶¯à¶Ń": 4599,
      "Ġà¶¯à·Ħà¶»": 4600,
      "à·Ĩà¶±": 4601,
      "Ġ145": 4602,
      "Ġà¶ĳà¶¢à¶±": 4603,
      "Ġà¶¸à·Ħà¶ĩà¶¸à¶Ń": 4604,
      "à·Ģà¶ļà¶§à¶¸": 4605,
      "ĠâĢİ": 4606,
      "à¶±à¶Ľà¶ºà¶±": 4607,
      "Ġà¶±à·ħà¶½": 4608,
      "Ġà¶ĩà¶¯à·Ģ": 4609,
      "Ġà¶ļà·ħà¶¹": 4610,
      "à¶´à·ħà¶§": 4611,
      "Ġà¶ļà¶§à·Ģà¶½": 4612,
      "89": 4613,
      "à¶´à¶§à¶±": 4614,
      "Ġà¶¸à¶¤": 4615,
      "à¶©à·Ģà¶±": 4616,
      "Ġà¶±à·Ģà¶±": 4617,
      "Ġà¶ĭà¶±à·Ħà¶¸": 4618,
      "Ġà¶Ķà·ĥà¶´": 4619,
      "à¶ľà¶¸à¶ºà¶ļ": 4620,
      "Ġà¶ħà¶ľà¶§": 4621,
      "Ġà·Ģà·Ħà¶½à¶º": 4622,
      "Ġà¶ĳà¶§": 4623,
      "à¶Ńà¶»à¶¸à¶ļ": 4624,
      "à¶½à·ĥà¶ļ": 4625,
      "Ġà·Ħà¶¢": 4626,
      "à¶Ĭà¶½à¶Łà¶§": 4627,
      "Ġà·ĥà¶ľà¶»": 4628,
      "Ġà¶ļà¶½à¶±": 4629,
      "Ġà¶ĩà¶½à¶±": 4630,
      "Ġà¶ħà·Ħà¶¯": 4631,
      "Ġà¶ĵ": 4632,
      "Ġà¶ľà·Ħà¶§": 4633,
      "Ġà¶´à¶»à¶¯à·Ģ": 4634,
      "à¶®à¶»à¶º": 4635,
      "Ġà¶ļà¶©à·Ģà·ĥà¶¸": 4636,
      "Ġà¶Ĩà¶ľà¶¸à¶±à¶º": 4637,
      "Ġà¶´à·ħà¶ļà¶»à¶¸": 4638,
      "Ġà·ĥà·ĥà¶³": 4639,
      "à¶»à¶¸à¶ºà¶º": 4640,
      "Ġà¶´à·Ħà¶Ńà¶§": 4641,
      "Ġà¶ļà¶©à¶Ń": 4642,
      "à¶ĳà¶»": 4643,
      "à¶±à¶¸à¶ļà¶§": 4644,
      "Ġà¶ĩà¶Ńà¶¸": 4645,
      "1994": 4646,
      "Ġà¶ĩà·ĥà¶ļ": 4647,
      "Ġ119": 4648,
      "à¶ħà¶Łà·Ħà¶»": 4649,
      "Ġà¶Ńà¶½à¶ºà¶ļ": 4650,
      "Ġà¶ħà¶ºà¶ļà¶»à¶±": 4651,
      "Ġà¶¸à¶Ńà¶¯": 4652,
      "57": 4653,
      "à·ĥà¶»à¶¸": 4654,
      "Ġà¶ĳà¶¸à¶§à¶º": 4655,
      "Ġ1993": 4656,
      "Ġà¶´à·ħà¶³": 4657,
      "à¶ļà¶½à¶¸": 4658,
      "Ġà¶Īà¶Ńà¶ļ": 4659,
      "04": 4660,
      "à·ĵà·Ĵ": 4661,
      "à¶´à¶ļà¶»": 4662,
      "à¶ļà¶½à¶ļà¶§": 4663,
      "à¶Ĵà¶º": 4664,
      "à¶ħà·ĥà¶±": 4665,
      "à¶ºà¶±à¶§": 4666,
      "à¶»à¶ļà¶®à¶±à¶ºà¶§": 4667,
      "Ġà¶¸à¶»à¶´": 4668,
      "à¶©à¶ľà¶±": 4669,
      "Ġà¶ĳà¶½à·Ģà¶½": 4670,
      "à·Ħà¶»à¶«à¶ºà¶ļà¶§": 4671,
      "Ġà·Ģà¶¯à¶±à¶ļ": 4672,
      "Ġà¶¢à·Ģà¶º": 4673,
      "à¶ļà¶»à¶ºà¶±": 4674,
      "Ġà¶ķà¶±à¶±": 4675,
      "à¶ħà·Ħà¶±": 4676,
      "à¶¢à¶ºà¶»à¶Ń": 4677,
      "à¶»à¶ºà¶§à¶Ń": 4678,
      "Ġà·Ħà¶¬à¶§": 4679,
      "Ġ1985": 4680,
      "à¶ºà¶»à¶º": 4681,
      "à¶§à·Ħà¶»": 4682,
      "à¶ħà·ĥà¶½": 4683,
      "Ġà·Ģà·ĥà¶»à·Ģà¶½": 4684,
      "Ġà¶±à¶§à¶¹": 4685,
      "à¶´à¶¤": 4686,
      "à¶ĩà¶¹": 4687,
      "Ġà·Ģà¶łà¶±à¶ºà¶§": 4688,
      "Ġà¶ĳà¶Ńà¶±à¶¸": 4689,
      "Ġà¶¯à·Ħà¶©": 4690,
      "à¶½à·Ģà¶½à¶¯": 4691,
      "Ġà¶ħà¶ļà¶§à¶º": 4692,
      "Ġà¶ĭà¶«à¶Ń": 4693,
      "à¶ħà¶ºà·Ħà¶´à¶Ń": 4694,
      "Ġà¶ĩà¶ľà·Ģ": 4695,
      "67": 4696,
      "à·ĥà¶±à¶Ń": 4697,
      "à¶ĳà¶©": 4698,
      "Ġà¶¶à¶½à¶ĩà¶«": 4699,
      "à¶·à·Ģà¶±": 4700,
      "à¶Ńà¶¸à¶ļ": 4701,
      "2003": 4702,
      "Ġà¶Ķà¶¶à¶§à¶¸": 4703,
      "à¶½à¶¢": 4704,
      "à·ĻâĢįà·ĬâĢį": 4705,
      "à¶ĭà¶´à¶¯": 4706,
      "à¶ĳà¶¶à¶³": 4707,
      "à¶ĭà¶¹à¶Ń": 4708,
      "83": 4709,
      "Ġ20100": 4710,
      "Ġà¶¸à¶©à¶ļà·ħà¶´": 4711,
      "à·Ģà¶½à¶§à¶¯": 4712,
      "Ġà¶ĳà¶ļà·Ģà¶Ń": 4713,
      "Ġà·ĥà·Ħà¶»": 4714,
      "06": 4715,
      "à¶ºà¶ļà¶©": 4716,
      "à¶Ĩà¶°": 4717,
      "à¶¶à¶½à¶Ń": 4718,
      "Ġ360": 4719,
      "à¶³à·Ģà¶¸": 4720,
      "à¶ļà¶§à·Ģà¶Ń": 4721,
      "à¶Ńà¶»à·Ħ": 4722,
      "à¶§à¶½à¶ºà¶§": 4723,
      "à¶ºà¶½à¶ļ": 4724,
      "à¶½à¶¸à¶§": 4725,
      "à¶ľà¶½à¶ļ": 4726,
      "Ġà¶ĭà¶³": 4727,
      "Ġà·Ģà¶½à·Ģà¶½": 4728,
      "à¶īà·Ħà¶½": 4729,
      "Ġà¶´à¶¸à¶«à¶§": 4730,
      "à·Ħà¶»à¶±à¶ºà¶ļ": 4731,
      "à¶¶à¶½à¶ºà¶§": 4732,
      "Ġà¶ħà¶ļà¶»à¶Ń": 4733,
      "Ġà¶ľà¶ľà·Ħ": 4734,
      "Ġà¶įà¶Ń": 4735,
      "à¶¯à·Ħà¶¸à¶§": 4736,
      "Ġà¶±à·Ģà¶»à¶Ń": 4737,
      "Ġà·ĥà¶¸à¶§": 4738,
      "Ġ1984": 4739,
      "à¶±à·ĥà¶§": 4740,
      "Ġà·Ħà¶Ńà¶»à¶§": 4741,
      "Ġ1982": 4742,
      "à·Ģà¶ľà¶ļ": 4743,
      "à·Ħà¶©à·Ģ": 4744,
      "à¶°à¶¸à¶º": 4745,
      "Ġà¶ĭà¶»à¶ľ": 4746,
      "Ġà·Ģà¶§à·Ģ": 4747,
      "51": 4748,
      "Ġà·ĥà¶ľà·Ģ": 4749,
      "Ġ106": 4750,
      "Ġà¶ħà¶§à¶ļà¶§": 4751,
      "à·ĥà·Ħà¶Ń": 4752,
      "à·Ļà·Ļ": 4753,
      "à¶»à¶¢à¶ºà¶§": 4754,
      "à·ħà¶ľà¶§": 4755,
      "Ġà¶ĭà¶¯à¶»": 4756,
      "Ġà¶´à·Ħà¶»à·Ģà¶½": 4757,
      "à·ĥà·Ģà·ĥ": 4758,
      "à¶§à¶ļà¶¸": 4759,
      "Ġà·ĥà¶ºà¶±": 4760,
      "Ġ20101": 4761,
      "Ġ1979": 4762,
      "Ġà¶ºà¶±à·Ģà¶§": 4763,
      "Ġà¶±à¶©à¶º": 4764,
      "à·ģà¶±à·Ģà¶½à¶¯": 4765,
      "Ġà·Ģà¶±à¶±": 4766,
      "Ġà¶ħà·Ģà¶Ńà¶ļ": 4767,
      "Ġà¶īà·Ħà¶½à¶º": 4768,
      "à¶°à·Ģà¶º": 4769,
      "Ġà¶ļà¶»à·Ģà¶±à·Ģ": 4770,
      "à·Ħà¶½à¶ºà¶§": 4771,
      "Ġà¶¶à¶©à·Ģ": 4772,
      "à¶»à¶¶à¶½à¶Ń": 4773,
      "Ġà¶ħà·Ģà¶¸à¶±": 4774,
      "à¶»à¶·à·Ģà¶º": 4775,
      "à¶Ńà¶»à¶ºà¶ļà¶ľ": 4776,
      "Ġà¶§à·Ģà¶»": 4777,
      "Ġà¶½à¶§": 4778,
      "à¶¸à¶¬à¶½": 4779,
      "Ġà·Ĩà·ĥ": 4780,
      "à·ħà¶ºà¶±": 4781,
      "à®¿": 4782,
      "Ġà¶ĳà·Ģà¶´": 4783,
      "Ġà¶ĭà¶´à·ĥà¶¸": 4784,
      "Ġà¶¢à¶©": 4785,
      "Ġà¶»à¶¢à¶ļ": 4786,
      "Ġà¶Ŀà¶§": 4787,
      "Ġ1981": 4788,
      "00000000": 4789,
      "Ġà¶ļà¶½à¶¸": 4790,
      "à¶Ńà¶ºà¶§à¶Ń": 4791,
      "Ġà¶ħà¶¬à¶±à·Ģ": 4792,
      "Ġà¶»à·ĥà¶§": 4793,
      "Ġà·Ħà¶Ńà¶ļà¶§": 4794,
      "Ġà¶ĳà¶ļà¶ļà¶¯": 4795,
      "Ġà¶ħà·ĥà·Ħà¶±à¶º": 4796,
      "à¶ľà¶¸à¶±à¶ºà¶ļà¶§": 4797,
      "à¶±à·Ģà·Ģ": 4798,
      "Ġà·Ĩà¶ºà¶»": 4799,
      "à¶ļà¶ļà¶»à¶«à¶º": 4800,
      "52": 4801,
      "Ġà¶ľà·Ħà¶º": 4802,
      "Ġà¶»à¶§à¶ļà¶¸": 4803,
      "Ġà¶ķà¶½à¶±": 4804,
      "Ġ118": 4805,
      "ĠÃ": 4806,
      "à¶½à¶´à¶º": 4807,
      "à¶Ńà¶»à¶ºà¶±": 4808,
      "Ġà·Ħà¶©à¶ļ": 4809,
      "Ġà¶ĳà¶ļà¶ļà¶¸": 4810,
      "à¶±à¶»à¶ºà¶ļ": 4811,
      "à¶¯à¶»à¶§à¶¸": 4812,
      "à¶»à·Ħà·Ģ": 4813,
      "à·ĸâĢį": 4814,
      "à¶ļà¶»à¶±à¶ºà¶§": 4815,
      "âĸł": 4816,
      "Ġà¶¯à·ħà¶¹": 4817,
      "à¶©à·Ħ": 4818,
      "à¶ļà¶¸à¶½": 4819,
      "Ġà¶ĭà¶´à¶¯à·Ģ": 4820,
      "Ġ170": 4821,
      "Ġà¶´à·Ħà¶º": 4822,
      "à¶«à¶ºà¶º": 4823,
      "à¶ħà¶´à¶±à¶ºà¶±": 4824,
      "à¶Ńà¶¸à¶±à¶º": 4825,
      "à¶ħà¶±à·Ģà·ģ": 4826,
      "à¶©à¶¸à¶±": 4827,
      "Ġà¶ĩà¶±à¶½": 4828,
      "Ġà·Ģà¶ºà¶½": 4829,
      "à·Ģà¶»à¶«à¶ºà¶ļà¶¯": 4830,
      "Ġà¶ļà¶´à¶±à·Ģ": 4831,
      "Ðº": 4832,
      "Ð»": 4833,
      "Ġà¶´à¶½à·Ģà¶±": 4834,
      "Ġà¶¶à¶½à¶¸à¶«": 4835,
      "Ġà¶¸à·ħà·ĥ": 4836,
      "à¶ľà¶ľà¶Ń": 4837,
      "à¶±à¶½à¶º": 4838,
      "à¶Ńà¶»à¶Ł": 4839,
      "à¶¸à¶Ńà¶ļà¶¯": 4840,
      "Ġà¶ĩà¶ľà¶§": 4841,
      "Ġà¶Ĭà¶½à¶Łà¶§": 4842,
      "Ġà·Ģà·Ħà¶ľà¶±": 4843,
      "à¶½à·Ģà¶¸": 4844,
      "Ġà¶Ńà·Ģà¶»": 4845,
      "Ġ107": 4846,
      "à¶¸à·Ħà¶¢à¶±à¶Ń": 4847,
      "à¶»à·ħà¶º": 4848,
      "68": 4849,
      "à¶ļà¶´à¶Ń": 4850,
      "à¶ļà¶¸à¶ļà¶§": 4851,
      "Ġà¶´à¶½à¶½": 4852,
      "Ġà¶Ĩà·ĥà¶±à¶ºà¶ļ": 4853,
      "à¶ħà¶»à¶ļ": 4854,
      "à¶ħà¶±à¶±": 4855,
      "à¶»à·ħà¶¶à¶©": 4856,
      "Ġà·Ģà¶©à¶¸": 4857,
      "à¶īà¶©": 4858,
      "à¶½à¶»à¶ºà¶ļ": 4859,
      "à¶¯à·Ģà¶Ń": 4860,
      "Ġà¶ĩà¶ºà¶Ń": 4861,
      "Ġà¶Ĵà·Ħ": 4862,
      "Ġà¶ĭà¶¢": 4863,
      "Ġà¶ĭà¶ºà¶½": 4864,
      "à¶ĳà¶ļà¶´": 4865,
      "69": 4866,
      "à¶®à¶Ń": 4867,
      "à¶©à¶±à¶Łà¶±": 4868,
      "à¶ĭà¶¯à¶º": 4869,
      "à¶¯à·ħà¶¯": 4870,
      "Ġà¶¶à¶½à¶ºà¶±": 4871,
      "Ġà¶īà¶©à¶ļà¶©à¶¸": 4872,
      "à¶±à·Ħà·ħ": 4873,
      "Ġ1947": 4874,
      "à¶½à¶ļà¶ľ": 4875,
      "Ġà¶ħà·ĥà·Ħà¶±": 4876,
      "Ġà¶·à¶¯": 4877,
      "à¶Ľà¶ºà¶ļ": 4878,
      "à·ģà¶±à¶ºà¶ļà¶§": 4879,
      "à¶¸à·Ģà¶º": 4880,
      "à·ĥà¶¯à¶±": 4881,
      "1960": 4882,
      "1948": 4883,
      "Ġà·Ħà¶ºà¶¯": 4884,
      "à¶Ķà¶ł": 4885,
      "Ġà·ĥà¶´à¶ºà¶±à·Ģ": 4886,
      "Ġà¶ħà¶§à·Ģà¶±": 4887,
      "08": 4888,
      "à·ģà¶±à·Ģà¶½à¶§": 4889,
      "Ġà¶¸à·Ħà¶»à·Ħà¶Ńà¶±": 4890,
      "à¶¸à·ĥà¶¸": 4891,
      "à·ħà¶´à¶Ń": 4892,
      "Ġà¶ļà·Ģà¶»à¶¯": 4893,
      "à¶łà·Ģ": 4894,
      "à¶±à¶±à¶º": 4895,
      "Ġà¶īà¶½à¶±": 4896,
      "Ġ104": 4897,
      "à¶±à¶ľà¶Ńà·Ģ": 4898,
      "à¶ħà¶»à¶¸": 4899,
      "à¶ºà·ĥà¶±à¶ºà¶ļ": 4900,
      "à¶³à¶Ń": 4901,
      "Ġà·ĥà·Ħà·ĥ": 4902,
      "53": 4903,
      "Ġà¶¯à¶±à·Ģ": 4904,
      "Ġà¶·à¶§à¶´": 4905,
      "à·Ħà¶»à¶´": 4906,
      "à¶Ńà¶±à¶ļ": 4907,
      "à¶½à¶»à¶ºà¶§": 4908,
      "Ġà¶ĩà¶³à¶´": 4909,
      "1978": 4910,
      "à¶±à·ħ": 4911,
      "Ġà¶´à¶½à¶º": 4912,
      "Ġà¶ħà¶»à·Ħ": 4913,
      "à¶¸à¶³": 4914,
      "Ġà¶ľà¶±à¶º": 4915,
      "à¶»à·ĥà¶½": 4916,
      "à·Ĵà·Ĭ": 4917,
      "Ġà¶Ĵà·ĥ": 4918,
      "Ġà¶ĭà·Ħ": 4919,
      "à¶½à·Ģà¶ļà·Ģ": 4920,
      "Ġà¶ħà¶»à¶¶à¶º": 4921,
      "Â¼": 4922,
      "Ġà¶ħà·Ģà¶¢": 4923,
      "à¶īà¶§": 4924,
      "à¶łà¶»à¶ļ": 4925,
      "Ġà¶ĳà¶´à¶¸à¶«": 4926,
      "à¶»à¶¯à¶º": 4927,
      "à¶ĭà¶¶à¶½": 4928,
      "Ġà¶¢à¶±à¶ľà·Ħà¶±": 4929,
      "ÙĦ": 4930,
      "à¶ļà¶¸à¶¯": 4931,
      "Ġà·ĥà¶³à¶ļ": 4932,
      "Ġà¶¯à¶«à·Ħ": 4933,
      "à¶»à¶ļà¶Ńà¶±à¶ºà¶ļ": 4934,
      "à¶¢à¶·": 4935,
      "à¶±à¶ļà·Ģà¶Ń": 4936,
      "à¶»à·ĥà·Ģ": 4937,
      "Ġà¶»à¶§à¶§à¶Ń": 4938,
      "Ġà·ĥà¶½à¶ļà¶½": 4939,
      "à¶¯à¶»à¶ļà¶§": 4940,
      "Ġ128": 4941,
      "Ġ365": 4942,
      "Ġ112": 4943,
      "Ġà¶¸à¶ļà¶±": 4944,
      "Ġà¶ĳà¶ļà¶½à·ĥ": 4945,
      "à¶ºà¶±à¶ºà¶ļà¶§": 4946,
      "Ġà¶Ĵà·Ĥ": 4947,
      "à·ĥà¶¸à¶ľ": 4948,
      "à¶½à·Ģà¶ºà¶§": 4949,
      "à¶½à¶ľà¶¸": 4950,
      "à¶©à¶Ńà¶½": 4951,
      "à¶ľà·ĥà¶±": 4952,
      "à¶ľà·Ħà¶±à·Ģ": 4953,
      "à·ģà·Ģà¶½à¶¯": 4954,
      "à·ģà¶±à·Ģ": 4955,
      "à¶ĩà·Ģà¶±": 4956,
      "1971": 4957,
      "à¶´à¶«à¶ºà¶ļ": 4958,
      "à¶´à·Ħà¶»": 4959,
      "Ġà¶ļà¶»à¶¯à¶»à¶º": 4960,
      "à¶ºà¶ļà¶»à¶±": 4961,
      "Ġà·Ħà¶ºà·Ģ": 4962,
      "à¶¯à·Ģà¶¸": 4963,
      "à¶ļà¶·": 4964,
      "à·ĥà·Ģà¶½à¶§": 4965,
      "à¶ļà¶»à¶§": 4966,
      "à¶ħà¶ºà¶¯": 4967,
      "Ġà¶ħà¶ºà¶¸": 4968,
      "Ġà¶ļà¶½à¶»": 4969,
      "Ġà¶¸à¶Ńà¶ºà¶±": 4970,
      "Ġà¶ħà·ĥà¶»": 4971,
      "Ġ8000": 4972,
      "à·Ģà¶»à¶¯à·Ģ": 4973,
      "à¶±à·ģ": 4974,
      "Ġ1976": 4975,
      "Ġà¶¯à¶Łà¶ļ": 4976,
      "Ġ0000": 4977,
      "à¶°à·ģ": 4978,
      "Ġà¶ļà¶§à·Ħà¶©": 4979,
      "Ġ175": 4980,
      "61": 4981,
      "à¶°à¶»à¶º": 4982,
      "à¶Ĵà¶¸": 4983,
      "à¶µà¶½à¶¯": 4984,
      "Ġà¶»à¶¢à·Ģ": 4985,
      "Ġà¶ºà¶±à·Ģà¶±à¶¸": 4986,
      "Ġà¶´à·Ħà¶±à¶ļ": 4987,
      "Ġà¶Ńà¶º": 4988,
      "64": 4989,
      "Ġà¶°à¶±à·ĥ": 4990,
      "Ġà¶µà¶½à¶ºà¶ļ": 4991,
      "1983": 4992,
      "à¶»à¶ļà¶©": 4993,
      "à¶ļà¶ļà¶§à¶º": 4994,
      "ĠØ§": 4995,
      "à¶ļà¶»à¶ºà¶§": 4996,
      "ĠØ": 4997,
      "Ġà¶īà¶»à¶ļ": 4998,
      "à¶»à¶¢à¶»à¶§": 4999,
      "à¶¶à¶ļà¶»": 5000,
      "Ġà¶¢à¶±à¶¸à¶Ńà¶º": 5001,
      "à¶ľà¶´à¶±": 5002,
      "Ġà¶Ńà¶½à¶ºà¶§": 5003,
      "à·Ģà¶±à¶¢": 5004,
      "à¶ºà¶¸à·Ģ": 5005,
      "à¶½à¶§à¶º": 5006,
      "Ġà¶ºà·Ģà¶´": 5007,
      "Ġà¶ķà·Ģà¶»à¶º": 5008,
      "Ġà¶ļà·Ģà¶»à¶º": 5009,
      "Ġà¶ħà¶Ńà¶±": 5010,
      "à¶ĭà¶¯à·Ģ": 5011,
      "Ġà¶ħà¶¸à¶Ńà¶ļà¶º": 5012,
      "Ġà¶»à¶Łà¶±": 5013,
      "79": 5014,
      "Ġà¶±à¶§à¶±à·Ģ": 5015,
      "Ġà¶ļà¶»à¶±à¶½à¶¯": 5016,
      "à¶ļà·ħà¶Ń": 5017,
      "Ġ103": 5018,
      "Ġà¶¸à¶»à¶±à·Ģ": 5019,
      "Ġà¶¢à¶½à·ĥà¶¸": 5020,
      "à¶ľà·Ħà¶ľ": 5021,
      "à·Ģà¶³à¶ļ": 5022,
      "à¶½à¶ļà¶¸": 5023,
      "à·Ħà¶Ł": 5024,
      "à¶©à·Ģà¶Ń": 5025,
      "Ġà¶¸à¶Łà¶ļ": 5026,
      "Ġ108": 5027,
      "Ġà¶¸à·ħà·Ģ": 5028,
      "à¶ľà¶¢": 5029,
      "Ġà¶ĳà¶±à·Ģà¶±": 5030,
      "Ġà¶ºà·Ħà¶½": 5031,
      "à¶ºà¶½à¶ľ": 5032,
      "à¶ºà·Ģà¶©à¶±": 5033,
      "à¶±à¶»à¶ļ": 5034,
      "à·ĥà¶ľà¶¸": 5035,
      "à¶½à·Ģà¶§": 5036,
      "Ġà¶ħà¶½à·Ģà¶±": 5037,
      "Ġà¶ķà¶±à¶º": 5038,
      "Ġà¶ħà¶ºà¶§à¶º": 5039,
      "à¶¶à·Ģà¶ļ": 5040,
      "à¶»à¶«à¶¯": 5041,
      "Ġ117": 5042,
      "à¶ĳà¶ºà¶¯": 5043,
      "Ġà¶¸à·ħà¶½": 5044,
      "Ġà¶ħà¶¸à¶»à¶´": 5045,
      "à¶¸à¶½à¶ľ": 5046,
      "Ġà¶Ĩà·Ģà·Ħà¶¸": 5047,
      "à·Ģà·ģà¶º": 5048,
      "à¶¯à¶ºà¶ļà¶¯": 5049,
      "à¶±à¶Ńà¶ļ": 5050,
      "à¶»à¶§à¶¯": 5051,
      "à·ħà¶³à¶´à¶½": 5052,
      "à¶½à¶ļà¶½": 5053,
      "Ġà¶ļà¶©à¶´": 5054,
      "à¶¸à¶½à·Ģ": 5055,
      "Ġ1930": 5056,
      "Ġà¶ľà¶Ńà¶ļà·ħ": 5057,
      "à¶¯à¶±à·Ģà¶½": 5058,
      "Ġà¶ĩà¶±à·Ģ": 5059,
      "Ġà·ĥà¶¸à¶ł": 5060,
      "Ġà·ĥà¶¸à¶»à¶¸": 5061,
      "à¶Ńà·Ħà¶±à¶¸": 5062,
      "Ġà¶ĭà¶¸à¶ľ": 5063,
      "à¶¶à¶¯à·Ģà¶º": 5064,
      "Ġà¶ħà¶ľà¶ºà¶¸": 5065,
      "09": 5066,
      "Ġà¶Ķà¶¶à¶º": 5067,
      "Ġà¶¶à¶½à·ĥà¶¸": 5068,
      "Ġà¶¯à·Ħà·ĥà¶º": 5069,
      "62": 5070,
      "Ġà¶¸à¶¸à¶¸": 5071,
      "à¶ħà¶¯à¶§": 5072,
      "à¶łà¶ļà¶ºà¶±": 5073,
      "à¶Ĩà¶´à·ĥ": 5074,
      "Ġà¶Ńà¶»à¶Łà¶ļà¶»": 5075,
      "Ġà¶Ĩà¶Ľ": 5076,
      "à¶Ĵà·Ģà¶§": 5077,
      "à¶Ĩà¶±à¶ºà¶±": 5078,
      "à¶»à¶ºà¶ļà¶¯": 5079,
      "à·ħà¶Łà¶¯": 5080,
      "à¶ĭà¶¶à¶§": 5081,
      "à¶Ŀà·Ģ": 5082,
      "Ġà¶ĭà·Ģà¶Ń": 5083,
      "à·ħà¶¹à·Ģà¶±": 5084,
      "à¶¸à·Ģà¶½à¶§": 5085,
      "à¶¸à¶¤": 5086,
      "Ġà¶»à·Ģà¶§à¶±": 5087,
      "Ġà¶īà¶½à·Ģ": 5088,
      "Ġ1975": 5089,
      "Ġ135": 5090,
      "à¶ľà¶¸à¶±à¶ļ": 5091,
      "Ġà¶Ĵà¶¶": 5092,
      "Ġà¶Ńà¶½à¶±": 5093,
      "à·Ģà¶»à¶°": 5094,
      "à¶»à¶¸à·ģ": 5095,
      "Ġ123": 5096,
      "à¶§à¶±à·Ģ": 5097,
      "Ġà·Ħà¶»à·Ģà¶½": 5098,
      "Ġà¶ĳà·ħà·Ģà¶±": 5099,
      "Ġà¶ºà·Ħà¶Ń": 5100,
      "à¶°à¶±à¶´à¶Ń": 5101,
      "Ġà·Ģà¶³à·Ģ": 5102,
      "Ġ111": 5103,
      "à¶°à¶ľà¶º": 5104,
      "à¶¸à¶»à¶Ńà¶±": 5105,
      "Ġà¶¸à¶§à¶¯": 5106,
      "à·ĥà¶§à¶¯": 5107,
      "à¶¯à·Ģà¶º": 5108,
      "Ġà¶ħà¶»à¶º": 5109,
      "Ġà¶ļà¶½à¶¶à¶½à¶ļ": 5110,
      "54": 5111,
      "Ġà¶½à¶ľà¶¸": 5112,
      "Ġ102": 5113,
      "à¶´à·Ģà¶½à¶§": 5114,
      "Ġà¶ĩà¶©à¶¸": 5115,
      "Ġà¶±à·Ģà¶ļà¶®": 5116,
      "1987": 5117,
      "à¶°à¶ļà¶ºà¶±": 5118,
      "à¶½à¶±à¶ºà¶±": 5119,
      "âģ£": 5120,
      "Ġà¶Ĵà¶ļà¶´": 5121,
      "à·ĥà¶¸à¶Ń": 5122,
      "à¶½à¶ºà¶¯": 5123,
      "à¶Ńà¶¸à¶ºà¶±": 5124,
      "Ġà¶Ĩà¶Ŀ": 5125,
      "Ġà¶ºà¶±à·Ģà¶½": 5126,
      "Ġà¶įà¶«": 5127,
      "à¶ħà¶»à¶½": 5128,
      "98": 5129,
      "à¶§à¶ľà¶¸": 5130,
      "Ġà·Ħà·ĥà¶»": 5131,
      "à¶ľà¶¸à¶¯": 5132,
      "Ġà·ĥà¶¸à¶ľà¶¯": 5133,
      "à¶Ĩà¶ºà¶Ńà¶±": 5134,
      "Ġà¶ħà·ĥà¶»à¶«à·Ģ": 5135,
      "à¶¹à¶»": 5136,
      "à¶®à¶ļà¶®": 5137,
      "Ġà¶Ńà¶»à¶±": 5138,
      "à¶Ľà¶»": 5139,
      "Ġ122": 5140,
      "Ġà¶ļà¶½à¶¶à¶½à¶ºà¶ļ": 5141,
      "Ġà·Ģà¶¸à¶±": 5142,
      "à¶´à¶»à·Ģ": 5143,
      "Ġà¶ĩà¶§à¶ºà¶ļ": 5144,
      "à¶¸à¶½à¶§": 5145,
      "à·ĥà¶»à¶½à·Ģ": 5146,
      "à¶¶à·Ģà¶§": 5147,
      "Ġà¶ħà¶ľà·Ħà¶»": 5148,
      "à¶¸à¶½à¶ļ": 5149,
      "à¶»à¶ļà¶¸à¶§": 5150,
      "à¶¯à¶»à¶ľ": 5151,
      "à¶¸à·Ħà¶¸": 5152,
      "1989": 5153,
      "à¶§à¶»à¶§à·Ģà¶½": 5154,
      "Ġà·Ģà·ħà¶³": 5155,
      "à·ĥà¶»à¶§": 5156,
      "Ġà¶ľà¶¸à¶±à¶ļà¶§": 5157,
      "Ġà¶¸à¶ļà¶½": 5158,
      "à¶Łà¶ºà¶§": 5159,
      "Ġà¶Ńà¶»à¶ľà·Ģà¶½": 5160,
      "âĹ": 5161,
      "Ġà¶ļà¶¶à¶©": 5162,
      "à¶Ķà¶ºà¶ľ": 5163,
      "Ġà¶ħà·ĥà·Ħ": 5164,
      "à¶°à¶ľ": 5165,
      "Ġà·ĥà·Ħà¶¶": 5166,
      "à¶¸à¶ļà¶§à¶¯": 5167,
      "Ġà¶ļà·Ģà¶º": 5168,
      "à·ĺà¶Ĥ": 5169,
      "Ġà¶ĭà¶©à¶¸": 5170,
      "Ġà¶»à¶łà¶ļ": 5171,
      "à¶»à¶«à·ģ": 5172,
      "Ġ7000": 5173,
      "Ġà¶Ĵà¶½": 5174,
      "à¶ħà·Ħà¶¸": 5175,
      "Ġà¶ĳà¶ļà¶ľà¶º": 5176,
      "à·ĥà¶³à¶»": 5177,
      "72": 5178,
      "à·Ħà¶»à¶«à¶ºà¶§": 5179,
      "Ġà·Ģà¶»à¶ļà¶§": 5180,
      "à¶ºà¶»à¶§": 5181,
      "à¶ºà¶±à¶±": 5182,
      "à¶īà¶³à¶½": 5183,
      "à¶»à¶¸à·Ħ": 5184,
      "à·ĥà¶ºà¶ľ": 5185,
      "Ġà¶ĳà¶ļà¶ļà¶§à¶¸": 5186,
      "ðŁĳĮðŁĳĮðŁĳĮðŁĳĮðŁĳĮðŁĳĮðŁĳĮðŁĳĮðŁĳĮðŁĳĮðŁĳĮðŁĳĮðŁĳĮðŁĳĮðŁĳĮðŁĳĮ": 5187,
      "à¶ľà·Ħà¶ļ": 5188,
      "Ġà¶¶à¶½à¶Ń": 5189,
      "Ġà¶»à·Ĥ": 5190,
      "Ġ220": 5191,
      "à·Ģà¶¸à¶¯": 5192,
      "à¶ĭà¶´à¶»": 5193,
      "à·ģà·Ģà¶ļà¶»": 5194,
      "Ġïĳ": 5195,
      "à·Ĳà·Ļ": 5196,
      "à¶Ŀà¶§à¶ļ": 5197,
      "Ġ030": 5198,
      "Ġà¶ħà¶¹à¶»": 5199,
      "à·Ĵà·ĵ": 5200,
      "Ġà¶Ńà·Ģà¶ļ": 5201,
      "à¶´à¶ºà¶»": 5202,
      "Ġà¶Ńà¶»à¶ľà¶ºà¶ļà¶§": 5203,
      "à¶ĳà¶Ńà¶»à¶¸": 5204,
      "à¶ħà¶¸à¶»à¶Ń": 5205,
      "à¶±à¶½à·Ģ": 5206,
      "1998": 5207,
      "à¶¹à¶ºà¶ļ": 5208,
      "à¶Ĩà¶¯à¶»à¶«": 5209,
      "à¶ļà¶»à¶«à¶ºà¶ļà¶§": 5210,
      "Ġà·Ģà¶°à¶ļ": 5211,
      "Ġà¶ħà¶·à¶ºà¶ľ": 5212,
      "Ġà¶ĩà¶´à¶ļà¶»": 5213,
      "Ġà¶¸à¶»à¶«à¶ºà¶Ń": 5214,
      "à¶½à·Ģà¶ºà·ĥ": 5215,
      "à¶»à¶¶à¶½à¶¸": 5216,
      "à·Ģà¶¸à¶Ń": 5217,
      "Ġà¶¶à¶§à¶±": 5218,
      "Ġà¶ļà¶«à¶§": 5219,
      "Ġïĳ¤": 5220,
      "à·ĥà¶¸à¶Ł": 5221,
      "à¶łà¶ºà¶±": 5222,
      "à¶´à¶ļà¶»à¶«à¶º": 5223,
      "Ġ2025": 5224,
      "âĢĽ": 5225,
      "Ġà¶ĳà¶½à¶ļ": 5226,
      "à¶®à¶ļà¶¸": 5227,
      "à¶ħà¶ľà·Ģ": 5228,
      "à·ģà¶ļà·Ģà¶»": 5229,
      "à¶ºà¶ļà¶§à¶Ń": 5230,
      "Ġà¶ķà·Ģà¶½": 5231,
      "Ġà¶ķà¶ļà¶º": 5232,
      "Ġà¶Ķà¶ºà¶§": 5233,
      "à¶¸à·Ģà¶»": 5234,
      "à¶«à¶ļà¶»à¶«à¶º": 5235,
      "à·ĥà¶ļà¶ºà¶±": 5236,
      "Ġà¶ļà¶©à¶¸": 5237,
      "Ġà¶¶à¶Ńà¶½": 5238,
      "Ġà¶īà·Ģà¶ļ": 5239,
      "à¶»à¶¸à¶«à¶ºà¶ļ": 5240,
      "Ġà¶¯à¶¸à¶±à¶º": 5241,
      "à·ħà·Ģà¶§": 5242,
      "Ġà¶¢à¶±à¶ľà¶Ń": 5243,
      "à¶ľà¶½à¶¸": 5244,
      "Ġà¶½à·Ģà¶«": 5245,
      "Ġà¶ĭà¶´à¶Ńà¶ļ": 5246,
      "à¶Ķà·Ĩ": 5247,
      "Ġà·ĥà¶¸à¶®à¶ºà¶ļà¶§": 5248,
      "à¶¶à·Ģà¶Ń": 5249,
      "à¶Ĵà¶ļà¶§à¶Ń": 5250,
      "à·Ħà¶¬à¶Ń": 5251,
      "Ġà¶¢à¶±à·ĥà¶Ń": 5252,
      "Ġà¶ĭà¶»à¶«": 5253,
      "à¶ľà¶±à¶±": 5254,
      "Ġà¶ħà¶ľà¶·": 5255,
      "Ġà¶©à¶ºà¶±": 5256,
      "Ġà¶Įà¶±à¶Ń": 5257,
      "à·Ħà¶¸à¶º": 5258,
      "Ġà·ĥà¶¯à¶»": 5259,
      "à¶ºà¶ļà¶½": 5260,
      "à¶ļà¶½à¶±à¶º": 5261,
      "à¶°à¶ºà¶º": 5262,
      "Ġà¶ķà¶±à·Ģà¶§": 5263,
      "73": 5264,
      "Ġà¶Ĩà¶±à¶ºà¶±à¶ļà¶»": 5265,
      "Ġà·Ģà¶ľà¶Ń": 5266,
      "Ġ138": 5267,
      "à¶¸à·Ħà¶¶": 5268,
      "1996": 5269,
      "à·ĺà·ĺ": 5270,
      "à¶³à·ĥ": 5271,
      "à¶¸à¶Ńà¶ºà¶±": 5272,
      "à¶¡à¶Ń": 5273,
      "Ġà·Ģà·Ħà¶½à¶ļ": 5274,
      "à·ĥà¶¸à¶±à¶½": 5275,
      "Ġà·Ģà·Ħà¶»": 5276,
      "Ġà¶»à¶ºà¶±": 5277,
      "Ġà¶ĳà¶»à¶§à¶§": 5278,
      "à¶¶à¶»à¶¸": 5279,
      "500": 5280,
      "à¶½à¶ļà·ĥ": 5281,
      "Ġà¶Įà¶Ń": 5282,
      "à·ĥà¶»à¶¯à¶ºà¶ļ": 5283,
      "à·ħà¶¶": 5284,
      "à¶±à·Ģà¶Ńà¶¸": 5285,
      "à¶Ńà¶ļà¶ºà¶ļ": 5286,
      "Ġà¶ļà·ģ": 5287,
      "à¶ĭà¶»": 5288,
      "à¶¯à¶ļà¶ºà¶ļ": 5289,
      "à¶¨à·Ģ": 5290,
      "94": 5291,
      "Ġà¶¯à¶ľà¶½à¶±": 5292,
      "à·Ĥà¶ºà¶ºà¶ļ": 5293,
      "à¶§à¶»à¶ºà¶§": 5294,
      "Ġà¶´à·Ģà¶ļ": 5295,
      "Ġà¶ļà·ħà·Ģ": 5296,
      "Ġà·ĥà¶Ńà¶ºà¶ļ": 5297,
      "Ġà¶©à¶±": 5298,
      "Ġà¶±à¶»à¶¹à¶¸": 5299,
      "Ġà·Ħà¶ºà¶§": 5300,
      "Ġà·ĥà¶ļà¶»": 5301,
      "à·Ģà¶«à¶ļ": 5302,
      "à·ĥà¶±à¶ºà¶ļ": 5303,
      "Ġà¶±à·Ģà¶Ńà¶±": 5304,
      "Ġà¶īà¶º": 5305,
      "à¶»à·ħà¶±": 5306,
      "Ġà¶ļà·Ģà¶¯à¶¯": 5307,
      "Ġà¶¯à¶¸à¶ºà¶±": 5308,
      "Ġà¶¢à¶±à·Ģà¶»à¶¸": 5309,
      "à·Ħà¶±à·Ģà¶½à¶§": 5310,
      "Ġà·Ħà¶Ńà¶º": 5311,
      "à¶°à¶ºà¶Ń": 5312,
      "Ġà¶ħà·Ģà·ģà¶º": 5313,
      "à¶±à¶ļà¶¸à¶ļ": 5314,
      "à·ĥà¶³à¶ľà¶±": 5315,
      "à¶´à¶½à¶Ń": 5316,
      "à¶±à·Ģà¶ļà¶Ń": 5317,
      "à¶ħà·Ģà¶§": 5318,
      "à·Ģà¶§à·Ģà¶Ń": 5319,
      "à¶ľà¶±à¶ļà¶º": 5320,
      "Ġà¶ĭà¶¹à¶ľ": 5321,
      "Ġà¶ľà·Ħà¶¸": 5322,
      "à¶»à¶«à·Ģà¶½à¶§": 5323,
      "à¶ºà¶ºà¶±à¶ºà¶±": 5324,
      "Ġà·Ģà¶½à¶§à¶¸": 5325,
      "à·ĥà¶Ńà¶»": 5326,
      "à¶ľà¶Ńà¶´": 5327,
      "Ġà¶ļà¶½à¶¶à¶½à¶ºà¶§": 5328,
      "à¶ľà¶¶": 5329,
      "à¶¯à¶»à¶ļà¶¸": 5330,
      "à¶ħà¶¸à¶»à¶¯": 5331,
      "à¶´à¶ºà¶ļà¶§à¶¸": 5332,
      "1999": 5333,
      "Ġà¶ħà¶§à·ĥ": 5334,
      "Ġà¶ĩà¶§à·Ģ": 5335,
      "à·ĥà¶¸à¶»": 5336,
      "à¶§à¶ļà¶Ń": 5337,
      "Ġà¶ħà·ĥà¶º": 5338,
      "Ġà¶¶à¶»à¶§": 5339,
      "Ġà¶ħà¶Ńà¶§à¶¸": 5340,
      "Ġà¶ķà¶©": 5341,
      "à¶»à·ĥà¶ºà¶§": 5342,
      "à¶Ĩà¶¸": 5343,
      "Ġà¶¸à·Ħà¶¸à¶ľ": 5344,
      "Ġà¶¶à¶½à¶½à¶¸": 5345,
      "à¶¸à¶Ńà¶ļà¶º": 5346,
      "à¶¶à¶±à¶±à¶º": 5347,
      "Ġà¶»à·ĥà¶¯": 5348,
      "à¶ļà¶©à¶º": 5349,
      "à¶§à¶¶": 5350,
      "Ġ650": 5351,
      "à¶ļà¶½à¶±": 5352,
      "à¶§à·ĥà¶º": 5353,
      "Ġà¶°à¶±à¶´": 5354,
      "Ġà¶ļà¶»à¶¯à¶»à¶ļ": 5355,
      "à¯ģ": 5356,
      "à¶Ńà¶¥à¶Ń": 5357,
      "ĠÎ": 5358,
      "à·Ħà¶«à¶º": 5359,
      "à·Ĥà¶·": 5360,
      "à¶¢à·Ģà¶½": 5361,
      "à¶Ĭà·ĥ": 5362,
      "à¶Ľà¶±à¶ľà¶Ń": 5363,
      "Ġà·ħà¶¸à¶ºà¶ľ": 5364,
      "à¶ºà¶¹": 5365,
      "Ġà¶ļà¶Ńà¶»": 5366,
      "Ġà·Ģà¶»à¶ºà¶ļ": 5367,
      "Ġà¶ħà¶©à·ĥ": 5368,
      "à¶¢à·ģ": 5369,
      "Ġà¶Ĭà¶½à¶¸": 5370,
      "à¶¯à¶½à¶¸": 5371,
      "Ġà¶ĭà¶©à·Ģà¶½à·Ģ": 5372,
      "à·ĥà¶»à¶¯à¶º": 5373,
      "Ġà¶¢à¶±à¶ľà·Ħà¶±à¶ºà¶ļ": 5374,
      "à®ķ": 5375,
      "Ġà¶ħà·ĥà¶½à¶¸": 5376,
      "à·Ģà·Ħà¶Ń": 5377,
      "à¶´à¶®à¶º": 5378,
      "à¶°à¶±à¶§": 5379,
      "à¶ļà·Ģà¶½à¶Ń": 5380,
      "Ġà¶»à·Ħà¶º": 5381,
      "à¶¶à¶»à¶´à¶Ńà¶½": 5382,
      "Ø±": 5383,
      "Ġà·ĥà¶±à·ĥ": 5384,
      "à¶ľà¶»à¶ºà¶ļ": 5385,
      "Ġ1965": 5386,
      "à¶¢à¶±à¶ļà¶º": 5387,
      "Ġà¶ļà¶«à¶´": 5388,
      "à¶¶à¶½à¶´à¶Ń": 5389,
      "1956": 5390,
      "à¶§à¶ļà¶§": 5391,
      "à¶¶à¶±à¶¸": 5392,
      "à¶»à¶¸à¶ºà¶Ń": 5393,
      "Ġà¶½à¶¶à¶¯": 5394,
      "Ġà¶¸à¶ľà·Ħà¶»": 5395,
      "Ġ2030": 5396,
      "à·Ģà¶ºà¶§à¶Ń": 5397,
      "Ġà·Ģà¶±à·ĥà¶±": 5398,
      "Ġà¶´à¶½à¶ļà¶»": 5399,
      "Ġà¶ĭà¶©à¶ľ": 5400,
      "Ġà¶ħà¶³à·Ħà·ĥ": 5401,
      "à¶½à¶±à¶¥à¶ºà¶ļ": 5402,
      "à¶Ľà¶«à¶º": 5403,
      "à¶»à¶´à¶»": 5404,
      "Ġà·Ħà¶ºà·ĥ": 5405,
      "Ġà¶»à¶¶": 5406,
      "à·ħà¶³à¶ľ": 5407,
      "Ġà¶¶à·Ħà¶»": 5408,
      "Ġ155": 5409,
      "à¶Ńà¶»à¶Łà¶º": 5410,
      "Ġà¶īà¶»à¶§": 5411,
      "Ġà¶ħà·Ħà¶±à¶ļ": 5412,
      "Ġà¶Įà¶»à¶±": 5413,
      "Ġà¶´à·Ħà·ħà·Ģ": 5414,
      "à¶§à¶ľà¶±à¶º": 5415,
      "Ġà¶ĭà¶§": 5416,
      "Ġà¶Ĭà·ħà¶¸": 5417,
      "Ġà¶¢à¶Ń": 5418,
      "Ġà¶ħà¶¯à¶ļ": 5419,
      "Ġà¶Ńà¶»à¶ľà·Ģà¶½à¶¯": 5420,
      "Ġà¶ĩà¶³à¶ļ": 5421,
      "à·Ħà¶¸à¶©": 5422,
      "Ġà¶ħà¶Ńà¶»à¶¸à¶Ł": 5423,
      "à·Ģà¶ł": 5424,
      "Ġà¶±à·Ģà¶ļà¶º": 5425,
      "à·Ħà¶¸à¶±": 5426,
      "Ġà¶ļà¶¸à¶º": 5427,
      "à¶±à·Ģà¶ºà¶±": 5428,
      "à¶łà¶½à¶±à¶º": 5429,
      "Ġà¶©à¶»": 5430,
      "Ġà¶ļà·Ħà·Ģà¶Ń": 5431,
      "à·Ĥà¶¸à¶±": 5432,
      "Ġà¶Ĭà¶¶": 5433,
      "à¶»à¶¸à¶ľ": 5434,
      "Ġà¶Ĭà¶ºà¶¸": 5435,
      "Ġà¶´à¶½à¶´": 5436,
      "Ġà¶ĳà¶ļà¶¸à¶º": 5437,
      "Ġà¶ļà¶½à¶¶à¶½à¶º": 5438,
      "Ġà¶Ĩà¶ľà¶¸à¶ļà¶§": 5439,
      "à¶¶à·Ģà¶º": 5440,
      "à¶°à¶±à¶ºà¶Ń": 5441,
      "à¶ľà¶±à·Ģ": 5442,
      "à¶±à¶¸à¶Ń": 5443,
      "à¶ļà¶®à¶±à¶º": 5444,
      "Ġà¶ľà¶Łà¶ļ": 5445,
      "Ġà¶ĳà¶»à¶±": 5446,
      "à·Ĥà¶«à¶ºà¶Ń": 5447,
      "ĠâĢįâĢįâĢį": 5448,
      "Ġà¶ļà¶®à¶±à¶º": 5449,
      "à¶¯à¶ºà¶¯": 5450,
      "à¶¢à¶ºà·Ģ": 5451,
      "à·ĥà·Ħà¶½": 5452,
      "à¶¸à¶Ńà·Ģ": 5453,
      "à·Ģà¶łà¶±à¶ºà¶ļ": 5454,
      "Ġà¶ħà¶¹à¶±": 5455,
      "Ġ1968": 5456,
      "Ġà·ĥà¶»à¶½à¶º": 5457,
      "Ġà¶ľà·Ħà¶±à¶º": 5458,
      "Ġà¶Ĩà·Ģà¶±": 5459,
      "à¶¸à¶Ńà¶ºà¶ļ": 5460,
      "Ġ25000": 5461,
      "Ġà¶ļà¶½à¶¸à¶«": 5462,
      "à¶ºà·Ģà·ĥà¶§": 5463,
      "à¶®à¶ľ": 5464,
      "Ġà¶ĭà¶´à¶ļà¶»à¶±": 5465,
      "Ġ1917": 5466,
      "Ġà·Ģà¶»à¶¯à¶ļà¶§": 5467,
      "à·Ħà¶¯à·ģ": 5468,
      "à·Ħà¶ºà¶ļà¶§": 5469,
      "à¶ľà¶ºà¶¸": 5470,
      "Ġà¶ļà¶§à¶ĭà¶Ń": 5471,
      "Ġà¶´à¶Ńà¶§": 5472,
      "Ġà¶ħà¶»à¶ľà¶½à¶ºà¶±": 5473,
      "à¶ĭà¶¹à¶½à¶§": 5474,
      "ï¼": 5475,
      "à¶ºà¶ĩà¶½": 5476,
      "à·ĥà·Ĩ": 5477,
      "à·ĥà¶¥à¶º": 5478,
      "Ġà·ĥà¶¸à¶ºà¶§": 5479,
      "à¶Ĵà¶ļà¶±à¶¸": 5480,
      "à¥": 5481,
      "à¶·à¶Ń": 5482,
      "à¶Ĵà·Ħ": 5483,
      "Ġà¶ĩà¶³à¶ľà¶Ń": 5484,
      "à¶½à¶ºà¶§à¶¸": 5485,
      "à¶»à¶¶à¶½à¶Ńà¶¸": 5486,
      "à¶ļà¶»à¶±à¶ºà¶ļ": 5487,
      "Ġà·ĥà·Ħà¶±à¶¯": 5488,
      "à¶»à¶«à¶ºà¶º": 5489,
      "à¶»à¶¶à¶½à¶ºà¶±": 5490,
      "Ġà¶¶à¶½à¶ļà¶»à¶¸": 5491,
      "ä¸": 5492,
      "à¶½à¶ļà¶¯": 5493,
      "Ġà·ĥà·ħà·ĥ": 5494,
      "à¶ºà¶Ńà¶§": 5495,
      "à¶Ľà¶ºà¶§": 5496,
      "à·Ģà¶±à¶ºà¶ļ": 5497,
      "Ġà¶īà¶³à¶ľà¶±": 5498,
      "à¶¯à¶¬": 5499,
      "à¶ºà¶¯à¶¸à¶§": 5500,
      "à¶»à·Ĥà¶»": 5501,
      "à¶ļà·Ĥ": 5502,
      "à¶¸à¶±à¶¯": 5503,
      "Ġ109": 5504,
      "Ġ240": 5505,
      "à·Ħà¶¬à¶º": 5506,
      "Ġà·ģà¶¸": 5507,
      "à¶»à¶±à¶ºà¶§": 5508,
      "à¶ľà·Ħà¶´": 5509,
      "Ġà¶¸à¶¢": 5510,
      "à¶»à¶¸à·Ģà¶½": 5511,
      "à¶Ńà¶¸à¶½": 5512,
      "à¶ļà¶¸à¶§à·Ģà¶Ń": 5513,
      "à¶ºà¶»à¶ļ": 5514,
      "Ġà¶·à·Ģà¶Ń": 5515,
      "Ġà¶īà¶³à¶´": 5516,
      "Ġ1964": 5517,
      "Ñĥ": 5518,
      "Ġà¶¸à¶ľà·Ħà¶»à·Ģ": 5519,
      "Ġà¶¯à·Ħà¶ºà¶§": 5520,
      "1991": 5521,
      "Ġà·ĥà¶°": 5522,
      "Ġ1800": 5523,
      "Ġà·ĥà¶¸à¶±à·ħ": 5524,
      "à¶ļà¶½à¶¶à¶½": 5525,
      "Ġà¶ļà¶łà¶½": 5526,
      "Ġà¶´à¶±à·Ħà¶ļà¶§": 5527,
      "à·ģà¶·": 5528,
      "Ġà¶¢à·Ģà¶ºà¶ļ": 5529,
      "Ġ116": 5530,
      "à®¤": 5531,
      "Ġà¶ĩà¶«à·Ħ": 5532,
      "Ġà¶ķà¶ļà¶¸": 5533,
      "à·ĥà·ħà¶ļ": 5534,
      "Ġà¶±à¶¢": 5535,
      "Ġà¶ĳà¶¸à¶§": 5536,
      "à¶»à·Ģà¶ľ": 5537,
      "Ġà¶ĳà·ħà¶¯": 5538,
      "à¶°à¶»à¶ºà¶±": 5539,
      "à·ģà¶ºà¶¯": 5540,
      "à¶ļà·ĥà·ħ": 5541,
      "Ġà·Ģà¶±à¶¸": 5542,
      "à·ĵà¶Ĥ": 5543,
      "Ġà¶¶à·ĥà¶§": 5544,
      "à·ģà¶§": 5545,
      "Ġà·Ģà¶½à¶¸": 5546,
      "à·Ķà·Ļ": 5547,
      "Ġà·ĥà¶¸à¶ľà¶Ń": 5548,
      "à¶ħà¶ľà¶±": 5549,
      "à¶ĩà¶ļ": 5550,
      "à·ħà¶Łà¶ļ": 5551,
      "à¶©à¶©": 5552,
      "à¶ĭà¶ºà¶±": 5553,
      "à¶³à·ĥà¶½": 5554,
      "Ġà¶ľà·Ħà¶¯": 5555,
      "Ġà·ĥà¶¸à¶»à¶Ń": 5556,
      "à¶Ńà¶»à·Ģà¶»": 5557,
      "Ġà¶ħà·Ģà¶¥": 5558,
      "à¶»à¶«à¶ºà¶Ń": 5559,
      "à¶Ĭà·ħà¶ľà¶§": 5560,
      "Ġ1815": 5561,
      "à·ĥà·ĥà¶´": 5562,
      "Ġà¶ĩà¶´à¶ºà¶ļ": 5563,
      "Ġà¶´à·Ħà¶Ńà¶»à¶§": 5564,
      "à¶´à¶½à·Ģà¶½": 5565,
      "à·ħà¶¯à·ĥ": 5566,
      "à¶ļà¶ļà¶»à¶±": 5567,
      "Ġà·Ħà¶Ńà¶»à¶º": 5568,
      "à¶¢à·ĥà¶±": 5569,
      "à¶ħà·ĥà¶»à¶«": 5570,
      "à¶ľà¶½à¶¯": 5571,
      "Ġà¶ºà·Ħà¶¸à¶Ł": 5572,
      "à¶½à¶Ńà¶±": 5573,
      "Ġà¶»à¶³à·Ģà¶±": 5574,
      "Ġà¶ķà¶»": 5575,
      "à¶ħà·Ģà¶¯": 5576,
      "1988": 5577,
      "à·ĥà¶½à¶»": 5578,
      "à·Ģà¶«à¶§": 5579,
      "à·Ģà¶«à¶º": 5580,
      "Ġà¶ºà·Ħà¶´à¶Ńà¶§": 5581,
      "Ġà¶ļà·Ĩ": 5582,
      "à¶Ķà·ħ": 5583,
      "à¶Ńà¶±à¶ºà¶ļà¶§": 5584,
      "Ġ1974": 5585,
      "Ġ1945": 5586,
      "Ġà¶ļà¶»à¶±à¶±": 5587,
      "Ġ121": 5588,
      "à¶ºà¶¢": 5589,
      "Ġà¶ħà¶§à¶¯": 5590,
      "Ġà¶ľà¶Ńà¶ļà¶½": 5591,
      "à¶īà¶´à¶¯": 5592,
      "à¶ľà¶¸à¶±à¶ºà¶ļ": 5593,
      "Ġà·ħà¶ľà¶¯": 5594,
      "74": 5595,
      "Ġà¶¯à·ħà¶³": 5596,
      "Ġà¶¢à¶ºà¶»": 5597,
      "Ġà¶ħà¶±à¶¸": 5598,
      "86": 5599,
      "Ġà¶ĩà¶§à¶º": 5600,
      "Ġà¶ļà·ħà¶ľ": 5601,
      "à·ģà¶ºà¶¸": 5602,
      "à¶§à¶ľà¶»": 5603,
      "Ġà¶ļà¶»à¶½à¶¯": 5604,
      "Ġà¶ļà¶©à¶±à·Ģ": 5605,
      "Ġà¶Ŀà¶±à¶ļà¶¸": 5606,
      "Ġà¶¯à¶©à¶¶": 5607,
      "Ġà¶¸à·Ħà¶ľà¶¸": 5608,
      "Ġà¶ĩà¶±à·Ħ": 5609,
      "Ġà¶ĭà¶·à¶º": 5610,
      "Ġà¶»à¶łà¶ļà¶ºà¶±": 5611,
      "Ġà·ĥà¶µà¶½": 5612,
      "à¶¢à¶ļà·Ģà¶»à¶º": 5613,
      "à¶«à·Ħà¶¸": 5614,
      "à¶©à¶±à¶ľà¶¸": 5615,
      "à¶¯à·Ģà¶±à·Ģ": 5616,
      "Ġ1969": 5617,
      "Ġá": 5618,
      "Ġà·Ħà¶ºà¶»": 5619,
      "Ġà¶ĭà·Ģ": 5620,
      "à¶Ĵà·Ĥ": 5621,
      "à¶ħà¶ł": 5622,
      "95": 5623,
      "à·Ģà¶Ńà¶ļà¶§": 5624,
      "Ġ20000": 5625,
      "à¶Ĭà¶½à¶ľà¶§": 5626,
      "à¶į": 5627,
      "à¶±à¶ľà¶¸": 5628,
      "Ġà¶ļà¶¶à¶»": 5629,
      "à·Ģà¶½à¶ļà¶¸": 5630,
      "à·Ģà¶ºà·ĥà¶§": 5631,
      "à¶ĩà¶»à¶½": 5632,
      "Ġà¶ħà·ĥà¶¶à¶©": 5633,
      "Ġ154": 5634,
      "à¶½à¶Ńà¶½": 5635,
      "à·Ĥà¶ļà¶¸": 5636,
      "à·Ģà¶½à¶ľ": 5637,
      "Ġà¶Ĩà¶«à¶¸à¶©": 5638,
      "à·Ĥà¶«à¶ºà¶º": 5639,
      "Ġà¶ļà¶®à¶±": 5640,
      "Ġà¶ĭà¶»à¶¯": 5641,
      "Ġà¶ĭà¶¹à¶§à¶Ń": 5642,
      "Ġà·ħà¶¸à¶ºà¶ļ": 5643,
      "à¶Ŀà¶«": 5644,
      "Ġà¶ļà¶´à¶´": 5645,
      "à¶ĳà·Ģà¶ļ": 5646,
      "à¶»à¶ļà¶Ńà¶±à¶ºà¶§": 5647,
      "Ġà¶ħà¶Ńà¶´": 5648,
      "à¶½à¶¸à¶±": 5649,
      "Ġà¶ļà·Ģà¶»à¶ºà¶ļ": 5650,
      "Ġà¶ħà¶½à¶½": 5651,
      "Ġà¶ħà·Ģà¶½à·ĥ": 5652,
      "ĠÄ": 5653,
      "à¶ľà¶ºà¶ļà¶¯": 5654,
      "à¶´à¶¸à¶«à¶¯": 5655,
      "Ġà¶¯à¶¶à¶»": 5656,
      "à¶Ķà¶´": 5657,
      "97": 5658,
      "à·Ģà¶»à¶·": 5659,
      "à¶Łà¶ļà¶¸": 5660,
      "à¶§à¶ļà¶¯": 5661,
      "Ġ15000": 5662,
      "Ġà¶ħà¶¯à·Ħà·ĥà¶Ń": 5663,
      "Ġà¶´à¶«à¶´": 5664,
      "à¶ºà¶½à¶±à¶¸": 5665,
      "Ġà¶ħà¶Ńà¶¯": 5666,
      "Ġà¶¢à¶±à·ĥ": 5667,
      "Ġà¶Ĭà¶Ńà¶½": 5668,
      "à·Ħà¶Ńà¶»à¶ļ": 5669,
      "à·Ĥà¶»à¶º": 5670,
      "Ġà·Ħà¶»à·ĥà¶»": 5671,
      "Ġà¶Ķà¶¶à·Ģà·Ħà¶±": 5672,
      "à·Ĥà¶ºà¶·": 5673,
      "à¶Įà¶»": 5674,
      "à¶ļà·ĥà¶½": 5675,
      "Ġà¶ľà¶¢à¶¸": 5676,
      "Ġà·ĥà·Ħà¶ºà¶§": 5677,
      "à¶½à¶Ŀ": 5678,
      "à¶»à¶¯à¶©": 5679,
      "à·Ĥà¶«à¶ºà¶ļà¶¯": 5680,
      "à¶ħà¶¸à¶»": 5681,
      "à¶»à¶¶à¶»": 5682,
      "Ġà¶ĩà¶ºà¶º": 5683,
      "à¶Ķà¶Ń": 5684,
      "Ġà¶Ĩà¶ļà¶»à¶º": 5685,
      "Ġà¶ħà¶Łà·Ģà¶º": 5686,
      "Ġà¶¡à¶º": 5687,
      "Ġà¶ħà¶¯à¶¯": 5688,
      "Ġà¶Įà¶±": 5689,
      "Ġà¶Ńà¶ļà¶Ń": 5690,
      "à¶¸à¶ºà¶¯": 5691,
      "à¶Ńà¶ľà¶±": 5692,
      "Ġà¶ļà¶»à¶ł": 5693,
      "Ġà¶Ńà¶½à¶ľ": 5694,
      "à¶Ńà·ħ": 5695,
      "Ġà¶ļà¶¸à¶±": 5696,
      "à¶ºà¶±à¶ºà¶±": 5697,
      "Ġà¶´à·Ħà¶»à¶§": 5698,
      "Ġà¶»à¶§à·Ģà¶½à¶¯": 5699,
      "à¶Ŀà¶»": 5700,
      "Ġà¶ħà¶Łà·Ģà¶±": 5701,
      "Ġ1973": 5702,
      "à·ħà¶ļà¶±": 5703,
      "Ġà¶ħà¶Ńà·ħ": 5704,
      "Ġà¶ħà¶¸à¶»à¶ļ": 5705,
      "Ġà¶Ĭà·Ģ": 5706,
      "87": 5707,
      "à¶ºà¶¸à¶¯": 5708,
      "à¶ĭà¶¹à¶½à¶ľ": 5709,
      "à¶¯à·Ħà·Ģà¶½": 5710,
      "à¶´à¶±à¶ºà¶±": 5711,
      "Ġà·Ħà¶¶à¶»à¶«": 5712,
      "Ġà¶Ĵà¶Ńà¶»à¶¸": 5713,
      "Ġà¶ħà¶½à·Ģà¶Ń": 5714,
      "à¶»à·Ħà¶«à¶ºà¶±": 5715,
      "Ġ1967": 5716,
      "Ġà¶ĩà¶§à·ĥ": 5717,
      "à¶¸à¶¶à¶«": 5718,
      "1972": 5719,
      "à¶ľà¶»à¶Ń": 5720,
      "Ġà¶±à¶¸à¶±": 5721,
      "à¶ºà¶ļà¶±": 5722,
      "à·Ĥà·Ģà¶»à¶ºà¶ļ": 5723,
      "Ġà¶īà¶¯à¶´": 5724,
      "à¶½à¶±à¶ºà¶Ń": 5725,
      "à¶½à¶¹à·Ģ": 5726,
      "à¶§à¶ºà¶§": 5727,
      "Ġà¶ĩà¶»à¶´": 5728,
      "Ġà¶ĭà¶©à¶´à¶±": 5729,
      "à·Ĭà¶Ĥ": 5730,
      "à¶Ľà¶¸": 5731,
      "Ġà¶ļà¶»à¶±à·Ģà¶½": 5732,
      "à¶¯à¶§à¶Ń": 5733,
      "à¶´à·Ģà¶»à¶ļ": 5734,
      "à¶±à·Ģà¶»": 5735,
      "à·Ģà¶ļà¶§à¶¯": 5736,
      "à·Ģà¶½à¶§à¶º": 5737,
      "à¶»à¶ľà¶¸à¶±": 5738,
      "Ġ3500": 5739,
      "Ġà·Ħà¶ºà·Ģà¶±": 5740,
      "Ġà¶īà¶ºà¶»": 5741,
      "à¶»à¶ļà¶§à·Ģ": 5742,
      "à¶»à¶¶à¶½à·Ģ": 5743,
      "à¶ºà¶´à¶½": 5744,
      "à¶¶à¶»à¶ļ": 5745,
      "Ġà·Ģà¶»à¶¸à¶ļ": 5746,
      "à¶ľà¶¸à¶Ń": 5747,
      "à¶īà·Ģà¶Ń": 5748,
      "à¶ĭà¶´à¶ļ": 5749,
      "à¶ħà·Ģà¶±": 5750,
      "ÙĨ": 5751,
      "à¶ºà¶ºà¶¯": 5752,
      "à¶Ľà¶±à¶ºà¶§": 5753,
      "Ġ1940": 5754,
      "92": 5755,
      "Ġà¶¶à¶»à¶º": 5756,
      "à¶´à¶Ńà¶¸à¶º": 5757,
      "à¶Ĵà·Ģà¶º": 5758,
      "Ġà¶±à¶¸à¶ļà¶§": 5759,
      "à¶©à¶±à¶ºà¶ļà¶§": 5760,
      "à·Ģà¶ļà¶ł": 5761,
      "Ġà¶±à¶»à¶ļà¶ļ": 5762,
      "à¶Ńà¶ļà¶»à¶«": 5763,
      "âĢįà·Ļà·Ĭ": 5764,
      "Ġà¶Ńà¶»à·Ģà¶§": 5765,
      "Ġà¶¯à·Ģà·ĥà¶º": 5766,
      "à¶ºà¶±à¶¯": 5767,
      "Ġà¶Ŀà¶»": 5768,
      "Ġà¶Ńà¶¶à¶±à·Ģ": 5769,
      "Ġà¶ħà¶¯à¶¸à¶º": 5770,
      "Ġà·ĥà¶Ńà¶ļ": 5771,
      "à¶ļà·ħà¶¸à¶±": 5772,
      "1997": 5773,
      "Ġà¶¯à¶Ńà¶ļ": 5774,
      "à¶¢à¶±à¶ľ": 5775,
      "à¶Ľà¶±à·Ģà¶½": 5776,
      "Ùħ": 5777,
      "à¶Ńà¶ļà¶»à¶º": 5778,
      "Ġà¶±à¶ļà¶½": 5779,
      "à¶¢à¶¯": 5780,
      "à·ĥà¶ļà¶Ń": 5781,
      "Ġà¶ļà¶»à¶«à¶ļ": 5782,
      "Ġà¶Ĩà¶»à¶±": 5783,
      "à¶·à·Ģà¶Ń": 5784,
      "Ġà¶ķà¶±à¶±à¶¸": 5785,
      "à¶»à¶©à¶ļ": 5786,
      "Ġà·Ħà·ħ": 5787,
      "à·ħà¶´à¶±": 5788,
      "1950": 5789,
      "Ġà·ĥà¶¸à¶¶à¶»à¶Ń": 5790,
      "Ġà¶ħà¶Ńà¶»à¶¸à¶ľà¶¯": 5791,
      "à¶ºà¶Ĩà¶»à¶ł": 5792,
      "Ġà¶¯à¶©à¶¸": 5793,
      "Ġà¶ħà¶Ńà¶¸": 5794,
      "à¶īà·Ħ": 5795,
      "Ġà¶ļà¶³à¶±": 5796,
      "63": 5797,
      "à¶ħà·Ģà¶Ń": 5798,
      "à¶´à¶Ńà¶º": 5799,
      "Ġ50000": 5800,
      "à¶¯à·ģ": 5801,
      "Ġà¶ļà¶«à·ĥ": 5802,
      "à¶»à¶¸à¶«à·ģ": 5803,
      "Ġà¶¶à¶¢": 5804,
      "Ġà¶¢à¶±à·ģ": 5805,
      "Ġà¶±à·Ģà¶ľà¶Ń": 5806,
      "Ġà·Ħà¶³à¶ľà¶¸": 5807,
      "Ġà¶±à·ĥà¶±": 5808,
      "à¶Ŀà¶¸": 5809,
      "Ġà¶ľà¶½à·Ħ": 5810,
      "à¶ºà¶±à¶´à¶Ń": 5811,
      "Ġà¶łà¶¸à¶»": 5812,
      "Ġà¶ĳà·Ģà¶»à·ĥ": 5813,
      "Ġà¶ĳà·Ħà¶¸": 5814,
      "Ġà¶ħà·Ħà¶º": 5815,
      "Ġà¶¶à·ĥà¶ºà¶ļ": 5816,
      "Ġà¶¸à·Ģà¶Ń": 5817,
      "à¶§à¶ľà¶½": 5818,
      "Ġà·ĥà¶ºà¶±à¶º": 5819,
      "Ġà·Ħà¶¶à¶»": 5820,
      "Ġà¶¸à·Ģà¶ļà¶ľ": 5821,
      "Ġà¶¶à¶¢à¶§": 5822,
      "Ġà¶ĳà¶±à·Ģà¶½": 5823,
      "Ġà¶»à·Ħà¶§": 5824,
      "à¶¯à¶½à¶Ń": 5825,
      "Ġ114": 5826,
      "à¶©à¶ºà¶½": 5827,
      "Ġà¶°à¶±à¶ºà¶ļ": 5828,
      "à¶Ķà¶¶à·Ģ": 5829,
      "Ġà¶ħà¶ľà¶±à¶ľà¶»à¶º": 5830,
      "Ġà¶§à¶¸": 5831,
      "Ġà¶Ĩà·Ģà¶»à¶±à¶º": 5832,
      "à¶½à¶·à¶º": 5833,
      "Ġà¶¥à¶Ń": 5834,
      "à¶§à¶ľà·ĥ": 5835,
      "à¶·à¶ļà¶»": 5836,
      "à¶»à¶ºà·Ģ": 5837,
      "Ġà¶´à¶»à¶«à¶ľà¶¸": 5838,
      "Ġà¶ĳà¶ļà·ħ": 5839,
      "Ġà¶±à¶¸à¶¯": 5840,
      "à¶Ńà¶½à¶Ń": 5841,
      "Ġà¶ºà¶§à¶ľ": 5842,
      "à¶¸à¶»à¶¯": 5843,
      "à¶»à·Ģà¶±à·Ģ": 5844,
      "à·Ģà¶»à¶«à·Ģà¶½à¶¯": 5845,
      "150": 5846,
      "à·ĿâĢį": 5847,
      "à¶«à¶ºà¶¯": 5848,
      "à·Ĥà¶ºà¶»": 5849,
      "à¶½à¶Łà¶¯": 5850,
      "à¶½à¶¶à·Ģ": 5851,
      "à¶¹à¶ľ": 5852,
      "à·ĥà¶»à·Ħà¶§à¶Ń": 5853,
      "à¶¯à¶±à¶¸": 5854,
      "à¶»à¶¯à¶ļ": 5855,
      "Ġà¶·à·Ģà¶±": 5856,
      "Ġà¶ħà¶½à·Ģà¶½": 5857,
      "Ġà¶»à¶¢à¶ºà¶ļà¶§": 5858,
      "à¶´à¶§à¶ºà¶ļ": 5859,
      "Ġà¶±à¶§à¶´": 5860,
      "Ġà·ĥà¶¸à¶»à¶º": 5861,
      "Ġà¶ħà·Ģà¶¸à¶º": 5862,
      "à¶ĳà¶¯à¶Ń": 5863,
      "à®°": 5864,
      "Ġà¶¢à¶±à·Ģà¶»à¶¸à¶ļ": 5865,
      "à¶ĳà·Ģà¶»": 5866,
      "à¶¸à¶½à¶»à¶Ńà¶±": 5867,
      "à·Ģà¶¯à¶±": 5868,
      "à¶Ńà¶¹": 5869,
      "à¶´à¶»à¶Ń": 5870,
      "Ġà¶¶à·Ĥ": 5871,
      "à¶ħà¶»à¶±": 5872,
      "à¶ĳà¶ļà¶º": 5873,
      "à¶»à¶«à¶ļà¶¸": 5874,
      "Ġà¶ħà¶ľà¶¯": 5875,
      "Ġà¶ľà¶¸à¶±à¶º": 5876,
      "à¶©à¶¸à·Ģ": 5877,
      "Ġà¶ħà·Ħà¶ľà¶Ń": 5878,
      "82": 5879,
      "Ġà¶ħà¶ľà¶ºà¶§": 5880,
      "Ġ1962": 5881,
      "à¶ľà¶Ńà¶ļ": 5882,
      "à¶łà¶»à¶¯": 5883,
      "Ġà¶µà¶½à¶ļà¶º": 5884,
      "à¶īà¶½à¶ļ": 5885,
      "Ġà¶ºà¶§à·Ħà¶Ń": 5886,
      "Ġà¶ľà·Ħà¶ľà¶Ń": 5887,
      "Ġà¶Ĵà¶´": 5888,
      "Ġà¶ħà¶»à·ĥ": 5889,
      "Ġà¶ħà¶§à¶§": 5890,
      "à¶¸à·ģ": 5891,
      "Ġà¶¶à¶ľ": 5892,
      "à¶ĭà¶´à·ĥ": 5893,
      "à¶¶à¶½à¶¯": 5894,
      "à¶łà¶»à¶§à¶¸": 5895,
      "à·ħà¶Ķ": 5896,
      "Ġà¶»à·ĥà¶½": 5897,
      "à·Ģà¶Ńà¶±": 5898,
      "à¶¸à·Ħà¶¢à¶±à¶º": 5899,
      "Ġà¶Īà·Ģ": 5900,
      "à¶ħà¶»à¶ľ": 5901,
      "à¶·à·Ħ": 5902,
      "Ġà·Ħà¶³à¶§": 5903,
      "Ġà¶ħà¶łà¶½": 5904,
      "à¶°à·Ģà¶Ń": 5905,
      "à¶īà¶ºà¶±": 5906,
      "Ġà¶ľà¶»à·Ħà¶±": 5907,
      "à¶´à¶»à·ĥ": 5908,
      "Ġà¶ĭà¶½à¶¸": 5909,
      "Ġà¶Ńà¶»à¶ľà·Ģà¶½à¶§": 5910,
      "Ġ1953": 5911,
      "à¶»à·ĥà¶ºà¶ļ": 5912,
      "Ġ550": 5913,
      "Ġà¶±à¶§à¶½": 5914,
      "à·Ĥà¶ºà¶¸": 5915,
      "à¶Ĵà·Ģà¶Ń": 5916,
      "Ġà¶¸à¶©à·Ģà¶½": 5917,
      "à¶¸à¶½à¶°à¶»": 5918,
      "Ġà·ĥà¶Ńà¶±": 5919,
      "Ġà·ĥà¶¸à¶¶à¶»à·Ģ": 5920,
      "Ġà¶´à¶§à¶¶": 5921,
      "à·Ģà¶¯à¶º": 5922,
      "à¶´à¶»à¶ºà¶§": 5923,
      "à¶³à·Ģà¶½": 5924,
      "Ġà¶ľà¶½à¶´à¶½": 5925,
      "à¶ħà¶§à¶¸": 5926,
      "Ġà¶´à·ĥà¶±": 5927,
      "à¶½à¶ºà¶§à¶Ń": 5928,
      "Ġ132": 5929,
      "Ġà·ĥà¶¯à·Ħà¶¸": 5930,
      "Ġà¶ļà·Ħà¶´": 5931,
      "âĺ": 5932,
      "à¶½à¶´à¶±": 5933,
      "Ġà¶½à¶¯à·Ħ": 5934,
      "Ġà¶ľà·Ħà¶±à¶ļ": 5935,
      "Ġà¶ħà·ĥà¶¸à·ĥà¶¸": 5936,
      "à¶ħà¶ľà¶º": 5937,
      "à¶»à·ĥà¶·": 5938,
      "à·Ģà¶ºà¶§à¶¸": 5939,
      "à¶ķà¶ľ": 5940,
      "à¶»à¶¢à¶±à¶±": 5941,
      "à¶±à¶´à·Ħ": 5942,
      "Ġà¶ºà·Ģà¶º": 5943,
      "à¶¢à¶»à¶Ń": 5944,
      "à¶¢à¶±à·Ģà¶½à¶§": 5945,
      "à¶¶à¶±à¶±": 5946,
      "Ġà¶¸à·ħà¶ļ": 5947,
      "Ġà¶ħà¶ºà·Ģà¶Ń": 5948,
      "à¶´à·Ħà¶»à¶¯": 5949,
      "à·ĥà·ĥà¶»": 5950,
      "Ġà¶¶à¶ļà¶¸": 5951,
      "Ġà¶Ńà·Ģà¶Ńà·Ģà¶Ń": 5952,
      "Ġà·Ģà¶§à¶ļ": 5953,
      "âĢįâĢįâĢįâĢįâĢįâĢįâĢįâĢį": 5954,
      "Ġ1600": 5955,
      "à¶´à¶»à¶±": 5956,
      "Ġà¶ºà·ĥà¶±": 5957,
      "Ġà¶ĩà¶»à¶±": 5958,
      "à¶ºà¶§à¶±à¶¸": 5959,
      "Ġ230": 5960,
      "Ġà¶ħà¶±à·Ģà¶¶": 5961,
      "à¶»à¶ľà¶»": 5962,
      "Ġà¶ħà¶´à¶±à¶ºà¶±à¶ļà¶»": 5963,
      "à¶ĩà¶ºà·Ģ": 5964,
      "Ġà¶ħà¶ºà¶§à¶¯": 5965,
      "Ġà·Ĵ": 5966,
      "Ġà·ģà¶½à¶±": 5967,
      "Ġà¶´à¶¯à¶¸à¶§": 5968,
      "1995": 5969,
      "à·Ĥà¶½à¶Ń": 5970,
      "à¶¸à¶Ńà¶ºà¶§": 5971,
      "Ġà¶ħà¶Łà¶½à¶ļ": 5972,
      "à¶°à¶·": 5973,
      "à·Ĥà¶ºà¶¯": 5974,
      "à¶»à¶ºà¶ļà¶¸": 5975,
      "Ġà·ĥà¶±à·ĥà¶±": 5976,
      "Ġ370": 5977,
      "à¶Ľà¶ļà¶ºà¶ļ": 5978,
      "à¶ºà¶°à¶»à¶«": 5979,
      "Ġà·Ģà¶±à¶ľà¶Ń": 5980,
      "à¶»à¶·à·Ģ": 5981,
      "85": 5982,
      "91": 5983,
      "à¶´à·ĥà¶º": 5984,
      "Ġà·Ħà¶Ńà¶»à¶¸": 5985,
      "Ġà¶¶à·ĥà¶ļ": 5986,
      "Ġà¶ļà¶»à¶ļà·Ģ": 5987,
      "Ġà¶ĭà¶ľà·ĥ": 5988,
      "Ġà¶¶à¶½à·Ħ": 5989,
      "à¶ĩà·ħ": 5990,
      "Ġà¶»à¶§à·Ģà¶½à¶Ń": 5991,
      "à¶ķà¶½": 5992,
      "Ġà¶¸à·Ģà¶ļà¶§": 5993,
      "à¶«à¶§à¶¸": 5994,
      "Ġà¶Ĩà·Ģà¶½": 5995,
      "Ġ124": 5996,
      "à®¾": 5997,
      "Ġà¶§à¶ł": 5998,
      "à·ĥà¶ļà·ĥ": 5999,
      "à¶ĩà¶»à¶Ń": 6000,
      "à·ħà¶³à¶´à·ħ": 6001,
      "âĹı": 6002,
      "Ġ320": 6003,
      "à¶¸à·Ħà¶´": 6004,
      "Ġà·ĥà¶¸à¶±à¶½à¶º": 6005,
      "Ġ1400": 6006,
      "à¶¸à·Ģà¶ľ": 6007,
      "à¶´à·Ģà¶»": 6008,
      "à¶´à¶ºà¶¸": 6009,
      "Ġà¶Ńà¶»à·Ħà¶º": 6010,
      "Ġà¶īà¶³à¶ľà¶Ń": 6011,
      "Ġà¶¶à¶»à¶«": 6012,
      "à¶¢à¶ļà¶Ń": 6013,
      "à·Ħà·Ĩ": 6014,
      "à¶ĳà·ħà·Ģ": 6015,
      "Ġà¶°à¶¢": 6016,
      "Ġà¶ľà·Ħà¶«à¶º": 6017,
      "à¶»à¶Łà¶´": 6018,
      "Ġà¶ļà·Ģà¶¸à¶¯": 6019,
      "Ġà·ĥà¶´à¶®": 6020,
      "à¶¸à¶±à¶Ń": 6021,
      "à¶¯à·Ģà·ĥà¶ļà¶§": 6022,
      "Ġà·Ħà¶ľ": 6023,
      "à¶ºà¶ļà¶ºà¶§": 6024,
      "à¶¢à¶±à·Ģà¶½": 6025,
      "à¶ļà¶»à¶«à·Ģà¶½": 6026,
      "à¶»à¶®à¶¸à·Ģà¶»à¶§": 6027,
      "à¶ļà¶ļà¶¸": 6028,
      "à¶ħà¶ļà¶¸": 6029,
      "à¶»à¶Ńà¶¸": 6030,
      "Ġà¶īà¶©à¶¸à¶§": 6031,
      "Ġà¶ĭà·ħà¶½": 6032,
      "à·ļà¶Ĥ": 6033,
      "à·Ħà¶ºà¶Ń": 6034,
      "Ġà¶ĩà¶¯à¶´": 6035,
      "Ġà·ĥà¶½à¶ļà¶º": 6036,
      "Ġà¶¸à¶Łà¶§": 6037,
      "Ġ133": 6038,
      "Ġà¶īà·Ģà·ĥà¶ľ": 6039,
      "Ġà¶´à¶¢": 6040,
      "à¶°à¶¶": 6041,
      "à¶ºà¶¸à¶¸": 6042,
      "à¶§à¶¸à¶»": 6043,
      "1993": 6044,
      "Ġà¶ħà¶»à¶¹à¶¸": 6045,
      "Ġà¶ĭà¶«à¶ļ": 6046,
      "Ġà¶¶à¶©à¶īà¶»": 6047,
      "à·ĥà¶±à¶¯": 6048,
      "à¶»à¶Ńà¶»": 6049,
      "à·ĥà¶ľà¶±": 6050,
      "Ġà¶´à¶®à¶ºà¶ļ": 6051,
      "Ġà¶¯à¶ľ": 6052,
      "Ġà¶Ķà¶¶à¶¯": 6053,
      "à¶ļà¶½à·ĥ": 6054,
      "à¶ºà¶ļà¶§à¶º": 6055,
      "à·Ģà·Ħà·ĥà¶ļ": 6056,
      "Ġà¶ħà¶§à¶´": 6057,
      "à¶´à·ĥà¶¸": 6058,
      "à¶ºà¶½à¶ºà¶§": 6059,
      "Ġà¶¸à¶±à¶Ń": 6060,
      "à¶»à¶ļà¶§à¶º": 6061,
      "à¶¶à¶½à¶´à¶±": 6062,
      "Ġ137": 6063,
      "Ġ1952": 6064,
      "Ñı": 6065,
      "Ġà¶ļà·ħà¶¶à¶½": 6066,
      "Ġà·Ģà·ħà·Ģà¶½": 6067,
      "à¶³à¶ļà¶§": 6068,
      "Ġ127": 6069,
      "Ġâģ£": 6070,
      "à¶ļà·ģ": 6071,
      "Ġà¶©à¶ºà¶»": 6072,
      "à¶ºà¶ºà¶±à¶ºà¶§": 6073,
      "à·ĥà¶«": 6074,
      "Ġà¶ļà¶¸à¶ļà¶§": 6075,
      "ÙĪ": 6076,
      "Ġà·Ħà¶½à¶±": 6077,
      "à¶±à¶ºà¶§à¶º": 6078,
      "à¶Ńà¶ºà¶§à¶¸": 6079,
      "Ġà¶Ĭà·ħà¶ľà¶§": 6080,
      "à·Ģà¶ļà¶§à¶Ń": 6081,
      "à¶¸à¶±à¶ºà¶ļ": 6082,
      "à·ĥà¶»à·Ħà¶¸": 6083,
      "Ġ1958": 6084,
      "Ġà¶ľà¶ºà¶¸": 6085,
      "à¶ºà¶ļà¶ļà¶¸": 6086,
      "à·Ĥà¶±à¶»": 6087,
      "Ġà¶´à·Ħà¶¸": 6088,
      "Ġà¶Īà¶¯": 6089,
      "Ġà¶ļà¶»à¶´à¶½": 6090,
      "à¶Ĵà·ĥ": 6091,
      "à¶Ĭà·ħà¶ľ": 6092,
      "à¶ħà¶¸à¶»à·ĥ": 6093,
      "Ġ077": 6094,
      "Ġ129": 6095,
      "Ġà¶»à·ĥà¶¸": 6096,
      "à¶¸à¶ºà¶¢à¶±à¶ļ": 6097,
      "Ġà¶ħà¶°à¶»": 6098,
      "à¶ľà¶½à·Ģ": 6099,
      "Ġ126": 6100,
      "Ġà¶»à¶§à¶ļà¶¢": 6101,
      "à¶ľà¶«à¶ºà¶§": 6102,
      "à¶¸à·Ħà·ĥ": 6103,
      "Ġà¶īà·Ĩ": 6104,
      "à·Ħà¶»à¶±à¶º": 6105,
      "à¶ħà¶¸à¶Ńà¶»": 6106,
      "Ġà¶Ĭà¶½à¶ľà¶§": 6107,
      "à·ĵà·Ĭ": 6108,
      "Ġà¶¸à¶¯à¶º": 6109,
      "à¶©à¶ľà¶Ń": 6110,
      "Ġà¶ħà¶´à¶¸à¶«à¶º": 6111,
      "Ģ¼": 6112,
      "à¶ľà¶»à¶ºà¶§": 6113,
      "à¶®à·Ģà¶½": 6114,
      "à¶Ńà¶ļà¶«": 6115,
      "à·ĥà·Ħà¶ļ": 6116,
      "Ġà¶»à¶łà¶±à¶ºà¶ļ": 6117,
      "à¶®à¶¯": 6118,
      "à¶ħà¶´à·Ģà¶Ń": 6119,
      "Ġà¶Ńà¶½à¶ºà¶ļà¶§": 6120,
      "Ġà¶½à¶³": 6121,
      "400": 6122,
      "¸ı": 6123,
      "à¶±à¶ļà¶»": 6124,
      "à¶¸à¶ļà·Ģà¶±": 6125,
      "à¶ĭà·Ĥ": 6126,
      "à¶¶à¶¯à·Ģà¶¯": 6127,
      "Ġ1300": 6128,
      "à¶»à·Ħà¶±à¶ºà¶ļ": 6129,
      "à¶¸à¶»à¶«à¶ºà¶§": 6130,
      "à¶¶à¶ºà¶±": 6131,
      "Ġà¶Ĩà¶¯à¶¸": 6132,
      "Ġà¶¶à¶½à¶´à·Ģà¶Ń": 6133,
      "Ġà¶ħà¶©à¶¸": 6134,
      "à¶´à¶¸à¶±": 6135,
      "à·Ģà¶ļà·Ģ": 6136,
      "Ġà·Ħà¶Łà·Ģà¶±": 6137,
      "Ġà¶ļà¶»à¶ľà¶¸": 6138,
      "Ġà¶ĳà¶±à·Ģà¶§": 6139,
      "à¶ħà¶»à·Ģ": 6140,
      "Ġà·Ģà¶¯à·Ħ": 6141,
      "à¶¯à¶½à¶º": 6142,
      "à·Ģà¶»à¶¯à¶ļ": 6143,
      "Ġà¶¸à¶§à¶±": 6144,
      "Ġà¶¶à¶ľà·Ģà¶±": 6145,
      "Ġà¶ļà¶»à¶«à·Ģ": 6146,
      "Ġà¶ļà¶»à¶ļà·Ģà¶½": 6147,
      "à¶§à¶»à¶ºà¶ļà¶§": 6148,
      "Ġà¶Ńà¶»à¶ľà¶¸": 6149,
      "Ġ1100": 6150,
      "81": 6151,
      "Ġà¶īà·Ģà·ĥà¶½": 6152,
      "Ġà¶ļà¶§à·Ħà¶¬à¶ļ": 6153,
      "Ġà·Ģà·ĥà¶ļ": 6154,
      "Ġà·ĥà¶ľ": 6155,
      "Ġà¶¯à¶´": 6156,
      "Ġà¶ĭà¶·à¶Ń": 6157,
      "à¶·à¶ºà¶±": 6158,
      "à¶ļà¶½à·Ħ": 6159,
      "Ġà·ħà¶ļ": 6160,
      "à¶»à¶´à¶§à¶ºà¶ļà¶§": 6161,
      "à¶¸à¶·": 6162,
      "Ġà·ĥà·Ħà¶ºà¶ļà¶º": 6163,
      "Ġà·Ħà¶»à¶¹": 6164,
      "Ġà·Ĩà¶§": 6165,
      "Ġà·ĥà¶Łà·Ģà¶±": 6166,
      "Ġà·ĥà¶»à¶¸à¶ļ": 6167,
      "Ġà¶ĳà¶¬": 6168,
      "Ġà¶ľà¶«à¶±à¶§": 6169,
      "Ġà¶ħà¶ľà¶¶": 6170,
      "Ġà·Ħà·ĥà¶»à¶ļ": 6171,
      "à¶ļà¶ºà¶¯": 6172,
      "à·ĥà¶»à·ĥ": 6173,
      "à¶»à·ĥà¶§": 6174,
      "Ġà¶¸à¶§à·Ģà¶Ń": 6175,
      "Ġà¶±à·Ģà¶ļà¶ºà¶±": 6176,
      "Ġ1963": 6177,
      "à¶ĳà·ħà·Ģà·ħ": 6178,
      "93": 6179,
      "à¶ħà¶¬": 6180,
      "à¶¯à¶ļà·Ģà¶»à¶º": 6181,
      "Ġà·Ħà¶³à·Ħà¶±": 6182,
      "Ġà·Ħà¶Ńà¶§": 6183,
      "Ġà¶ľà¶¸à¶ļà¶§": 6184,
      "à¶©à¶´à¶Ń": 6185,
      "Ġà¶Ķà¶Ńà¶½": 6186,
      "Ġà·ħà¶³": 6187,
      "à¶¶à¶½à¶½": 6188,
      "à¶¶à¶©à¶ľ": 6189,
      "1982": 6190,
      "Ġ1959": 6191,
      "à¶¸à·ĥà¶ļà¶§": 6192,
      "à¶´à¶ºà¶¯": 6193,
      "à¶¡à¶º": 6194,
      "à·ħà¶³à¶ľà¶Ń": 6195,
      "à¶½à¶¶à¶º": 6196,
      "à¶ľà¶ļà¶»": 6197,
      "Ġà¶ľà·ĥà¶º": 6198,
      "Ġà¶¶à¶ļà¶§": 6199,
      "Ġà¶»à¶¢à¶ºà¶Ń": 6200,
      "Ġà¶ļà·Ģà¶¯à·Ħà¶»": 6201,
      "à¶»à¶ľà¶¸à¶±à¶º": 6202,
      "Ġà¶ħà¶©à¶±à·Ģ": 6203,
      "Ġà¶ĭà¶©à·Ģà¶Ń": 6204,
      "Ġà¶ľà¶¸à¶»": 6205,
      "à·Ģà¶»à¶ĳà¶½": 6206,
      "Ġà¶Ĵà¶¯": 6207,
      "Ġà¶·à¶ľà·Ģ": 6208,
      "Ġà¶¯à·Ħà¶ħà¶§": 6209,
      "Ġà¶´à·Ħà¶½à·Ģ": 6210,
      "Ħ¢": 6211,
      "à¶»à·Ħà¶ļ": 6212,
      "Ùĩ": 6213,
      "à·Ģà¶Ł": 6214,
      "à¶¸à¶ļà¶»à¶«à¶º": 6215,
      "Ġà¶Ķà·ĥà¶»": 6216,
      "Ġà¶´à¶¸à¶«à¶¯": 6217,
      "Ġà·ħà¶º": 6218,
      "à¶łà¶±à¶ºà¶±": 6219,
      "à¶ºà¶§à¶±": 6220,
      "Ġà¶Ĵà¶ļà¶¸à¶º": 6221,
      "Ġà¶ħà·ĥà¶¸à¶ľ": 6222,
      "à¶®à¶ºà¶º": 6223,
      "Ġà¶¯à·ĥà¶¯à·Ħà·ĥ": 6224,
      "à¶¯à¶Ĩà¶»à¶ł": 6225,
      "à¶ĳà¶Ńà¶±à¶§": 6226,
      "à¶īà¶³à·Ħ": 6227,
      "à¶ļà¶±à·Ģ": 6228,
      "à¶½à¶·à·Ģ": 6229,
      "à¶´à¶½à·ĥ": 6230,
      "Ġà¶ļà¶§à·Ħ": 6231,
      "Ġà·ħà¶Łà¶§à¶¸": 6232,
      "à¶ľà¶¸à¶±à¶§": 6233,
      "Ġà¶´à¶½à¶ļà·ħ": 6234,
      "à¶¯à¶ł": 6235,
      "Ġà·Ħà¶¯à¶º": 6236,
      "Ġà¶ļà¶»à¶½à¶±": 6237,
      "à¶ħà·ĥà¶¸": 6238,
      "Ġà¶Ĭà¶§à¶´à·ĥ": 6239,
      "1992": 6240,
      "à¶ºà·ĥà¶¸": 6241,
      "à¶»à¶±à¶¸": 6242,
      "Ġà¶´à¶¸à¶«à¶ļà¶§": 6243,
      "à·Ģà¶ºà¶ļà¶º": 6244,
      "à¶»à¶´à¶¯à¶º": 6245,
      "Ġà¶ļà¶¬": 6246,
      "Ġà·ĥà¶¸à¶¶à¶±": 6247,
      "à¶¹à·Ģ": 6248,
      "Ġà¶ļà¶±à¶´": 6249,
      "Ġà¶´à¶¯à¶±à¶¸à¶§": 6250,
      "à¶±à¶Ńà¶±": 6251,
      "à¶®à¶ļà¶®à¶±": 6252,
      "à·Ģà¶¯à¶Ń": 6253,
      "à¶±à¶ºà¶§à¶¸": 6254,
      "à¶±à·ĥà¶Ń": 6255,
      "Ġà¶Ķà¶Ńà¶±à¶§": 6256,
      "Ñĭ": 6257,
      "Ġà¶Ĩà·Ģà¶±à¶¸": 6258,
      "Ġà¶ħà¶»à¶´": 6259,
      "Ġà¶ĩà¶»à¶¶": 6260,
      "à·ħà¶ļà¶»": 6261,
      "Ġ153": 6262,
      "à¶»à¶ľà·ĥ": 6263,
      "Ġ2600": 6264,
      "Ġà¶ħà·Ħà·Ģà¶»à¶º": 6265,
      "à¶ĳà¶ļà¶±": 6266,
      "Ġ1949": 6267,
      "Ġà¶Ńà·Ģà¶½à¶¸": 6268,
      "Ġ165": 6269,
      "Ġà¶īà¶»à¶«à¶¸à¶ļ": 6270,
      "à¶¸à¶§à¶±": 6271,
      "à¶·à¶ºà¶Ń": 6272,
      "Ġà¶īà·Ģà¶»à¶±": 6273,
      "à·Ģà·Ģà¶±": 6274,
      "à·Ģà¶ļà¶Ń": 6275,
      "Ġ136": 6276,
      "Ġà·ĥà¶»à¶¯à¶¸": 6277,
      "Ġà¶ĳà¶´à¶¸à¶«à¶ļ": 6278,
      "à¶¸à¶»à¶ºà¶ļà¶§": 6279,
      "Ġà¶¶à¶§à¶ºà¶ļ": 6280,
      "à·ĥà¶¥à¶ºà¶±": 6281,
      "à¶´à¶«à¶ºà¶§": 6282,
      "à¶łà¶Ńà¶¸": 6283,
      "à¶ºà·ĥà¶¯": 6284,
      "Ġ210": 6285,
      "1979": 6286,
      "à¶´à¶±à¶ºà¶Ń": 6287,
      "à¶»à¶·à·Ģà¶ºà¶ļ": 6288,
      "Ġ1961": 6289,
      "à¶»à¶ļà¶»à¶ľ": 6290,
      "à¶ºà¶ļà¶»à¶«": 6291,
      "Ġà¶»à¶®à·Ģà¶½à¶§": 6292,
      "âĢİ": 6293,
      "Ġà¶ĩà¶¯à¶ľà¶Ń": 6294,
      "Ġà¶¢à¶ºà¶§à¶¸": 6295,
      "à¶ºà·Ģà¶±à¶º": 6296,
      "Ġ168": 6297,
      "Ġ144": 6298,
      "Ġà·ĥà¶¸à¶»à¶±à·Ģ": 6299,
      "Ġà¶īà¶ł": 6300,
      "à¶½à¶±à¶ºà¶º": 6301,
      "ïĢ¼": 6302,
      "Ġà¶¶à¶½à¶ºà¶Ń": 6303,
      "à¶ļà·ħà¶º": 6304,
      "Ġà·ĥà¶½à·ĥà¶¸": 6305,
      "à·ħà·Ģà¶±": 6306,
      "à·Ģà¶»à¶ľ": 6307,
      "à¶Łà¶¸à¶±": 6308,
      "Ġà¶¢à¶ºà¶½": 6309,
      "à¶·à¶ºà¶ľ": 6310,
      "Ġà¶ħà¶»à·Ħà¶Ń": 6311,
      "à¶ļà¶Ńà¶§": 6312,
      "Ġà¶±à¶ľà¶»à·ĥà¶·": 6313,
      "Ġà¶¯à·Ħà¶±à·Ģ": 6314,
      "à·Ģà¶ļà·Ģà¶Ń": 6315,
      "Ġà¶ħà·ĥà·Ħà¶±à¶ļ": 6316,
      "Ġà¶ĭà¶Ķ": 6317,
      "Ġà¶ħà·Ģà¶¸à¶ľ": 6318,
      "à¶¶à¶¯à·Ģà¶Ń": 6319,
      "à¶¸à¶½à¶»à¶Ń": 6320,
      "Ġà¶ĭà·ĥà¶º": 6321,
      "Ġà¶´à·ĥà¶¸": 6322,
      "Ġà·ĥà¶»à·ĥà¶±": 6323,
      "Ġà·ĥà¶Ńà¶»à¶ļ": 6324,
      "à·Ħà¶»à·Ħ": 6325,
      "Ġà¶ķà¶±à·Ģ": 6326,
      "à¶©à¶ļà¶½": 6327,
      "Ġà¶ĭà¶¯à¶ºà¶±": 6328,
      "Ġà·ħà¶Łà¶º": 6329,
      "Ġà¶¢à¶½à·Ģ": 6330,
      "Ġà¶¶à¶½à·Ħà¶±": 6331,
      "Ġà¶īà¶ľà¶±à¶ľà¶±": 6332,
      "à¶©à¶ºà¶ļà¶§": 6333,
      "Ġà·ĥà·Ħà¶łà¶»à¶º": 6334,
      "1981": 6335,
      "à¶¯à¶ļà¶»": 6336,
      "Ġà¶ľà·ĥà¶§": 6337,
      "à¶©à¶¶à·ĥ": 6338,
      "Ġà¶ħà¶ºà·Ģà·ħ": 6339,
      "Ġà¶¸à·ĥà¶ļà¶¸": 6340,
      "à¶®à¶·": 6341,
      "Ġà·ĥà¶¸à¶Łà¶¯": 6342,
      "Ġà¶Ńà¶«à¶¸à¶½": 6343,
      "Ð°Ð": 6344,
      "à·ģà¶ºà¶ļà¶¸": 6345,
      "Ġà¶ĩà¶Łà·ħ": 6346,
      "Ġà¶¯à¶¹à¶»": 6347,
      "à¶ķà¶¸": 6348,
      "Ġà¶ĩà¶§à¶ļà¶§": 6349,
      "ï¸ı": 6350,
      "Ġà¶´à¶§à·ĥ": 6351,
      "Ġà·Ģà¶±à¶½": 6352,
      "à¶±à¶¸à¶©": 6353,
      "Ġà¶¸à¶Ńà¶ļà¶Ń": 6354,
      "Ġà·Ģà¶»à¶§à¶º": 6355,
      "à¶ºà·Ģà¶ľà¶±": 6356,
      "à¶§à¶ļà¶ºà¶ļ": 6357,
      "à¶ľà·Ħà·Ģà¶Ń": 6358,
      "à¶ħà·Ħà·Ģà¶½": 6359,
      "Ġà¶¯à¶»à¶Ń": 6360,
      "à¶´à¶Ńà¶¸à¶ºà¶±": 6361,
      "à¶ļà¶©à¶ºà¶ļ": 6362,
      "Ġà¶¢à¶ºà·ģ": 6363,
      "Ġà¶ħà¶«à·ĥà¶ļ": 6364,
      "à®©": 6365,
      "1985": 6366,
      "ÙĬ": 6367,
      "Ġà¶ĳà¶ļà¶ľà·Ģ": 6368,
      "à·ģà·Ģà¶ºà¶¸": 6369,
      "Ġà¶¶à¶½à¶ļà¶»": 6370,
      "Ġà¶ķà¶ļà¶±": 6371,
      "à¶©à¶ļà·ħ": 6372,
      "Ġ1920": 6373,
      "à¶¤à·Ģ": 6374,
      "Ġà¶ļà¶»à¶ļà·Ģà¶±": 6375,
      "à·ĥà¶±à¶ºà¶±": 6376,
      "1947": 6377,
      "à·Ģà¶»à¶±à¶ºà¶ļ": 6378,
      "Ġà¶ħà·Ģà¶¸à¶Ł": 6379,
      "Ġà¶³": 6380,
      "Ġà·Ģà·Ħà·ĥ": 6381,
      "Ġà¶¯à·Ģà¶§": 6382,
      "à¶ħà¶Ńà¶§": 6383,
      "Ġà¶¯à·ģà¶ļà¶ºà¶ļ": 6384,
      "1000": 6385,
      "Ġà¶ħà¶´à¶§à¶¸": 6386,
      "à¶¸à¶Ńà¶ļà¶±": 6387,
      "à¶¸à¶»à·Ģà¶½": 6388,
      "à¶»à¶łà¶ļ": 6389,
      "à¶§à¶»à¶§à¶ļ": 6390,
      "Ġ380": 6391,
      "Ġà¶ĩà¶ºà¶¯": 6392,
      "Ġà¶ĭà¶¯à¶ºà¶ļ": 6393,
      "Ġà·ĥà¶¸à·Ħ": 6394,
      "Ġà·Ģà¶±à·ĥà¶Ń": 6395,
      "à·ĥà¶½à¶ļà¶±": 6396,
      "Ġà¶¯à·ģà¶ļà¶ºà¶ļà¶§": 6397,
      "Ġà¶ľà¶½à¶´à¶±": 6398,
      "à¶¯à¶ºà¶§à¶Ń": 6399,
      "à¶ļà¶©à¶ľà¶½": 6400,
      "à·Ħà¶ºà¶º": 6401,
      "à·Ħà·Ģà·ĥà¶§": 6402,
      "Ġà¶Ĵà¶ļà¶½": 6403,
      "à¶¸à¶ºà¶¸": 6404,
      "à¶ħà¶±à¶ľ": 6405,
      "Ġ152": 6406,
      "à¶¸à¶ľà¶§": 6407,
      "Ġà¶Ĵà¶ļà¶ļà¶ºà¶±": 6408,
      "à¶ľà¶³": 6409,
      "à·Ģà¶ļà¶§à¶º": 6410,
      "à¶»à¶ºà¶§à¶¯": 6411,
      "à¶¶à¶½à¶ļà¶©": 6412,
      "à¶ļà¶³à·Ģ": 6413,
      "à¶Ĵà¶ļà¶¸": 6414,
      "à¶¥à¶Ń": 6415,
      "Ġ260": 6416,
      "Ġà¶ħà¶ľà¶½à·Ģà¶Ń": 6417,
      "à·Ĵà·ı": 6418,
      "à¶ºà¶ºà¶¸": 6419,
      "Ġà¶ļà¶»à¶ļà¶»": 6420,
      "Ġà¶ĩà¶«à¶ºà¶ļ": 6421,
      "à·Ĥà·ĥ": 6422,
      "Ġà¶¢à¶±à¶°": 6423,
      "Ġà·Ħà·Ĩ": 6424,
      "à¶łà¶§": 6425,
      "à¶ĳà¶Ńà¶ļà¶±": 6426,
      "Ġà¶ĩà¶´à¶ºà¶§": 6427,
      "Ġ270": 6428,
      "à¶»à¶ļà¶»à¶±": 6429,
      "à¶¸à·ĥà¶º": 6430,
      "à·ĵà·ĵ": 6431,
      "Ġà¶½à¶½à¶±": 6432,
      "Ġà¶ļà¶©à¶ī": 6433,
      "Ġ131": 6434,
      "Ġà¶´à¶®à¶ºà¶§": 6435,
      "à¶¶à·Ģà¶¸": 6436,
      "Ġà·Ģà¶»à¶½à¶Ń": 6437,
      "à¶´à¶Ńà·ħ": 6438,
      "à¶»à·Ħà¶«à¶ºà¶Ń": 6439,
      "à¶Ńà¶ļà¶§à·Ģà¶Ń": 6440,
      "à·Ģà¶»à¶«à¶ºà¶±": 6441,
      "à¶´à·ħà·Ģà¶½": 6442,
      "Ġà¶ħà¶Ńà·Ģà¶»à¶ºà¶§": 6443,
      "à¶ļà¶´à¶§": 6444,
      "à¶īà¶©à¶ļ": 6445,
      "à¶µà·Ģà¶±": 6446,
      "Ġ141": 6447,
      "à¶»à¶¯à¶¸": 6448,
      "Ġà·ĥà¶»à·ħà·Ģ": 6449,
      "Ġà¶ħà¶®à¶Ń": 6450,
      "à¶®à¶»à¶ºà¶ļ": 6451,
      "à¶ĭà¶¹à¶§à¶Ń": 6452,
      "à·Ģà¶¸à¶ļà¶§": 6453,
      "Ġà·Ħà¶»à¶ºà¶ļ": 6454,
      "à¶īà¶¯à¶½": 6455,
      "Ġà¶Ĵà¶ļà¶±à¶¸": 6456,
      "84": 6457,
      "à¶¸à·ģà¶ļ": 6458,
      "à¶«à¶°à¶»": 6459,
      "à¶°à¶»à¶±": 6460,
      "à¶»à¶«à·Ģà¶½": 6461,
      "Ġ330": 6462,
      "Ġà¶ĩà¶Ńà¶º": 6463,
      "à¶ºà·ĥà¶±à¶ºà¶±": 6464,
      "à¶¸à·ĥà¶ļ": 6465,
      "Ġà¶Ĩà¶ºà¶¸": 6466,
      "Ġà¶Ńà¶½à·Ģà¶Ń": 6467,
      "à·Ģà·Ģà¶½": 6468,
      "à¶Ńà¶´à¶±": 6469,
      "Ġà¶´à¶®": 6470,
      "Ġ142": 6471,
      "à¶¯à¶±à·Ģà¶½à¶§": 6472,
      "Ġà¶ºà·Ĥ": 6473,
      "à·ħà¶¯à¶»": 6474,
      "Ġà¶Ĩà¶¢à¶±": 6475,
      "à·Ģà¶ļà¶±": 6476,
      "à·Ħà¶±à¶ºà¶ļà¶§": 6477,
      "à¶Ńà¶»à·Ģà¶½à¶§": 6478,
      "ĠðŁĺĽ": 6479,
      "à¶»à¶½à¶ºà¶ļ": 6480,
      "Ġà·ĥà·Ħà·ģ": 6481,
      "à¶«à¶»à¶Ńà¶±": 6482,
      "Ġ1951": 6483,
      "à·Ģà¶¢à¶±": 6484,
      "Ġà·Ģà¶±à¶ºà¶§": 6485,
      "Ġà·ĥà¶½à¶¸": 6486,
      "à¶·à¶ļà¶º": 6487,
      "Ġà¶·à·Ĥ": 6488,
      "à·ħà¶¹à¶ľ": 6489,
      "Ġà¶ħà·ħà¶½": 6490,
      "à®®": 6491,
      "Ġà¶ħà¶¬à¶½": 6492,
      "à¶»à¶ļà¶»à¶«à¶º": 6493,
      "à¶¶à·ĥà¶ļ": 6494,
      "Ġà¶¶à¶§à¶º": 6495,
      "Ġà¶°à·Ģ": 6496,
      "Ġà¶©à¶¸": 6497,
      "Ġà¶ħà¶´à¶§à¶¯": 6498,
      "Ġà¶ĭà¶´à·ģ": 6499,
      "Ġ1900": 6500,
      "à·Ħà¶§à¶¯": 6501,
      "Ġà¶¶à¶ł": 6502,
      "à¶½à¶ļà·Ģà¶»": 6503,
      "âĸº": 6504,
      "à¶½à·Ģà¶»à¶ļ": 6505,
      "Ġà¶¸à¶»à¶¸": 6506,
      "à¶ľà¶±à¶ºà¶±": 6507,
      "Ġà¶ĭà¶¯à¶ļ": 6508,
      "à¶¨à·Ģà¶½": 6509,
      "Ġà¶ľà¶ľà¶±à¶ľ": 6510,
      "à¶»à·Ħà¶ļà¶º": 6511,
      "Ġà¶´à¶§à¶½à¶º": 6512,
      "Ġà¶łà¶½à¶±à¶ºà¶±": 6513,
      "300": 6514,
      "à¶ļà¶«à¶ľ": 6515,
      "à·ħà¶½à¶ļ": 6516,
      "à¶łà¶¯": 6517,
      "Ġ850": 6518,
      "à·ģà¶ºà¶§à¶Ń": 6519,
      "Ġà¶±à¶§à·Ģà¶±": 6520,
      "à¶±à¶ºà¶ľà¶»": 6521,
      "Ġà¶ĭà¶¯à·Ħà·ĥà¶§": 6522,
      "à¶´à¶Ńà¶»": 6523,
      "à¶´à¶¯à¶º": 6524,
      "Ġà¶ħà¶¯à¶»": 6525,
      "Ġà¶¸à·ĥà¶¯": 6526,
      "Ġà¶ľà¶¸à¶º": 6527,
      "Ġà¶ħà¶´à·ĥ": 6528,
      "Ġà·Ģà¶§à¶½à¶±": 6529,
      "Ġà·Ģà¶ºà·ĥà¶º": 6530,
      "à¶½à·Ģà¶»à¶«": 6531,
      "Ġà¶»à¶½": 6532,
      "à¶ºà¶±à¶ļà¶¸": 6533,
      "Ġà¶Ńà·ħ": 6534,
      "à·Ģà¶±à¶ºà¶±": 6535,
      "Ġà¶Ķà¶¯": 6536,
      "à¶§à¶Ńà¶¯": 6537,
      "Ġà¶ĳà¶ºà¶¸à¶º": 6538,
      "Ġà¶ħà¶©à¶´à¶±": 6539,
      "Ġ1957": 6540,
      "à¶±à¶·": 6541,
      "à¶ºà¶§à¶»": 6542,
      "Ġà¶»à¶§à¶º": 6543,
      "à·Ĩà¶»à¶½": 6544,
      "à¶¶à¶½à¶±à¶ļ": 6545,
      "à¶¶à¶½à¶°": 6546,
      "à¶¸à¶ļà·Ģà¶»": 6547,
      "âĢįâĢįâĢį": 6548,
      "äº": 6549,
      "à¶¶à¶ºà¶§": 6550,
      "Ġ134": 6551,
      "Ġ147": 6552,
      "Ġ280": 6553,
      "Ġ1966": 6554,
      "à·ģà¶ºà¶ļà¶¯": 6555,
      "à¶´à¶ļà¶»à¶±": 6556,
      "à¶łà¶ºà¶§": 6557,
      "Ġà·Ģà¶»à¶«à¶º": 6558,
      "Ġà¶ħà·ĥà¶»à¶±": 6559,
      "à·Ģà·ĥà¶º": 6560,
      "Ġà¶°à¶¸à¶±": 6561,
      "Ġà¶¸à¶¯à¶ļà¶§": 6562,
      "à¶ºà¶ľà¶º": 6563,
      "à¶«à¶·": 6564,
      "Ġ157": 6565,
      "à·Ĥà¶ľà¶Ń": 6566,
      "à¶ħà¶¸à¶±": 6567,
      "Ġà·ĥà¶³à¶ļà¶©": 6568,
      "Ġà¶ľà¶±à¶±à¶ļà¶§": 6569,
      "à¶©à¶½à·Ģà¶½": 6570,
      "Ġà¶ļà¶³à¶ļ": 6571,
      "à·Ħà¶»à¶¹à¶ºà¶ļ": 6572,
      "Ġà¶¸à¶½à¶ľ": 6573,
      "à·ħà·Ģà¶º": 6574,
      "à¶´à·Ħà¶ļà¶§": 6575,
      "à·Ħà¶ļà¶ļà¶¸": 6576,
      "Ġ143": 6577,
      "à·Ħà¶Ńà¶ļ": 6578,
      "Ġà¶Ńà¶¯à·Ģ": 6579,
      "Ġà·Ħà¶ł": 6580,
      "Ġà¶±à¶¸à¶ºà¶ļ": 6581,
      "à¶Ŀà¶Ńà¶¸": 6582,
      "Ġà¶µà¶ļ": 6583,
      "à¶»à·Ģà¶´": 6584,
      "à¶»à¶¢à¶±à¶ļ": 6585,
      "à·ģà·Ģà¶ºà¶ļà¶§": 6586,
      "Ġà¶»à¶łà¶ļà¶ºà¶ļ": 6587,
      "Ġ978": 6588,
      "à¶»à·Ģà¶½à¶¯": 6589,
      "Ġà¶ľà¶´": 6590,
      "à·Ħà¶¯à¶±": 6591,
      "Ġà¶ħà¶½à¶ļà¶½": 6592,
      "Ġà¶Ĩà¶±à¶Ń": 6593,
      "à·ĥà¶»à¶ºà¶±": 6594,
      "Ġà¶ħà·ĥà·ħà¶¯": 6595,
      "à·Ĥà¶ºà¶§à¶Ń": 6596,
      "Ġà¶ħà·Ģà¶½à¶¸": 6597,
      "Ġà¶¯à¶ľà¶½": 6598,
      "à¶ħà·Ģà¶°": 6599,
      "à¶ħà¶¯à¶º": 6600,
      "à¶¶à¶½à·Ħà¶Ń": 6601,
      "à¶»à¶·à·Ģà¶ºà¶±": 6602,
      "Ġà¶ĭà¶´à·ĥà¶·": 6603,
      "à®Ł": 6604,
      "à·Ħà¶»à¶ºà¶ļ": 6605,
      "Ġà¶ĳà¶±à·Ģà¶±à¶¸": 6606,
      "Ġ176": 6607,
      "Ġà¶ļà¶¶à¶»à¶º": 6608,
      "à¶»à¶«à¶ļà¶»": 6609,
      "Ġà¶´à·ħà¶¯": 6610,
      "Ġà¶¯à¶»à¶´": 6611,
      "Ġ071": 6612,
      "à¶ļà¶¢": 6613,
      "Ġà¶»à¶¯à¶½": 6614,
      "à·ĸà¶Ĥ": 6615,
      "Ġà¶ħà·Ħà¶ļà¶§": 6616,
      "Ġà¶ĩà¶½à¶§": 6617,
      "Ġà¶ĭà¶»à¶±": 6618,
      "à¶ħà¶«": 6619,
      "Ġà¶ħà¶Ńà¶Ń": 6620,
      "à¶»à¶«à¶§": 6621,
      "à¶Ĩà¶Ńà¶½": 6622,
      "à¶ºà·Ģà¶»à¶§": 6623,
      "Ġì": 6624,
      "à·ħà·Ħà¶§": 6625,
      "à¶ºà¶±à·Ģà¶º": 6626,
      "à¶Ńà¶ºà·Ģ": 6627,
      "à¶»à¶´à¶§à¶ºà¶º": 6628,
      "Ġà¶īà¶»à¶«à¶¸à¶§": 6629,
      "Ġà¶ļà¶¯à¶¸": 6630,
      "Ġà¶ľà¶±à¶ºà¶§": 6631,
      "Ġà¶´à·ĥà¶½": 6632,
      "Ġà¶ļà¶§à¶¸": 6633,
      "à¶»à¶¢à¶ºà¶ļ": 6634,
      "Ġ888": 6635,
      "à·ģà¶±à¶ºà¶ļà¶¯": 6636,
      "à¶¸à¶¸à¶±": 6637,
      "à¶±à¶ºà¶ļà¶¸": 6638,
      "Ġ720": 6639,
      "Ġà¶ħà¶¸à¶Ńà¶º": 6640,
      "à¶±à¶ľà¶ļ": 6641,
      "ÑĮ": 6642,
      "Ø¯": 6643,
      "à·Ħà¶Ńà¶»à·Ģ": 6644,
      "à·Ģà¶±à·ĥ": 6645,
      "Ġà¶§à¶¢": 6646,
      "Ġà·Ĥà¶¸": 6647,
      "à¶ļà¶ºà¶§à¶Ń": 6648,
      "Ġà¶´à¶§à·Ģà¶½": 6649,
      "Ġ1818": 6650,
      "à¶±à¶Ńà¶ļà¶§": 6651,
      "à·Ģà¶»à¶±à¶ºà¶§": 6652,
      "Ġà¶Ĭà¶©": 6653,
      "Ġà·ĥà¶½à·ĥà¶º": 6654,
      "Ġ162": 6655,
      "à·ĬâĢįà·Ļ": 6656,
      "Ġ177": 6657,
      "Ġà¶±à¶»à¶¶à¶±": 6658,
      "Ġà¶ħà¶°à¶¸": 6659,
      "Ġà·Ģà¶§à¶ļà¶»": 6660,
      "Ġà¶»à·ĥà¶ºà¶§": 6661,
      "Ġ166": 6662,
      "Ġà·Ģà¶łà¶±à·Ģà¶½à¶§": 6663,
      "à·Ģà¶±à¶±": 6664,
      "Ġà¶ħà¶¯à¶±": 6665,
      "Ġà¶¶à¶»à¶´à¶Ńà¶½à¶º": 6666,
      "à·ĥà·Ħà¶·": 6667,
      "Ġ299": 6668,
      "Ġà¶¶à·Ģà¶±à¶¸": 6669,
      "Ġà¶´à¶¯à¶ºà¶§": 6670,
      "Ġà¶ħà¶»à¶ľà¶½à¶ºà¶ļà¶§": 6671,
      "Ġà¶ľà¶¸à¶¸": 6672,
      "à¶°à¶±à¶ºà·Ģ": 6673,
      "à¶ºà·Ģà·ĥà¶ļ": 6674,
      "à¶³à·Ģà¶±à·Ģ": 6675,
      "à¶ļà¶©à·Ģà¶Ń": 6676,
      "1984": 6677,
      "Ġ1954": 6678,
      "à¶Ńà·Ģà¶»à¶º": 6679,
      "Ġà·ħà¶¸à¶ºà·Ģ": 6680,
      "à¶±à·Ħà¶½": 6681,
      "à¶ļà¶Ńà¶ļ": 6682,
      "à¶¯à·Ģà·ĥà¶§": 6683,
      "Ġà·Ģà¶»à·Ħà¶±": 6684,
      "à¶©à¶±à¶ºà¶±": 6685,
      "à¶¢à¶±à¶ľà·Ħà¶±à¶º": 6686,
      "à¶ľà¶©à¶¸": 6687,
      "à¶»à¶¸à¶«à¶ºà¶§": 6688,
      "à¶ľà¶½à¶ºà¶§": 6689,
      "à¶¯à·Ħà·ĥà¶Ń": 6690,
      "à¶Ńà¶½à¶ľ": 6691,
      "à¶©à¶´à·Ģà¶Ń": 6692,
      "Ġà·ĥà¶¶à¶³à¶ļà¶¸": 6693,
      "Ġà¶´à¶¹à¶º": 6694,
      "à¶ĳà¶±à¶º": 6695,
      "Ġà¶´à¶Ńà¶º": 6696,
      "à¶¯à¶»à¶§à¶Ń": 6697,
      "Ġà¶´à·ħà¶ļà¶½": 6698,
      "1815": 6699,
      "à¶ºà¶¶à¶½": 6700,
      "à·ģà¶«à¶ºà¶§": 6701,
      "à¶»à¶½à¶½": 6702,
      "Ġà¶ľà¶½à¶±à·Ģ": 6703,
      "Ġà¶¢à¶±à¶ļà¶Ń": 6704,
      "Ġà¶ħà¶©à¶ļà¶§": 6705,
      "à¶¶à¶½à¶ľ": 6706,
      "à¶ºà¶»à¶ºà¶ļ": 6707,
      "à¶´à¶¬": 6708,
      "Ġà¶¶à·Ħà¶½": 6709,
      "Ġà¶Ķà¶ºà¶º": 6710,
      "à¶¯à¶±à¶ºà¶ļà¶§": 6711,
      "Ġà¶¸à¶Łà·Ħà¶»à·Ģ": 6712,
      "à¶½à¶ľà¶¯": 6713,
      "Ġà·ĥà¶»à¶¹": 6714,
      "ĠðŁĺī": 6715,
      "âĢįâĢįà·ĬâĢį": 6716,
      "à¶®à¶±à¶ºà¶ļ": 6717,
      "Ġà·ĥà·Ħà¶łà¶»": 6718,
      "à¶ĳà¶§": 6719,
      "Ġà·Ģà·ĥà¶»à·Ģà¶½à¶¯": 6720,
      "à¶Ĭà¶ºà¶§": 6721,
      "Ġà¶±à¶©à¶»": 6722,
      "à¶ľà¶«à¶±à¶ºà¶ļ": 6723,
      "à¶¶à·Ħà¶ļà¶§": 6724,
      "Ġà¶·à·Ģà¶ºà¶ļ": 6725,
      "à¶¸à¶¸à¶¯": 6726,
      "Ġ1955": 6727,
      "Ġà¶ĩà¶§à¶¸": 6728,
      "à¶¢à¶±à¶±à¶º": 6729,
      "à¶¶à¶½à·Ģ": 6730,
      "Ġ139": 6731,
      "à¶ļà·Ģà¶¯à¶Ń": 6732,
      "à¶§à·Ģà¶»": 6733,
      "1930": 6734,
      "à¶Ńà¶ľà¶¸": 6735,
      "à¶§à·Ħà¶±": 6736,
      "Ġà·ĥà¶³à¶¸": 6737,
      "Ġ9000": 6738,
      "à·Ŀà·Ĭ": 6739,
      "à¶½à¶°à¶»à¶ºà¶±": 6740,
      "à·Ģà¶ļà¶§à·Ģà¶Ń": 6741,
      "Ġà·Ģà¶«": 6742,
      "Ġà¶ļà·ħà¶´": 6743,
      "à¶Ķà¶¸": 6744,
      "Ġ151": 6745,
      "Ġ158": 6746,
      "à·ĥà¶»à¶ºà¶Ń": 6747,
      "ÑģÑĤ": 6748,
      "Ġà¶¸à¶¸à¶±": 6749,
      "à¶»à¶ļà¶ľ": 6750,
      "Ġà¶łà·Ģ": 6751,
      "à¶¸à¶½à¶ºà¶§": 6752,
      "Ġà¶Ĩà·ĥà¶±à¶ºà¶§": 6753,
      "Ġà¶¶à¶»à¶´à¶Ńà¶½à¶¸": 6754,
      "à®²": 6755,
      "Ġ340": 6756,
      "Ġà¶ħà¶´à·Ħà¶»à¶«à¶º": 6757,
      "Ġà¶ļà·ħà·Ħà¶ļ": 6758,
      "Ġà¶ħà¶·à¶ºà¶·": 6759,
      "Ġà¶ĩà¶»à¶ľà¶±": 6760,
      "à¶»à·Ģà¶»à¶ºà¶ļ": 6761,
      "Ġà¶ĭà¶¶à¶½à¶ľ": 6762,
      "Ġà·Ĥà¶±": 6763,
      "à¶½à¶±à¶¸": 6764,
      "à¶ľà¶«à¶ºà¶ļ": 6765,
      "Ġà¶Ńà¶¯à¶§": 6766,
      "à¶©à¶´à¶Ńà¶ļ": 6767,
      "à¶±à·Ģà¶§à¶¯": 6768,
      "Ġà¶´à¶»à¶«à¶º": 6769,
      "Ġà¶«à¶ºà¶ľ": 6770,
      "à¶ľà¶¸à¶±à¶ºà¶±": 6771,
      "à·Ģà¶Ńà¶ºà¶ļ": 6772,
      "Ġà¶ħà¶´à¶Ńà¶º": 6773,
      "à¶Ĩà¶Ńà¶»": 6774,
      "à¶ºà·ĥà¶±à¶ļ": 6775,
      "à¶¯à¶ļà·Ģà¶»": 6776,
      "Ġà¶´à¶½à¶ļà¶»à¶¸": 6777,
      "Ġà¶ħà¶´à¶»à¶¯": 6778,
      "Ġà¶ķà¶§": 6779,
      "à·ĥà¶»à¶«à¶ļ": 6780,
      "à·Ħà¶Ńà¶»à·Ģà¶±": 6781,
      "ÐµÐ": 6782,
      "à·Ķà·ĳ": 6783,
      "à¶±à¶ļà¶ľ": 6784,
      "à¶ļà·ĥà·Ħ": 6785,
      "Ġà¶Ńà¶»à·Ħà·Ģ": 6786,
      "à¶¢à¶ºà¶º": 6787,
      "Ġà¶ļà¶½à¶ļà¶¯": 6788,
      "à·Ģà¶»à¶«à¶ºà¶Ń": 6789,
      "Ġà¶¸à¶»à¶±à¶º": 6790,
      "à¶¶à¶ļà¶»à¶±": 6791,
      "à·ģà·Ĥ": 6792,
      "Ġà·Ģà¶±à¶ł": 6793,
      "à¶±à¶ļà¶Ń": 6794,
      "à¶°à¶±à·Ģà¶Ń": 6795,
      "à¶¢à¶«": 6796,
      "à¶±à¶ļà¶ļ": 6797,
      "Ġà¶ħà·ĥà·Ģà¶½": 6798,
      "à¶©à·ĥà¶§à·Ħà¶±à¶ļà¶¯": 6799,
      "à·ĥà¶´à¶º": 6800,
      "à¶½à¶´à¶¯": 6801,
      "à¶¸à¶Ńà¶½": 6802,
      "Ġà¶Ĵà¶¸à¶º": 6803,
      "à·Ħà¶½à¶ļà¶¸": 6804,
      "à¶Ńà¶»à¶«à¶º": 6805,
      "à¶¶à¶½à·Ģà¶Ń": 6806,
      "Ġà¶´à¶«à·Ħà¶ļ": 6807,
      "Ġà·Ģà¶ºà·ĥà¶Ń": 6808,
      "Ġà¶Ńà·Ħà¶±à¶¸à¶ļà¶§": 6809,
      "à¶»à¶¢à¶±à¶±à¶º": 6810,
      "à¶¢à¶¸à·Ħ": 6811,
      "ïģ": 6812,
      "Ġà¶ħà·Ħà¶»": 6813,
      "à¶±à¶ºà¶§à¶¯": 6814,
      "Ġà¶Ĩà¶¯à¶»à¶ºà¶º": 6815,
      "Ġà¶´à·Ħà·ħà¶¸": 6816,
      "Ġà·Ħà¶ºà¶º": 6817,
      "à¶°à¶¸à¶Ń": 6818,
      "à·ĥà·Ģà¶Ń": 6819,
      "à¶ľà¶µà¶½": 6820,
      "Ġ148": 6821,
      "à·ĥà·Ģà¶ľ": 6822,
      "Ġà¶±à¶»à¶ļà¶§": 6823,
      "Ġà¶¢à¶ľ": 6824,
      "à¶½à¶ļà·Ģà¶»à¶º": 6825,
      "Ġà¶ĭà¶¯à¶½": 6826,
      "à¶»à·Ħà¶Ń": 6827,
      "Ġà¶ĩà¶¸à·ĥà¶±": 6828,
      "Ġà¶ħà·Ģà¶±à¶©": 6829,
      "1976": 6830,
      "à¶Ńà¶ºà¶½": 6831,
      "à¶¸à¶¶": 6832,
      "Ġà¶¢à¶±à¶¢": 6833,
      "à¶»à¶½à¶ľ": 6834,
      "Ġà¶ħà¶«à¶´à¶±à¶Ń": 6835,
      "à¶Ńà¶¥à¶ºà¶±": 6836,
      "à¶ľà¶½à¶Ń": 6837,
      "à¶¨à·ģ": 6838,
      "à¶ļà·ħà¶¯": 6839,
      "Ġ163": 6840,
      "1975": 6841,
      "Ġà¶´à¶ºà¶§": 6842,
      "Ġà¶´à¶¶à·ħ": 6843,
      "Ġà¶Ķà¶ºà¶½": 6844,
      "à¶½à¶§à¶¯": 6845,
      "Ġ146": 6846,
      "à¶ľà¶ºà¶§à¶Ń": 6847,
      "à¶½à¶łà¶±": 6848,
      "Ġà·Ħà¶¶à¶½": 6849,
      "Ġà¶Ĵà·Ģà¶±": 6850,
      "à¶»à¶łà¶±à¶º": 6851,
      "Ġà¶īà¶»à¶±à¶¸": 6852,
      "à¶ĭà¶¹à·Ģ": 6853,
      "à¶¯à¶ºà¶¸": 6854,
      "Ġà¶ĳà¶ŀ": 6855,
      "à·ħà¶ľà·ĥ": 6856,
      "à·Ĥà¶´à¶Ń": 6857,
      "Ġà·ĥà·Ħà·ĥà¶¸": 6858,
      "à¶¨à¶´": 6859,
      "à¶Ńà¶½à¶ºà¶§": 6860,
      "à¶µà¶§": 6861,
      "Ġà¶¸à¶»à¶ļ": 6862,
      "à¶½à¶ľà¶§": 6863,
      "à·ģà¶±à¶ºà¶º": 6864,
      "Ġà·Ģà·ĥà¶»à¶ļà¶¯": 6865,
      "ÛĮ": 6866,
      "Ġà¶ºà¶¸à¶±": 6867,
      "à¶Ńà¶»à·Ģà¶»à¶º": 6868,
      "à¶°à¶±à¶ºà¶º": 6869,
      "à¶īà¶´": 6870,
      "Ġà·Ģà·ĥà¶¸à¶§": 6871,
      "Ġà¶ļà¶»à¶±à¶º": 6872,
      "Ġà¶¢à¶±à¶ļà¶º": 6873,
      "à¶ļà¶½à¶¯": 6874,
      "Ġà¶»à¶¯à·ħ": 6875,
      "à·Ħà¶ļà¶ºà¶ļ": 6876,
      "Ġà¶±à·ĥà¶»": 6877,
      "Ġà¶Ĩà¶ºà¶Ńà¶±à¶ºà¶º": 6878,
      "à·ľâĢįà·Ĭ": 6879,
      "à·Ģà¶¶à¶½à¶°": 6880,
      "à¶ºà¶¶à¶«": 6881,
      "Ġà·Ģà·ĥà¶½": 6882,
      "Ġà¶ķà¶¸à¶½": 6883,
      "à¶ħà·Ģà¶¶": 6884,
      "Ġà¶¯à¶¸à¶Ń": 6885,
      "Ġà¶Ńà¶¢": 6886,
      "Ġà¶»à¶«à¶ļ": 6887,
      "Ġà¶ĭà¶´à¶´": 6888,
      "à¶Ńà¶ļà¶±": 6889,
      "à¶¸à¶ľà¶¯": 6890,
      "Ġà¶¯à¶©à¶ºà¶¸à¶§": 6891,
      "à¶§à·Ģà¶ļ": 6892,
      "Ġà¶ļà¶Ńà¶ļ": 6893,
      "à·Ħà¶½à¶Ń": 6894,
      "Ġà¶¯à·ĥà¶½à¶ļ": 6895,
      "Ġà·ĥà¶»à¶¯à¶¸à¶ļ": 6896,
      "Ġà·Ķ": 6897,
      "Ġà¶ļà¶½à¶ľ": 6898,
      "à¶©à¶ļà·Ģ": 6899,
      "Ġà¶»à¶®à¶ľ": 6900,
      "Ġà¶Ķà¶¶à¶§à¶¯": 6901,
      "Ġà·Ģà·Ħà¶±à·Ģ": 6902,
      "1986": 6903,
      "à·Ħà¶½à¶ļà¶¯": 6904,
      "Ġà·ĥà¶¸à¶¸": 6905,
      "Ġà¶ķà¶±à¶Ńà¶»à¶¸": 6906,
      "à¶ļà¶»à¶«à¶ºà¶º": 6907,
      "Ġà¶Īà·ĥ": 6908,
      "Ġà¶±à¶»à¶¹à¶½": 6909,
      "Ġà·Ģà·ħà¶ľà¶¸": 6910,
      "Ġà¶±à¶Łà¶¸": 6911,
      "Ġà¶ħà·Ģà¶ºà·Ģà¶ºà¶ļ": 6912,
      "Ġà¶´à¶«à¶ļ": 6913,
      "à¶ĳà·ħà¶ļ": 6914,
      "à¶»à¶ļà·Ģà¶»à¶º": 6915,
      "Ġ1931": 6916,
      "à¶§à¶½à¶ºà¶ļà¶§": 6917,
      "Ġà¶ħà¶ľà·Ħ": 6918,
      "à¶±à¶»à¶Ńà¶±": 6919,
      "à¶ļà¶¸à¶±": 6920,
      "Ġà¶´à¶»à¶ľ": 6921,
      "à¶©à¶ļà¶¸à¶ļ": 6922,
      "Ġà¶īà¶³à¶½à¶Ń": 6923,
      "Ġà¶´à¶¹": 6924,
      "à¶»à·Ģà¶¯à¶±": 6925,
      "à¶Ńà¶ļà·Ģà¶Ń": 6926,
      "à¶»à¶´à¶§à·Ģà¶½à¶§": 6927,
      "Ġà¶ĭà¶¶à¶½à¶§": 6928,
      "Ġà¶¯à¶Łà¶½à¶±à·Ģ": 6929,
      "à¶¸à¶ļà¶»à¶±": 6930,
      "Ġà¶¯à¶»à¶¯": 6931,
      "Ġà¶¯à·ĥà¶ļ": 6932,
      "Ġà¶ļà¶§à·Ģà·Ħ": 6933,
      "à¶ºà¶ļà¶§à·Ģà¶Ń": 6934,
      "à¶´à·ħà·Ģà¶½à¶§": 6935,
      "à¶½à¶Łà¶§": 6936,
      "1973": 6937,
      "Ġà¶¸à·Ģà¶¸": 6938,
      "Ġà¶ļà¶»à¶©": 6939,
      "Ġà¶ħà·ĥà·ħà¶§": 6940,
      "à¶½à¶ľà·ĥ": 6941,
      "Ġà¶ħà¶ļà·Ģ": 6942,
      "à¶©à¶½à¶¸": 6943,
      "Ġà¶ºà·ĥà·ĥ": 6944,
      "à·ĥà¶ºà·Ģ": 6945,
      "à·Ĥà¶±à¶ºà¶±": 6946,
      "Ġ156": 6947,
      "Ġà¶ħà¶ºà¶±à¶¸": 6948,
      "à¶¸à¶ļà¶½": 6949,
      "Ġà¶ħà¶Ńà¶»à¶¸à¶±": 6950,
      "à¶īà·Ģà·ĥà¶±": 6951,
      "à¶ºà·ĥà¶±à¶ºà¶§": 6952,
      "à¶ķà¶´": 6953,
      "à·Ģà·ħà¶§": 6954,
      "à¶»à¶©à¶ļà¶º": 6955,
      "Ġà¶ĩà¶³à¶ľà¶±": 6956,
      "à¶ºà¶´à¶±à¶º": 6957,
      "Ġ1939": 6958,
      "Ġà¶ĳà¶ļà¶ļà¶§à·Ģà¶Ń": 6959,
      "ðŁĳį": 6960,
      "Ġà·ĥà¶¸à¶Łà¶Ń": 6961,
      "Ġà¶¸à·Ģà¶½": 6962,
      "Ġà·Ħà¶½à¶½": 6963,
      "Ġà¶Ńà¶»à¶½": 6964,
      "Ġ30000": 6965,
      "à¶ºà¶Ł": 6966,
      "à¶ļà¶Ńà¶»": 6967,
      "Ġà·Ģà¶¯à·Ģ": 6968,
      "à¶ľà·Ģà¶½à¶¯": 6969,
      "Ġà¶¶à·ħà¶°": 6970,
      "à¶¢à¶ļà¶ºà¶ļ": 6971,
      "Ġà¶ħà¶´à·Ħà¶§": 6972,
      "Ġà¶ħà¶¸à¶¯": 6973,
      "Ġà¶±à·Ģà¶ºà¶ļà¶§": 6974,
      "à¶ºà·Ģà·ĥà¶ļà¶§": 6975,
      "Ġà·ĥà¶½à¶ļà¶Ń": 6976,
      "Ġ149": 6977,
      "à·ĥà·Ģà·ģ": 6978,
      "Ġà¶¨": 6979,
      "Ġà¶ħà¶½à¶º": 6980,
      "à¶ĭà·ħ": 6981,
      "Ġà·Ģà·ĥà¶Ł": 6982,
      "à¶»à·Ħà·ĥà¶±": 6983,
      "à¶±à¶ľà¶½": 6984,
      "à¶ħà¶Ńà¶»à¶¸": 6985,
      "Ġà·Ģà¶½à¶´à¶±": 6986,
      "à¶»à¶®à·Ģ": 6987,
      "Ġ164": 6988,
      "Ġà¶½à¶Łà¶º": 6989,
      "Ð¸Ð": 6990,
      "à¶©à·ĥà¶§": 6991,
      "à¶©à¶ļà¶»à¶´": 6992,
      "à·Ĩà¶ºà¶»": 6993,
      "à·ĥà¶ļà¶¯": 6994,
      "Ġà¶Ķà·ĥà·Ģà¶¸": 6995,
      "Ġ159": 6996,
      "Ġà¶ĩà¶½à¶¢": 6997,
      "à·ľà·Ļ": 6998,
      "Ġà¶»à¶§à¶ļà¶¯": 6999,
      "Ġà¶ĩà¶ľà¶½": 7000,
      "Ġà¶ħà¶ºà·Ħ": 7001,
      "Ġà¶ħà·Ħà¶´à¶±": 7002,
      "à¶ļà¶½à¶±à¶ºà¶ļ": 7003,
      "Ġà¶Ĵà¶¸à¶Ń": 7004,
      "Ġà·Ģà¶§à¶ļà¶»à¶ľ": 7005,
      "ĠØ§ÙĦ": 7006,
      "à¶łà¶»à¶ļà¶½": 7007,
      "à¶īà·Ĥ": 7008,
      "à¶±à¶¢": 7009,
      "à·Ģà¶´à·ħ": 7010,
      "à·Ģà¶ºà·ĥà¶ļ": 7011,
      "Ġà¶ħà¶Ńà¶ĩà¶»à¶½": 7012,
      "à¶¶à¶»à¶ºà¶§": 7013,
      "à·ĴâĢįà·Ļ": 7014,
      "Ġà¶ļà·ħà¶«": 7015,
      "à¶¸à¶ļà·ħ": 7016,
      "Ġà¶ħà¶½à¶ļ": 7017,
      "Ġà¶Ńà¶´à·ĥ": 7018,
      "Ġà¶ĩà¶¸à¶º": 7019,
      "à¶¢à¶±à¶»": 7020,
      "à¶¯à¶±à¶ºà¶º": 7021,
      "à¶©à¶¸à·ħ": 7022,
      "à¶īà·Ģà¶»": 7023,
      "Ġà·ĥà¶»à¶«à¶ļ": 7024,
      "à·Ģà¶±à¶ľà¶½": 7025,
      "à¶¸à¶»à¶ļ": 7026,
      "à¶§à¶ļà¶»à¶±": 7027,
      "Ġà¶¸à¶¯à¶±": 7028,
      "Ġà¶¯à¶»à¶¯à¶¬": 7029,
      "Ġà¶īà¶©à¶Ń": 7030,
      "1965": 7031,
      "à·Ħà·Ħ": 7032,
      "à·Ģà·ĥà¶§à¶¸": 7033,
      "à¶»à·Ģà¶±à¶º": 7034,
      "à¶Ĩà¶ľà¶¸à¶±": 7035,
      "Ġà¶Ĩà¶¯à¶»à¶ºà¶Ń": 7036,
      "à¶ºà·Ģà¶½à¶¸": 7037,
      "Ġ222": 7038,
      "à¶±à¶Ĵ": 7039,
      "à¶łà¶½à¶ºà¶§": 7040,
      "à¶»à¶§à¶º": 7041,
      "à¶¯à¶¸à·Ħà¶Ń": 7042,
      "à¶°à¶»à¶ļ": 7043,
      "à¶»à·Ģà¶ľà¶±": 7044,
      "Ġà¶Ĭà¶ľ": 7045,
      "à¶±à·ĥà¶ļà¶§à¶Ń": 7046,
      "Ġà¶¶à·ĥà¶ºà¶§": 7047,
      "Ġà·ĥà¶ļà·ĥà¶¸": 7048,
      "Ġà¶ľà¶³à¶ļ": 7049,
      "à·ħà·Ģà¶½à¶§": 7050,
      "Ġà¶ķà¶¸à¶±": 7051,
      "Ġà¶ħà¶·à¶ºà¶Ń": 7052,
      "Ġà¶īà·Ħà·Ģà·Ħ": 7053,
      "à¶±à¶¶à·Ģ": 7054,
      "à¶«à¶±à¶ļ": 7055,
      "à¶ĩà¶ºà¶Ń": 7056,
      "Ġà¶ľà¶«à¶±à¶ļà¶ľ": 7057,
      "Ġà¶ĭà¶´à¶ļà¶»à¶«à·Ģà¶½": 7058,
      "Ġà¤": 7059,
      "à¶´à¶ļà¶§": 7060,
      "à¶Ńà¶±à¶±": 7061,
      "Ġà¶¯à·Ģà·ĥà¶Ń": 7062,
      "Ġà¶¸à¶»à¶±à¶ºà¶§": 7063,
      "Ġà¶Ńà¶½à·Ģà¶ļ": 7064,
      "à¶¶à¶ºà¶ļà¶§": 7065,
      "Ġà¶¶à¶ºà¶Ń": 7066,
      "à¶»à¶½à¶Ń": 7067,
      "à·ĥà¶¯à·Ħ": 7068,
      "Ġà·Ģà¶´à¶»": 7069,
      "Ġà¶¶à·ħà¶±": 7070,
      "à¶ºà¶ļà¶»à·Ģà¶±": 7071,
      "Ġà¶¶à·ħà¶ĩà¶«": 7072,
      "à¶ºà¶µ": 7073,
      "Ġà¶Ĩà¶¯à¶»à¶±": 7074,
      "Ġ215": 7075,
      "Ġà¶´à·Ģà¶»à¶½": 7076,
      "à¶»à¶ºà¶½": 7077,
      "Ġà¶¯à¶±à¶±": 7078,
      "Ġ205": 7079,
      "à¶»à¶«à¶ľ": 7080,
      "à¶ºà¶ļà¶§à¶¯": 7081,
      "à¶ĭà¶¹à¶ľ": 7082,
      "à¶Įà¶Ń": 7083,
      "æľ": 7084,
      "à¶Ńà¶®": 7085,
      "à·ĵà·Ļ": 7086,
      "à·Ģà¶½à¶±": 7087,
      "Ġà¶¶à¶½à¶ºà¶½à¶Ń": 7088,
      "Ġà¶ľà·Ģà¶»": 7089,
      "Ġà¶¶à¶½à¶ľà¶±": 7090,
      "à¶µà·Ģ": 7091,
      "Ġà¶¯à¶Łà¶»": 7092,
      "Ġà·Ģà¶°à¶º": 7093,
      "Ġà¶ĳà¶»à·Ħ": 7094,
      "Ġà¶īà¶¸à¶¯": 7095,
      "à¶»à·ĥà·Ģà¶Ń": 7096,
      "Ġà¶īà·Ģà¶Ńà¶½à¶±": 7097,
      "à¶»à¶®à¶ºà¶ļ": 7098,
      "ï¼Į": 7099,
      "à¶ºà¶ļà¶»à¶«à¶ºà¶§": 7100,
      "Ġà¶¶à¶½à¶ļà¶»à¶±": 7101,
      "Ġà¶¢à¶±à¶¶à¶½à¶º": 7102,
      "à¶±à¶±à¶ľ": 7103,
      "Ġà¶ħà¶¶à¶¸à¶½": 7104,
      "à¶¯à·Ģà¶»": 7105,
      "Ġà¶ħà¶ľà¶ļ": 7106,
      "à¶Ńà¶§à¶¯": 7107,
      "Ġà¶ħà¶¹à¶ľà¶¸": 7108,
      "à·Ĥà¶ļà·Ģà¶»à¶ºà¶ļ": 7109,
      "à¶»à¶½à¶¸": 7110,
      "Ġà¶±à¶ľà¶»à¶ºà¶º": 7111,
      "à¶½à¶¸à¶Ń": 7112,
      "à¶łà¶´": 7113,
      "à¶·à¶ºà·Ģ": 7114,
      "Ġà¶ħà¶Ńà·Ģ": 7115,
      "Ġà¶Ńà¶½à¶½": 7116,
      "à·Ģà¶¥à¶ºà¶±": 7117,
      "Ġà¶ĳà¶¸à¶±": 7118,
      "Ġà¶¸à·Ħà¶´à¶§": 7119,
      "à¶·à¶§": 7120,
      "Ġà¶ħà¶¯à·Ħà·ĥà¶ļà¶§": 7121,
      "Ġ161": 7122,
      "Ġ178": 7123,
      "Ġà¶ħà·Ħà¶½à¶¸": 7124,
      "Ġà·Ħà·ĥà¶½à¶ļ": 7125,
      "à¶¢à¶±à¶¸à¶Ń": 7126,
      "ðŁĳĮðŁĳĮðŁĳĮðŁĳĮðŁĳĮðŁĳĮðŁĳĮðŁĳĮðŁĳĮðŁĳĮðŁĳĮðŁĳĮðŁĳĮðŁĳĮðŁĳĮðŁĳĮðŁĳĮðŁĳĮðŁĳĮðŁĳĮðŁĳĮðŁĳĮðŁĳĮðŁĳĮðŁĳĮðŁĳĮðŁĳĮðŁĳĮðŁĳĮðŁĳĮðŁĳĮðŁĳĮ": 7127,
      "à¶«à¶±à¶º": 7128,
      "à¶«à¶ľà¶±": 7129,
      "à·Ģà¶§à¶±à¶ºà¶ļ": 7130,
      "Ġà·Ģà¶©à·Ģà¶©": 7131,
      "Ġà¶ĳà¶ļà¶§à¶¯": 7132,
      "Ġà¶¸à¶Ńà¶ļà¶±": 7133,
      "Ġ185": 7134,
      "à·ĥà·Ģà¶ļ": 7135,
      "Ġà¶´à¶»à¶Ń": 7136,
      "à¶»à¶ļà¶ºà¶§": 7137,
      "à¶¯à¶½à¶¯": 7138,
      "à¶ļà¶»à¶«à¶¸à¶º": 7139,
      "Ġà¶ĩà¶¯à¶§": 7140,
      "Ġ173": 7141,
      "à·Ģà¶Ńà¶ľà¶¸": 7142,
      "Ġà¶¸à·Ħà¶¸à¶Ł": 7143,
      "à¶¯à¶»à¶«": 7144,
      "Ġà¶ĳà¶¸à¶»": 7145,
      "Ġà¶±à·Ģà¶ľà¶¸": 7146,
      "à¶ļà¶ļà¶§à¶Ń": 7147,
      "1964": 7148,
      "Ġà¶Ĵà¶¢": 7149,
      "Ġà¶ľà¶½à¶¶": 7150,
      "Ġà¶ħà¶´à¶»à¶·": 7151,
      "à·ĥà¶»à¶½à·Ģà¶¸": 7152,
      "Ġà¶ħà¶§à¶¸à·ĥ": 7153,
      "à¶±à¶»à¶ļà¶¯": 7154,
      "à·ĥà·ħ": 7155,
      "à·ĥà¶¥": 7156,
      "Ġà¶ļà·Ģà¶½à¶¸": 7157,
      "Ġà¶¶à¶«à¶ļ": 7158,
      "Ġà¶ĳà·Ģà¶º": 7159,
      "à¶»à¶«à¶ºà¶ļà¶¯": 7160,
      "Ġà¶ļà¶´à¶¸": 7161,
      "Ġ212": 7162,
      "à·Ħà¶¬à·Ģà¶¸": 7163,
      "Ġà¶¶à¶§à¶½à¶±": 7164,
      "888": 7165,
      "à·Ģà·ĥà¶±à¶º": 7166,
      "à¶»à¶¯à¶ºà¶±": 7167,
      "à·Ħà¶¸à¶¯": 7168,
      "Ġà·Ģà¶ºà¶±": 7169,
      "à¶½à¶±à¶ļ": 7170,
      "à¶ĩà¶¶": 7171,
      "à¶Ĩà¶ľà¶±": 7172,
      "Ġà¶ļà¶«à¶©": 7173,
      "à¶«à¶Ŀ": 7174,
      "à¶©à¶´à¶½": 7175,
      "à·Ģà¶½à·ĥ": 7176,
      "à¶ĩà¶¯à·Ħ": 7177,
      "à¶¯à¶½à¶ºà¶ļ": 7178,
      "Ġà·ħà¶ľà¶¸": 7179,
      "Ġà¶ħà·Ħà¶½à¶ļ": 7180,
      "à¶½à·Ģà¶´": 7181,
      "à¶Ĭà¶Ĭ": 7182,
      "Ġ1929": 7183,
      "Ġà¶ļà¶©à¶ºà¶§": 7184,
      "à¶»à¶´à¶¯": 7185,
      "à·Ģà·Ħà¶±à¶ļ": 7186,
      "Ġà¶±à·Ģà¶ļà·Ģà¶¯à¶º": 7187,
      "Ġà·ĥà¶»à¶½à·Ģà¶¸": 7188,
      "à¶»à¶¬": 7189,
      "à¶§à¶¶à¶½": 7190,
      "Ġà·ĥà¶¸à¶¢": 7191,
      "Ġà¶ķà¶ļà¶Ń": 7192,
      "Ġà¶ľà·Ħà¶ļà¶§": 7193,
      "Ġà¶ļà·Ģà¶½": 7194,
      "à¶ħà¶´à¶¯": 7195,
      "Ġà¶ĭà¶©à¶Ł": 7196,
      "Ġà·ĥà¶§à·Ħà¶±à¶ļà¶§": 7197,
      "à¶µà¶½à¶ºà¶§": 7198,
      "Ġ4500": 7199,
      "Ġà¶ħà¶»à¶ľà¶½à·Ģà¶½": 7200,
      "Ġà·ĥà¶¸à¶ºà¶±": 7201,
      "à¶ħà¶´à·Ģ": 7202,
      "à¶ĳà¶ļà¶ļà¶§": 7203,
      "Ġà¶Ĩà·ĥà·Ģ": 7204,
      "Ġà¶Īà¶´": 7205,
      "à¶´à·Ħà¶»à¶ļ": 7206,
      "1917": 7207,
      "à·Ģà·ħà¶½": 7208,
      "à¶´à¶ľà¶±": 7209,
      "Ġà¶ĩà·ĥà¶½": 7210,
      "Ġà¶Ĩà·ĥà¶ļ": 7211,
      "à¶»à¶¸à·Ģà¶½à¶§": 7212,
      "Ġà¶ħà¶¯à·Ģà¶±": 7213,
      "à¶°à¶ºà¶ļà¶¯": 7214,
      "Ġ169": 7215,
      "à·Ģà¶Łà¶±": 7216,
      "Ġà¶ĳà¶ļà¶¸à¶Ń": 7217,
      "Ġà·Ģà¶½à¶±": 7218,
      "Ġà¶´à·ħà¶³à¶±": 7219,
      "à¶¬à·Ģ": 7220,
      "à·Ģà·ħà¶ľ": 7221,
      "Ġ1942": 7222,
      "Ġà¶ĵà¶±": 7223,
      "à¶½à·Ħà¶§": 7224,
      "à·Ģà¶½à¶ľà·ĥ": 7225,
      "à·Ģà¶ºà¶»": 7226,
      "Ġà¶ĭà¶´à¶½": 7227,
      "à¶¶à¶»à¶´à¶Ńà·ħ": 7228,
      "Ġà¶´à¶½à¶³": 7229,
      "Ġ2021": 7230,
      "Ġà¶¸à¶Łà·Ħà¶»": 7231,
      "Ġà¶ħà¶±à·Ģà¶»à¶Ń": 7232,
      "à¶Ŀà¶±à¶ļà¶º": 7233,
      "à¶©à¶ļà¶»à¶±à·Ģ": 7234,
      "Ġà¶±à¶¸à¶ľ": 7235,
      "Ġà¶Įà¶«à¶Ń": 7236,
      "à¶Ńà·Ģà¶ļ": 7237,
      "à¶¸à·Ģà¶ļ": 7238,
      "Ġà¶Ńà¶½à·Ģ": 7239,
      "à¶Ńà¶»à¶´à¶§": 7240,
      "Ġà¶¶à¶½à¶±à·Ģà¶¯": 7241,
      "à¶½à¶ļà·ħ": 7242,
      "à¶Ńà·Ħà·ĥ": 7243,
      "à¶ĭà¶ľà¶±": 7244,
      "Ġ1938": 7245,
      "Ġà¶½à·ĥà·ĥà¶´": 7246,
      "Ġà·Ħà¶¬à¶´à¶§": 7247,
      "à¶ľà¶°": 7248,
      "Ġà·Ģà¶±à¶ħà¶½": 7249,
      "Ġà¶łà¶½à¶±à¶ºà¶ļ": 7250,
      "à¶¡à·Ģ": 7251,
      "à·Ģà¶»à¶«à·Ģà¶½à¶§": 7252,
      "à¶½à·Ħà¶ļ": 7253,
      "à¶´à¶»à¶´": 7254,
      "Ġà¶ļà¶§à¶§à¶¸": 7255,
      "Ġà¶ħà¶»à¶½à¶ľ": 7256,
      "à¶»à·Ħà¶»à¶ļ": 7257,
      "Ġà¶»à·ĥà¶¶à¶»": 7258,
      "Ġà·Ħà¶¬à·Ģà¶½": 7259,
      "Ġà¶¢à¶±à¶»à¶¢à¶ºà¶ļ": 7260,
      "à¶»à¶¶à¶Ń": 7261,
      "Ġà¶¯à·Ģà·ĥà¶ļà¶¸": 7262,
      "à·Ģà¶»à·ĥà¶±": 7263,
      "Ġà¶ķà¶±à¶Ń": 7264,
      "Ġ1914": 7265,
      "Ġà·Ĥà¶©": 7266,
      "à¶¯à¶¹à¶¯": 7267,
      "à¶ľà¶ľà¶±": 7268,
      "à¶´à·Ħà¶§": 7269,
      "à¶°à¶ł": 7270,
      "à¶łà¶ºà¶ļà¶»": 7271,
      "Ġà¶´à¶»à¶¯à·Ģà¶±": 7272,
      "à¶¯à¶¸à¶Ń": 7273,
      "Ġà·Ģà·Ģà¶½": 7274,
      "à¶´à¶®à¶ºà¶ļ": 7275,
      "à¶ļà¶ºà·Ģ": 7276,
      "Ġà·ĥà¶¯à·Ħà¶§": 7277,
      "à¶¸à¶½à¶»": 7278,
      "Ġà·ĥà¶¯à·Ħà¶±à¶ļ": 7279,
      "Ġà·Ħà¶¬à¶¸": 7280,
      "1968": 7281,
      "à¶¶à¶ºà·Ģ": 7282,
      "à·Ģà¶»à¶ļà¶§": 7283,
      "Ġà¶ħà¶°à¶º": 7284,
      "à¶Ĩà¶Ĩ": 7285,
      "Ġ512": 7286,
      "Ġà¶ĭà¶¹à¶º": 7287,
      "Ġà¶ĳà¶¯à·Ģà·ĥ": 7288,
      "1967": 7289,
      "âĻ": 7290,
      "Ġà¶ľà¶§": 7291,
      "à¶¶à¶»à¶±": 7292,
      "à¶ļà¶»à¶ļ": 7293,
      "à¶Ńà¶½à·Ģà¶Ń": 7294,
      "Ġà¶¯à·Ħà·Ģ": 7295,
      "à®ª": 7296,
      "Ġà¶Ńà¶¯à¶¶à¶¯à¶ºà¶§": 7297,
      "à¶»à¶½à¶ļ": 7298,
      "Ġà¶ĩà·ħà¶§": 7299,
      "à¶ļà¶»à·Ģà¶½": 7300,
      "Ġà¶Ĭà¶ºà¶ļ": 7301,
      "Ġ1946": 7302,
      "ðŁĺĢ": 7303,
      "Ġà¶½à¶´à¶º": 7304,
      "à·ģà·Ħ": 7305,
      "à·Ĥà·Ģà¶º": 7306,
      "Ġà·Ģà¶½à·Ħ": 7307,
      "Ġà¶ľà·Ħà¶«": 7308,
      "à¶Ńà¶»à¶ºà¶º": 7309,
      "à¶ħà¶ºà¶»": 7310,
      "Ġà¶ļà¶½à·Ħà¶¸": 7311,
      "Ġà·Ģà·Ħà¶±à¶ºà¶ļ": 7312,
      "Ġà¶Ĩà¶łà¶»à¶«à¶º": 7313,
      "Ġ174": 7314,
      "à¶»à·Ģà¶½à¶´": 7315,
      "à¶Ńà¶±à·Ģà¶§": 7316,
      "à¶¸à¶½à¶±": 7317,
      "Ġà¶¸à¶½à¶§": 7318,
      "à¶ľà·Ħà¶§": 7319,
      "Ġà¶¯à·ĥà¶Ń": 7320,
      "Ġà¶¢à¶ºà¶¯": 7321,
      "à¶ļà¶½à·Ģ": 7322,
      "Ġà·Ħà¶³à¶´": 7323,
      "Ġà¶Īà·Ĥ": 7324,
      "Ġà·Ĥà¶º": 7325,
      "à·ĥà¶ºà¶¸": 7326,
      "Ġà¶Ĩà¶©": 7327,
      "Ġà¶ĭà¶¶à·Ģ": 7328,
      "Ġà¶ļà¶§à¶ºà¶Ń": 7329,
      "à¶»à¶łà¶ļà¶º": 7330,
      "à¶±à¶ļà¶§à¶¸": 7331,
      "à¶±à¶Ńà¶»": 7332,
      "Ġà¶Ńà·Ħà·ħ": 7333,
      "à¶Ńà¶±à·Ģà¶½à¶§": 7334,
      "Ø¨": 7335,
      "ĠÅ": 7336,
      "à·ĥà¶¶à¶Ń": 7337,
      "à¶»à¶¸à¶«à¶ºà¶±": 7338,
      "Ġà·Ģà¶±à¶´": 7339,
      "à¶±à¶¸à¶¯": 7340,
      "Ġ1080": 7341,
      "Ġ167": 7342,
      "Ġà¶»à¶Łà¶¯": 7343,
      "Ġà¶ħà¶Łà·Ģà¶¸": 7344,
      "Ġà¶ħà¶§à¶º": 7345,
      "à¶¸à¶ºà¶ľ": 7346,
      "à¶§à¶´à¶§": 7347,
      "Ġà¶ľà¶»à¶±": 7348,
      "Ġà¶Ĵà¶ļà¶¯": 7349,
      "à¶¯à¶±à¶ºà¶Ń": 7350,
      "Ġ239": 7351,
      "Ġà¶¶à¶§à¶ľ": 7352,
      "à¶¢à¶½à¶±à¶º": 7353,
      "à¶Ľà¶½": 7354,
      "à¶ļà¶»à¶«à¶ºà¶Ń": 7355,
      "1974": 7356,
      "å¤": 7357,
      "Ġà·ĥà·Ħà¶ºà¶¯": 7358,
      "Ġà·ĥà¶½à¶»": 7359,
      "Ġ256": 7360,
      "1945": 7361,
      "à¶¯à¶§à¶º": 7362,
      "à¶©à¶ºà¶º": 7363,
      "à¶ľà¶Ńà¶¸": 7364,
      "à¶Ńà¶½à·Ģ": 7365,
      "à¶ºà¶·à¶§": 7366,
      "à¶Ńà¶¢": 7367,
      "Ġà¶Ńà¶ľ": 7368,
      "Ġà¶ľà·ħà¶´": 7369,
      "Ġà¶ļà¶»à¶¶": 7370,
      "à¶Ńà¶»à¶ºà¶Ń": 7371,
      "à¶łà¶ŀ": 7372,
      "à¶Łà¶¯": 7373,
      "Ġà¶¸à¶¸à·Ģà¶Ń": 7374,
      "Ġà¶¸à·Ģà¶±à·Ģ": 7375,
      "à¶ļà¶©à¶¯": 7376,
      "Ġà·ĥà¶ļà¶ł": 7377,
      "à¶´à¶ļà¶¸": 7378,
      "Ġà¶¶à¶Ńà¶ļ": 7379,
      "Ġà¶¢à¶±à·ĥà¶¸": 7380,
      "Ġà¶ĳà¶½à¶¶": 7381,
      "Ġà¶Ĩà¶¯à¶ºà¶¸": 7382,
      "Ġ224": 7383,
      "à¶®à¶ļà¶®à¶±à¶ºà¶ļ": 7384,
      "à·Ģà·ģà¶ļ": 7385,
      "à¶«à·ĥà¶½": 7386,
      "à¶¢à¶ºà¶§à¶¸": 7387,
      "à¶·à¶ºà¶º": 7388,
      "à¶«à¶ºà·Ģ": 7389,
      "à¶¶à¶³à·Ģà¶¸": 7390,
      "à·ĥà¶³à¶»à¶ļ": 7391,
      "à·Ĥà¶¥à¶ºà¶ļ": 7392,
      "Ġà·ı": 7393,
      "Ġà¶ĸ": 7394,
      "à·Ħà·Ģà¶±": 7395,
      "Ġà¶¸à¶©à¶¸": 7396,
      "à¶«à¶§à¶Ń": 7397,
      "Ġà¶ĳà·ħà¶¶": 7398,
      "Ġà·ĥà¶§à¶±à¶ļà¶§": 7399,
      "Ġà·ĥà¶»à¶½à¶¸": 7400,
      "Ġà¶Ńà¶ļà¶±": 7401,
      "à¶»à¶ļà·Ģà¶»": 7402,
      "Ġà¶ºà¶¸à¶´": 7403,
      "1940": 7404,
      "Ġà·Ħà¶¬à¶Ń": 7405,
      "Ġà¶Ĩà¶·à¶»à¶«à¶ºà¶ļ": 7406,
      "ãģ®": 7407,
      "à¶Łà¶Ń": 7408,
      "à¶½à·Ģà¶Ĩà¶»à¶ł": 7409,
      "à·ģà¶ļà¶ºà¶§": 7410,
      "à¶½à¶´à¶§": 7411,
      "Ġà¶ħà·Ģà¶ºà·Ģà¶º": 7412,
      "Ġà·Ģà¶§à¶»": 7413,
      "à¶´à·ħà¶Ń": 7414,
      "Ġà¶ļà¶»à¶½à¶ļ": 7415,
      "à·Ģà¶±à¶´": 7416,
      "Ġ12000": 7417,
      "Ġà¶´à·Ħà¶½à¶¸": 7418,
      "Ġà¶¸à¶½à¶ļà¶©": 7419,
      "à¶´à¶ºà¶§à¶Ń": 7420,
      "Ġà¶¶à¶»à·ĥ": 7421,
      "à¶»à¶¢à¶¸": 7422,
      "Ġà¶ĩà¶Łà¶´à¶Ń": 7423,
      "à¶ĳà¶ºà¶º": 7424,
      "à¶©à¶½à¶ºà¶Ń": 7425,
      "à¶ºà¶°à¶¸": 7426,
      "à¶¯à¶ļà¶»à¶±": 7427,
      "à¶¯à¶¸à¶½": 7428,
      "à¶°à¶Ŀ": 7429,
      "à¶Ńà¶ļà¶ºà¶§": 7430,
      "Ġà·ħà¶´à¶§": 7431,
      "à¶¶à¶½à·ģà¶ļ": 7432,
      "à¶Ńà·Ģà¶Ńà¶ļ": 7433,
      "Ġà¶¸à·ħà¶¸": 7434,
      "à¶ºà¶ļà¶»à¶±à¶º": 7435,
      "1953": 7436,
      "à·ħà¶±à¶º": 7437,
      "Ġà¶¢à¶§": 7438,
      "Ġà¶ĭà¶¹à¶¸": 7439,
      "Ġà¶¯à·Ħà¶ħ": 7440,
      "Ġ275": 7441,
      "à¶½à·Ģà·ĥ": 7442,
      "à¶½à¶³à¶ľ": 7443,
      "Ġà¶Ńà·ĥ": 7444,
      "à¶ħà·ĥà¶Ń": 7445,
      "à¶¸à¶ļà¶Ń": 7446,
      "Ġà·Ģà¶»à¶½": 7447,
      "Ġà¶¸à¶½à¶½à·ĥ": 7448,
      "à¶Ńà¶±à¶ºà¶Ń": 7449,
      "Ġà¶Ńà¶ļà·Ħà¶±": 7450,
      "Ġà¶¸à¶³à¶¶à·Ģ": 7451,
      "à¶»à¶±à¶ļ": 7452,
      "Ġà¶Ĩà·Ģà¶º": 7453,
      "à¶¯à¶±à¶±": 7454,
      "à¶ĭà¶´à·Ģ": 7455,
      "Ġà·Ģà¶§à·Ģà¶½": 7456,
      "à¶Ĭà¶¸": 7457,
      "à·ħà¶Ńà¶¯": 7458,
      "Ġà·Ħà¶½à¶ļ": 7459,
      "Ġà¶ĳà¶ºà¶§à¶¸": 7460,
      "Ġà¶¢à¶±à·ĥà¶±": 7461,
      "ĠÐ¿": 7462,
      "à¶ºà¶«à¶º": 7463,
      "à¶§à¶ºà¶»": 7464,
      "Ġ40000": 7465,
      "à¶ħà¶»à¶«": 7466,
      "à¶ħà¶Ľà¶«": 7467,
      "Ġà·ĥà·ĥà¶¢": 7468,
      "à¶ļà·Ģà¶º": 7469,
      "Ġà¶ļà¶½à¶«": 7470,
      "à¶ħà¶´à·Ħ": 7471,
      "Ġ193": 7472,
      "Ġà¶ºà¶±à·Ģà¶º": 7473,
      "à¶±à¶½à¶¯": 7474,
      "à¶»à¶´à¶§à¶ºà¶Ń": 7475,
      "à¶µà¶½à·Ģà¶½": 7476,
      "1952": 7477,
      "à¶½à¶ļà¶»à¶±": 7478,
      "Ġà·Ħà¶§à¶±": 7479,
      "à¶ºà·Ģà·ģà¶º": 7480,
      "Ġà¶´à·Ģà·ĥà¶¯": 7481,
      "Ġà¶»à¶¢à¶ļà¶¸à¶§": 7482,
      "à¶´à¶±à·ĥ": 7483,
      "Ġà¶±à¶½à¶½": 7484,
      "Ġà¶ĳà¶´à¶º": 7485,
      "Ġà¶¢à¶ºà¶´": 7486,
      "à¶»à·Ħà¶ºà¶ļà¶§": 7487,
      "Ġ1915": 7488,
      "Ġà¶ĳà¶Ńà¶±à¶Ń": 7489,
      "Ġà¶ħà·Ħà·ĥà¶ļ": 7490,
      "Ġà¶¯à·ĥà¶¯": 7491,
      "à·ħà·Ģà¶Ń": 7492,
      "Ġà¶´à¶ºà¶ļ": 7493,
      "Ġà·Ħà¶©à¶±": 7494,
      "à¶«à¶±à¶¸": 7495,
      "à·Ģà¶Ńà¶¸": 7496,
      "à¶µà¶½à¶Ń": 7497,
      "Ġà¶ħà¶¶à¶½": 7498,
      "Ġà¶ļà¶»à·Ħà¶¸": 7499,
      "à¶»à¶¸à¶ºà¶¸": 7500,
      "Ġà¶ħà¶ºà¶³": 7501,
      "à·ĴâĢįâĢį": 7502,
      "Ġà¶ļà¶¸à¶§à·Ħà¶±": 7503,
      "à¶¸à¶±à¶ºà¶§": 7504,
      "Ġà·Ģà¶¯à¶ļ": 7505,
      "à¶´à¶±à¶¸": 7506,
      "Ġà¶ļà·ħà¶½à¶º": 7507,
      "à¶»à¶ļà·Ģ": 7508,
      "à¶ħà¶´à¶§à¶Ń": 7509,
      "à¶Ĩà¶§": 7510,
      "à¶´à¶¯à·Ģà¶º": 7511,
      "à·ģà¶ºà¶§à¶º": 7512,
      "à¶ķà·Ģà¶§": 7513,
      "Ġà¶±à¶ľà¶»à·Ģà¶½à¶§": 7514,
      "1969": 7515,
      "à¶±à·Ħà·ĥ": 7516,
      "Ġà·Ħà·ĥà¶½": 7517,
      "à¶ľà¶Ńà·Ģà¶±": 7518,
      "à·Ħà¶½à¶¯": 7519,
      "Ġà·Ģà·Ħà¶´": 7520,
      "Ġ480": 7521,
      "ĠÂ©": 7522,
      "à¶§à¶¸à¶±": 7523,
      "à¶ľà·Ħà¶Ń": 7524,
      "à¶ĤâĢį": 7525,
      "Ġà¶Ĩà¶¢": 7526,
      "Ġà¶ħà¶±à¶¯": 7527,
      "Ġà·ģà¶º": 7528,
      "Ġ1700": 7529,
      "Ġà¶¶à¶»à¶´à¶Ńà¶½à¶ļà¶¸": 7530,
      "Ġà¶´à¶»à¶¯à·Ģà¶¸": 7531,
      "1962": 7532,
      "à¶łà·ĥà¶¸": 7533,
      "à¶ħà·Ģà¶ļ": 7534,
      "Ġà¶ħà¶¸à¶±à¶º": 7535,
      "à¶łà¶»à¶±à¶¸": 7536,
      "à¶ķà¶ļà¶±": 7537,
      "à·ģà·Ģà¶ºà¶§à¶¸": 7538,
      "ãĢĤ": 7539,
      "250": 7540,
      "Ġà¶ļà·Ħà¶±": 7541,
      "à¶©à¶ºà¶¸": 7542,
      "Ġà¶ľà¶¸à¶±à¶Ń": 7543,
      "à¶¢à¶ºà¶§à¶Ń": 7544,
      "Ġà¶Ĩà¶³": 7545,
      "à¶ĳà·Ģà¶ľ": 7546,
      "Ġà¶ħà¶ľà¶½à¶ļ": 7547,
      "Ġà¶ĭà¶«à·Ģà¶§": 7548,
      "Ġà¶ĭà¶ºà¶±à¶ļ": 7549,
      "ãĢģ": 7550,
      "Ġà·ĥà¶¸à¶ºà¶º": 7551,
      "à·ĥà¶ºà¶¯": 7552,
      "Ġ20110": 7553,
      "à·Ģà¶»à¶«à¶ºà·Ģ": 7554,
      "à¶ºà¶ºà¶§à¶Ń": 7555,
      "à¶»à¶¥à¶º": 7556,
      "à¶µà¶½à·Ģà¶½à¶§": 7557,
      "Ġ7500": 7558,
      "à¶§à¶ŀ": 7559,
      "Ġà·ĥà·Ģà¶»": 7560,
      "Ġà¶ļà¶½à¶¹": 7561,
      "à¶¯à¶½à¶ľ": 7562,
      "åı": 7563,
      "Ġà¶¸à·Ģà¶º": 7564,
      "Ġà¶»à·Ĩ": 7565,
      "à¶»à¶¸à¶»": 7566,
      "Ġà¶»à¶¢à¶ľ": 7567,
      "à¶½à¶ºà¶§à¶º": 7568,
      "Ġà¶¢à¶±à¶¸à¶Ńà·Ģ": 7569,
      "à¶¶à·Ģà¶½": 7570,
      "à¶¶à¶¹à¶»": 7571,
      "Ġà¶ļà¶»à¶±à¶ļà¶¸": 7572,
      "Ġà¶´à¶Ńà¶´": 7573,
      "à·Ĥà¶«à¶Ń": 7574,
      "à·ĥà¶½à¶ļà¶¸": 7575,
      "Ġà·Ģà¶§à¶¯": 7576,
      "Ġ1936": 7577,
      "à·Ĥà¶ºà¶ļà¶¸": 7578,
      "Ġà¶´à·Ħà¶¯à¶±": 7579,
      "à¶¯à·Ħà·ĥà¶º": 7580,
      "Ġà¶ļà¶»à¶±à·Ģà¶º": 7581,
      "à¶½à·Ħà¶ļà¶§": 7582,
      "à¶±à·Ģà·Ħ": 7583,
      "Ġà¶ħà¶´à¶½à¶º": 7584,
      "Ġà¶¶à¶½à¶´à¶½": 7585,
      "à¶¸à·Ħà¶»à¶¢": 7586,
      "à¶§à¶§à¶Ń": 7587,
      "Ġà¶¢à¶¶": 7588,
      "Ġà¶Ńà¶»à·Ħà¶§": 7589,
      "à¶Ŀà¶«à¶ļà¶º": 7590,
      "Ġà¶ľà·ħà·Ģ": 7591,
      "Ġà¶¶à¶©à¶ļ": 7592,
      "à·ģà·Ģà¶±": 7593,
      "à¶°à¶«": 7594,
      "Ġà¶¢à¶½à¶±": 7595,
      "Ġà¶¢à¶½à¶ľ": 7596,
      "Ġà¶Ĵà¶¸à¶ļ": 7597,
      "à¶ļà¶»à¶¯à¶»": 7598,
      "à¶ľà¶Ńà¶ºà¶ļà¶§": 7599,
      "à·ħà¶¯à¶´à¶½": 7600,
      "à·Ģà¶łà¶»": 7601,
      "à¶»à¶©à¶ļà¶ºà¶±": 7602,
      "Ġà¶´à·Ħà¶«": 7603,
      "Ġ192": 7604,
      "à¶´à¶»à¶ºà¶ļà¶§": 7605,
      "Ġ203": 7606,
      "à·Ģà¶ŀ": 7607,
      "à·Ħà¶¢": 7608,
      "à¶´à¶±à¶ºà¶ļà¶§": 7609,
      "Ġà¶¯à¶½à¶º": 7610,
      "à·Ģà¶Ńà¶ľ": 7611,
      "Ġà¶ķà·Ĥà¶°": 7612,
      "Ġà¶ļà¶©à¶īà¶¸à¶ļ": 7613,
      "à¶ļà¶¹": 7614,
      "Ġà¶¯à·Ģà¶±": 7615,
      "Ġ191": 7616,
      "ĠÏ": 7617,
      "à¶ļà¶»à¶«à·Ģ": 7618,
      "åľ": 7619,
      "Ġà¶¸à¶¢à¶»": 7620,
      "Ġ1933": 7621,
      "Ġà¶ļà·Ģà¶§": 7622,
      "à¶»à¶¸à¶±à¶ļ": 7623,
      "Ġà¶ħà¶©à¶´": 7624,
      "Ġà¶´à¶§à·Ģà¶¸": 7625,
      "Ġà·Ħà¶§à¶¯": 7626,
      "Ġ172": 7627,
      "Ġ233": 7628,
      "Ġà¶īà¶ľà¶±à¶ľà¶Ń": 7629,
      "à¶¯à¶ľà¶½": 7630,
      "Ġà·Ģà¶¯à¶ºà¶§": 7631,
      "Ġà¶ºà¶ľ": 7632,
      "à¶Ĵà¶©": 7633,
      "à¶Ķà¶ºà·Ģà¶ľ": 7634,
      "Ġà·Ģà¶»à¶«": 7635,
      "Ġà¶ĩà¶Łà¶¸": 7636,
      "à¶ºà¶ºà¶±à·Ģ": 7637,
      "à¶ļà·Ģà¶»à¶«à¶ºà¶ļ": 7638,
      "Ġà¶Ĩà¶Ńà¶»à¶º": 7639,
      "à·Ģà¶§à¶´": 7640,
      "à¶Ľà¶±à·Ģà¶½à¶§": 7641,
      "Ġà¶±à¶ľà¶±à·Ģ": 7642,
      "à¶Ŀà¶Ń": 7643,
      "Ġà·ĥà¶¸à¶Ńà¶ºà¶ļà¶§": 7644,
      "Ġà¶īà¶»à¶«à¶¸à¶©": 7645,
      "1958": 7646,
      "Ġà¶¶à¶½à¶ºà¶¯": 7647,
      "à¶§à¶½à¶ºà¶ļà¶¯": 7648,
      "à·ħà·Ħà¶ļà¶§": 7649,
      "à¶°à¶±à·Ģà¶½à¶§": 7650,
      "à¶łà¶¸à¶Ń": 7651,
      "à¶»à¶§à¶´": 7652,
      "Ġ2050": 7653,
      "Ġà·Ħà¶¬à¶º": 7654,
      "Ġ1944": 7655,
      "à¶±à¶ľà¶Ńà¶º": 7656,
      "à¶¯à¶Ł": 7657,
      "Ġà¶ĭà¶¶à¶Ń": 7658,
      "à¶ĳà¶±à·Ģ": 7659,
      "Ġà¶ķà·Ģà¶º": 7660,
      "à¶ºà¶Ńà¶±à¶ºà¶§": 7661,
      "Ġà¶Įà¶ľ": 7662,
      "Ġ255": 7663,
      "à¶©à¶¸à¶º": 7664,
      "à¶»à¶§à¶ļà¶§": 7665,
      "à¶ºà¶ľà¶«à¶±à¶ļ": 7666,
      "à¶¸à·ĥà¶±à·Ģ": 7667,
      "Ġà¶ľà¶½à·Ģà¶±à·Ģ": 7668,
      "Ġà¶¯à·ģà¶ļà·Ģà¶½": 7669,
      "Ġà¶¯à¶Łà¶´à¶±": 7670,
      "å¹": 7671,
      "Ġà¶Ĩà¶±à¶¸à¶©": 7672,
      "Ġà¶Ĭà¶§à¶¸": 7673,
      "à¶»à¶ľà¶«": 7674,
      "Ġà·ĥà¶½à¶ļà¶´": 7675,
      "Ġà¶ľà·Ħà¶´à¶±": 7676,
      "à¶ľà¶¶à¶©": 7677,
      "à¶łà¶ļà¶ºà¶§": 7678,
      "Ġà·ĥà¶¤": 7679,
      "à·ħà¶§à¶¸": 7680,
      "à¶ºà¶±à¶ļà¶±": 7681,
      "Ġà¶±à¶¸à¶¸": 7682,
      "à·ĥà¶ļà¶½": 7683,
      "Ġà¶´à·Ģà¶»à¶¸": 7684,
      "Ġ888888": 7685,
      "à¶½à¶±à¶§": 7686,
      "Ġà·ĥà¶½à¶±": 7687,
      "Ġà¶Ńà¶¸à¶Ń": 7688,
      "Ġà¶½à¶»": 7689,
      "à¶¢à¶ºà¶½": 7690,
      "åħ": 7691,
      "à¶»à¶ŀ": 7692,
      "à¶Ńà¶ľà¶Ń": 7693,
      "Ġà¶´à¶Ńà¶½à¶ļ": 7694,
      "Ġ290": 7695,
      "à·Ħà·Ģà¶Ń": 7696,
      "Ġà¶ħà¶«à¶§": 7697,
      "à¶©à¶ļà¶»à¶½": 7698,
      "Ġà·ĥà¶¸à¶ļà¶º": 7699,
      "à·Ģà¶½à¶ļà¶§": 7700,
      "à·Ĩà¶§": 7701,
      "Ġà¶ľà·ĥà¶Ń": 7702,
      "à¶©à¶·": 7703,
      "Ġà·Ħà¶³à¶º": 7704,
      "à¶ļà¶©à¶ºà¶±": 7705,
      "Ġ183": 7706,
      "Ġà¶¸à¶»à¶«à·Ģ": 7707,
      "Ġà¶ļà¶¹à¶ºà¶ļ": 7708,
      "à¶ļà·Ģà¶±": 7709,
      "à¶®à¶»à¶ºà¶±": 7710,
      "Ġà·ĥà¶³à¶½": 7711,
      "Ġà¶Ńà¶»à¶½à¶º": 7712,
      "Ġà·Ħà¶¯à¶±à·Ģà¶¯": 7713,
      "Ġà¶ħà¶ľà¶ºà¶ļà¶§": 7714,
      "Ġà·Ģà·Ħà·ħ": 7715,
      "à¶ħà¶Łà¶½": 7716,
      "Ġà¶¢à¶ļà¶»": 7717,
      "Ġà¶ļà¶»à¶±à¶Ń": 7718,
      "Ġà¶¸à·Ħà¶Ķà¶º": 7719,
      "à¶Ĵà¶©à¶¶": 7720,
      "Ġà¶įà·Ĥ": 7721,
      "Ġà¶´à¶´à¶©à¶¸": 7722,
      "à¶±à¶Ĵà¶¸à¶§": 7723,
      "à¶¸à¶ºà¶§à¶Ń": 7724,
      "Ġà¶ºà¶§à¶¸": 7725,
      "à¶¢à¶ºà¶½à¶½": 7726,
      "à¶±à¶ºà·Ģ": 7727,
      "Ġà¶ĭà·Ħà¶±": 7728,
      "Ġà¶ħà¶¯à¶±à¶¸": 7729,
      "Ġà¶¸à¶ľà¶ļà¶§": 7730,
      "à¶ĩà·ĥà¶§": 7731,
      "à¶±à¶´à¶±": 7732,
      "à·Ģà¶³à¶º": 7733,
      "à·Ļà·Ķ": 7734,
      "à¶©à¶¸à¶§": 7735,
      "à¶łà¶¸à¶ļ": 7736,
      "Ġà¶¶à¶½à¶½à¶Ń": 7737,
      "à·Ĩà¶»à¶±": 7738,
      "à¶»à¶«à·ĥ": 7739,
      "Ġ1911": 7740,
      "Ġà¶µà¶½à¶ºà¶§": 7741,
      "à®¯": 7742,
      "Ġà¶ľà¶¸à¶§à¶¸": 7743,
      "Ġà¶¶à¶»à¶´": 7744,
      "Ġà¶ļà¶»à·Ħ": 7745,
      "Ġà¶¸à·Ħà¶ł": 7746,
      "à¶¹à·ĥ": 7747,
      "Ġ182": 7748,
      "à·Ħà¶»à¶¹à¶º": 7749,
      "à¶Ńà¶ļà·Ģ": 7750,
      "Ġà¶ĭà¶©à·Ģ": 7751,
      "Ġà¶¯à·Ħà¶ºà¶º": 7752,
      "Ġà¶Ĵà¶ļà¶§à¶¸": 7753,
      "1959": 7754,
      "ĠÄģ": 7755,
      "à¶Ńà¶ļà¶»à¶«à¶ºà¶ļ": 7756,
      "à·ħà·ĥà¶±": 7757,
      "Ġà·ĥà¶¸à·Ħà¶±": 7758,
      "à¶®à¶½": 7759,
      "à¶īà¶Ł": 7760,
      "Ġà¶©à¶½": 7761,
      "Ġ1918": 7762,
      "Ġ202": 7763,
      "Ġà·ĥà·Ħà¶łà¶»à¶ºà¶±": 7764,
      "à¶§à¶±à¶ºà¶ļ": 7765,
      "à¶Ķà¶»à¶½": 7766,
      "Ġà¶©à¶ŀ": 7767,
      "à¶Ĭà¶»": 7768,
      "Ġà¶ĭà¶©à·Ħ": 7769,
      "Ġà¶¢à¶±à¶¸à¶Ńà¶ºà¶ļ": 7770,
      "ĠâĢı": 7771,
      "ĠâĪ": 7772,
      "à¶¶à¶¢": 7773,
      "Ġà¶¢à·Ħ": 7774,
      "Ġà·Ģà¶±à¶łà¶»": 7775,
      "à¶»à·Ģà¶ºà¶±": 7776,
      "Ġà·Ĥà·Ģà¶»": 7777,
      "à¶ĳà¶´à¶¸à¶±à¶ļ": 7778,
      "Øª": 7779,
      "Ġà¶¸à¶½à·Ģ": 7780,
      "à¶´à¶½à¶ľ": 7781,
      "Ġà¶¶à¶»à¶Ń": 7782,
      "à·Ģà¶½à¶»": 7783,
      "Ġà¶´à·Ħà¶»à¶ļà¶§": 7784,
      "Ġà¶»à·ĥà¶¥à¶Ń": 7785,
      "Ġ231": 7786,
      "Ġà¶ļà·ħà¶¹à¶ļ": 7787,
      "à¶ħà¶´à¶±à¶ºà¶±à¶º": 7788,
      "à¶¸à·ĥà¶½": 7789,
      "Ġà¶Ńà¶½à¶´": 7790,
      "Ġà¶ĩà¶±à¶ļ": 7791,
      "Ġà¶Ńà¶»à¶´": 7792,
      "à¶»à¶¢à·Ģà¶»": 7793,
      "Ġà¶ħà¶»à¶ľà¶½à·Ģà¶½à¶§": 7794,
      "Ġà¶ħà¶±à¶Ńà¶»": 7795,
      "à¶Ńà·Ģà·ģà¶º": 7796,
      "Ġà¶ĳà¶´à¶»": 7797,
      "Ġà¶´à¶½à¶ºà¶½": 7798,
      "à¶§à·Ģà¶´": 7799,
      "Ġà·Ģà·ħà¶³à¶±": 7800,
      "ðŁĳįðŁĳį": 7801,
      "àª": 7802,
      "à¶±à¶¹": 7803,
      "à·Ģà¶³à¶§": 7804,
      "Ġà¶ļà¶±à·Ģà¶¯": 7805,
      "Ġà¶ļà¶»à·Ħà¶±": 7806,
      "Ġà¶Ĵà·Ģà¶§à¶Ń": 7807,
      "Ġà·Ģà¶©à·Ģà¶±": 7808,
      "Ġ208": 7809,
      "Ġà¶¶à¶©à¶½": 7810,
      "Ġà¶¯à·ĥà¶¯à·Ħà·ĥà¶ļ": 7811,
      "125": 7812,
      "à¶ºà¶ļà·Ģà¶±": 7813,
      "à·Ĥà¶¸à¶º": 7814,
      "à¶±à·Ģà¶ļà¶º": 7815,
      "Ġà·Ģà¶½à¶´à¶½": 7816,
      "Ġà¶¶à¶»à¶´à¶Ńà·ħà¶¸": 7817,
      "ðŁĻĤ": 7818,
      "Ġà¶ĸà·Ĥà¶°à·Ģà¶½": 7819,
      "à¶½à¶ļà¶§à¶¸": 7820,
      "à¶®à¶ļà¶Ńà¶±à¶º": 7821,
      "Ġà¶¸à¶»à·Ħ": 7822,
      "Ġà¶ħà¶»à¶§": 7823,
      "Ġà¶ķà¶±à¶½": 7824,
      "Ġà¶ľà·ĥà¶ļà¶§": 7825,
      "à·ĥà¶¯à¶ľà¶±": 7826,
      "Ġà¶ĳà¶ºà¶§à¶Ń": 7827,
      "à¶ļà¶®à¶±": 7828,
      "à¶¶à·ħà¶ļ": 7829,
      "à¶©à¶´à¶ºà¶ļ": 7830,
      "Ġà¶½à¶ľà¶§à¶¸": 7831,
      "à¶łà¶ľ": 7832,
      "à¶¸à¶Ńà¶§": 7833,
      "à¶½à¶±à¶ºà¶¯": 7834,
      "Ġ187": 7835,
      "Ġà¶¯à¶©à¶ºà¶¸à¶ļ": 7836,
      "à¶±à¶Łà¶ļ": 7837,
      "à¶±à¶Ĵà¶¸": 7838,
      "Ġà¶ķà¶´à¶´": 7839,
      "à·ĥà¶»à¶±à¶¸": 7840,
      "à·ĥà¶½à¶°à¶¸": 7841,
      "Ġà¶ĳà¶½à·Ģà·ħ": 7842,
      "à¶¬à¶»": 7843,
      "Ġ325": 7844,
      "Ġà·Ģà·Ħà¶ľà¶Ń": 7845,
      "à¶ļà¶¬": 7846,
      "à·ĥà·Ģà¶½à¶¯": 7847,
      "Ġà·ĥà¶¯à¶±": 7848,
      "à¶ľà·Ħà¶¸": 7849,
      "Ġà¶ĩà·Ģà¶Ń": 7850,
      "Ġà¶ļà·ħà¶½": 7851,
      "à¶Ńà¶±à¶ºà¶º": 7852,
      "à¶´à·ħà¶ľ": 7853,
      "Î±": 7854,
      "à¶½à·Ģà¶»à¶«à¶ºà¶§": 7855,
      "à·Ģà¶ºà·Ģ": 7856,
      "à¶ħà·Ģà·ĥà¶»": 7857,
      "Ġà¶ħà·ĥà¶»à¶«à¶ºà¶±": 7858,
      "000000": 7859,
      "à¶§à¶±à¶ºà¶§": 7860,
      "Ġà¶ļà¶µ": 7861,
      "Ġà¶¯à¶»à¶½": 7862,
      "Ġà¶īà¶©à·Ħ": 7863,
      "Ġ211": 7864,
      "Ġà¶»à¶łà¶±à¶ºà¶§": 7865,
      "1963": 7866,
      "à·ĥà¶¶à¶º": 7867,
      "à¶§à¶»à¶§à¶§": 7868,
      "Ġà·Ħà¶«": 7869,
      "Ġà¶Ķà¶ľà·ĥ": 7870,
      "Ġà¶¶à·Ģà¶½à¶Ń": 7871,
      "à¶¸à·Ħà·ħ": 7872,
      "Ġà¶ħà·Ħà¶½à·Ģà¶Ń": 7873,
      "à¶Ńà¶·à¶¯": 7874,
      "à·ĥà¶´à¶±": 7875,
      "âĢįà·Ļà·ı": 7876,
      "à¶©à·Ģà¶¸": 7877,
      "Ġà¶ļà¶»à¶±à¶¸": 7878,
      "Ġà¶ħà¶±à¶·": 7879,
      "à¶¹à¶³": 7880,
      "à·Ģà¶»à¶«à·Ģà¶½": 7881,
      "Ġà·ĥà¶»à·Ģà¶±à¶¸": 7882,
      "Ġà¶ĩà¶½à¶´": 7883,
      "1949": 7884,
      "à¶»à¶±à¶Ń": 7885,
      "à¶¶à·ĥà¶º": 7886,
      "à¶ļà¶ºà¶±à¶§": 7887,
      "Ġà¶ĳà¶ļà¶ļà¶§à¶Ń": 7888,
      "à¤¾": 7889,
      "Ġà¶īà¶¯à¶ľà¶±": 7890,
      "à·ĥà¶½à·Ģ": 7891,
      "à¶ºà·Ģà¶»à·Ģà¶½": 7892,
      "à¶¯à¶°": 7893,
      "à¶©à¶ºà¶Ń": 7894,
      "à¶¢à·Ħ": 7895,
      "Ġà·ģà¶´": 7896,
      "Ġà¶§à¶±": 7897,
      "à¶»à·ĥà¶ļà¶º": 7898,
      "à¶´à¶½à·Ģà¶½à¶§": 7899,
      "Ġà¶ħà¶«à¶Ń": 7900,
      "Ġà¶±à¶§à¶¸": 7901,
      "Ġà¶±à·Ģà·Ģ": 7902,
      "Ġ420": 7903,
      "Ġà¶ĸà·Ĥà¶°à·Ģ": 7904,
      "ðŁĴ": 7905,
      "Ġà¶¯à¶«à¶ľ": 7906,
      "Ġà¶ĭà¶¸à¶Ł": 7907,
      "Ġà¶Ĩà¶¸à¶»": 7908,
      "Ġà¶¸à¶±à·Ħà¶»": 7909,
      "Ġà¶´à·ħà¶Ł": 7910,
      "Ġà¶´à¶«à¶ľ": 7911,
      "Ġ184": 7912,
      "5000": 7913,
      "à·ħà·Ħà¶»": 7914,
      "Ġà¶īà·ħ": 7915,
      "Ġà¶ĭà¶ºà¶±à·Ģ": 7916,
      "à¶ļà¶§à¶ļ": 7917,
      "à¶¢à¶ºà¶´": 7918,
      "à¶ĭà¶Ķ": 7919,
      "à¶ĭà·Ģà¶¸à¶±": 7920,
      "Ġ1937": 7921,
      "Ġà¶ħà·Ħà¶½à¶Ń": 7922,
      "à¯Ī": 7923,
      "à¶ºà·ĥà¶§": 7924,
      "Ġà·Ħà¶ŀ": 7925,
      "à¶«à·Ģà¶±": 7926,
      "Ġà¶ĩà·ħà¶ļ": 7927,
      "à¶»à¶§à¶§à¶¸": 7928,
      "Ġ248": 7929,
      "à¶¶à·ħà¶½": 7930,
      "Ġà¶¢à¶ºà¶¸à·Ħ": 7931,
      "Ġà¶ħà¶«à·ĥ": 7932,
      "à·ģà¶¶à¶±": 7933,
      "Ġà¶ĭà¶½à·Ģ": 7934,
      "à·ĥà¶»à¶ľ": 7935,
      "à·ĥà¶¸à¶¶": 7936,
      "à¶ļà¶»à¶«à·Ģà¶½à¶§": 7937,
      "Ġà¶ĭà¶©à¶º": 7938,
      "Ġà¶»à¶«à·Ģà¶±": 7939,
      "à·Ħà·Ģà¶½": 7940,
      "à·Ħà¶ºà·Ģ": 7941,
      "à¶ľà·ĥà¶ļ": 7942,
      "Ġà¶łà¶´": 7943,
      "à¶»à·Ģà·ģ": 7944,
      "Ġ1919": 7945,
      "Ġà¶¯à¶¸à¶´": 7946,
      "Ġà¶½à¶Łà¶§à¶¸": 7947,
      "Ø©": 7948,
      "âľ": 7949,
      "à¶´à¶¢": 7950,
      "à·ħà¶³à·Ģ": 7951,
      "Ġà¶¸à¶Ńà¶Ń": 7952,
      "Ġà¶ĩà¶ºà¶§à¶Ń": 7953,
[...]
